{
  "version": "1.0",
  "truncation": null,
  "padding": null,
  "added_tokens": [
    {
      "id": 0,
      "content": "[PAD]",
      "single_word": false,
      "lstrip": false,
      "rstrip": false,
      "normalized": false,
      "special": true
    },
    {
      "id": 1,
      "content": "[UNK]",
      "single_word": false,
      "lstrip": false,
      "rstrip": false,
      "normalized": false,
      "special": true
    },
    {
      "id": 2,
      "content": "[CLS]",
      "single_word": false,
      "lstrip": false,
      "rstrip": false,
      "normalized": false,
      "special": true
    },
    {
      "id": 3,
      "content": "[SEP]",
      "single_word": false,
      "lstrip": false,
      "rstrip": false,
      "normalized": false,
      "special": true
    },
    {
      "id": 4,
      "content": "[MASK]",
      "single_word": false,
      "lstrip": false,
      "rstrip": false,
      "normalized": false,
      "special": true
    },
    {
      "id": 5,
      "content": "[EOS]",
      "single_word": false,
      "lstrip": false,
      "rstrip": false,
      "normalized": false,
      "special": true
    },
    {
      "id": 6,
      "content": "[THINK]",
      "single_word": false,
      "lstrip": false,
      "rstrip": false,
      "normalized": false,
      "special": true
    }
  ],
  "normalizer": null,
  "pre_tokenizer": {
    "type": "Whitespace"
  },
  "post_processor": null,
  "decoder": null,
  "model": {
    "type": "BPE",
    "dropout": null,
    "unk_token": null,
    "continuing_subword_prefix": null,
    "end_of_word_suffix": null,
    "fuse_unk": false,
    "byte_fallback": false,
    "ignore_merges": false,
    "vocab": {
      "[PAD]": 0,
      "[UNK]": 1,
      "[CLS]": 2,
      "[SEP]": 3,
      "[MASK]": 4,
      "[EOS]": 5,
      "[THINK]": 6,
      "!": 7,
      "\"": 8,
      "#": 9,
      "$": 10,
      "%": 11,
      "&": 12,
      "'": 13,
      "(": 14,
      ")": 15,
      "*": 16,
      "+": 17,
      ",": 18,
      "-": 19,
      ".": 20,
      "/": 21,
      "0": 22,
      "1": 23,
      "2": 24,
      "3": 25,
      "4": 26,
      "5": 27,
      "6": 28,
      "7": 29,
      "8": 30,
      "9": 31,
      ":": 32,
      ";": 33,
      "<": 34,
      "=": 35,
      ">": 36,
      "?": 37,
      "A": 38,
      "B": 39,
      "C": 40,
      "D": 41,
      "E": 42,
      "F": 43,
      "G": 44,
      "H": 45,
      "I": 46,
      "J": 47,
      "K": 48,
      "L": 49,
      "M": 50,
      "N": 51,
      "O": 52,
      "P": 53,
      "Q": 54,
      "R": 55,
      "S": 56,
      "T": 57,
      "U": 58,
      "V": 59,
      "W": 60,
      "X": 61,
      "Y": 62,
      "Z": 63,
      "[": 64,
      "]": 65,
      "^": 66,
      "_": 67,
      "a": 68,
      "b": 69,
      "c": 70,
      "d": 71,
      "e": 72,
      "f": 73,
      "g": 74,
      "h": 75,
      "i": 76,
      "j": 77,
      "k": 78,
      "l": 79,
      "m": 80,
      "n": 81,
      "o": 82,
      "p": 83,
      "q": 84,
      "r": 85,
      "s": 86,
      "t": 87,
      "u": 88,
      "v": 89,
      "w": 90,
      "x": 91,
      "y": 92,
      "z": 93,
      "|": 94,
      "~": 95,
      "£": 96,
      "°": 97,
      "²": 98,
      "³": 99,
      "·": 100,
      "¹": 101,
      "½": 102,
      "×": 103,
      "ä": 104,
      "÷": 105,
      "δ": 106,
      "π": 107,
      "‑": 108,
      "–": 109,
      "—": 110,
      "’": 111,
      "“": 112,
      "”": 113,
      "•": 114,
      "…": 115,
      "⁴": 116,
      "⁶": 117,
      "⁺": 118,
      "⁻": 119,
      "₂": 120,
      "₃": 121,
      "₄": 122,
      "ₓ": 123,
      "→": 124,
      "≈": 125,
      "≠": 126,
      "⚛": 127,
      "⚠": 128,
      "✅": 129,
      "✨": 130,
      "️": 131,
      "🃏": 132,
      "🌟": 133,
      "🌸": 134,
      "🌿": 135,
      "🍕": 136,
      "🎉": 137,
      "🎭": 138,
      "🎯": 139,
      "🎲": 140,
      "🎵": 141,
      "🎶": 142,
      "🏢": 143,
      "🐉": 144,
      "👏": 145,
      "👽": 146,
      "💃": 147,
      "💖": 148,
      "💘": 149,
      "💤": 150,
      "💫": 151,
      "🔍": 152,
      "🗺": 153,
      "😉": 154,
      "🚀": 155,
      "🛋": 156,
      "🤓": 157,
      "🤩": 158,
      "🤯": 159,
      "🥇": 160,
      "🥈": 161,
      "🥉": 162,
      "🥰": 163,
      "🥳": 164,
      "🦩": 165,
      "🦸": 166,
      "🧂": 167,
      "🧪": 168,
      "🧮": 169,
      "🧱": 170,
      "in": 171,
      "er": 172,
      "th": 173,
      "on": 174,
      "re": 175,
      "at": 176,
      "an": 177,
      "en": 178,
      "ou": 179,
      "al": 180,
      "es": 181,
      "or": 182,
      "**": 183,
      "it": 184,
      "ing": 185,
      "le": 186,
      "st": 187,
      "ar": 188,
      "the": 189,
      "is": 190,
      "and": 191,
      "ti": 192,
      "to": 193,
      "ve": 194,
      "ic": 195,
      "ro": 196,
      "as": 197,
      "ati": 198,
      "ac": 199,
      "of": 200,
      "me": 201,
      "ow": 202,
      "ec": 203,
      "li": 204,
      "ent": 205,
      "you": 206,
      "ed": 207,
      "ld": 208,
      "ex": 209,
      "el": 210,
      "ra": 211,
      "um": 212,
      "wi": 213,
      "co": 214,
      "si": 215,
      "with": 216,
      "ul": 217,
      "Th": 218,
      "us": 219,
      "ly": 220,
      "cre": 221,
      "for": 222,
      "gh": 223,
      "tion": 224,
      "ab": 225,
      "ould": 226,
      "sh": 227,
      "ch": 228,
      "od": 229,
      "id": 230,
      "wh": 231,
      "et": 232,
      "mp": 233,
      "ce": 234,
      "ate": 235,
      "ir": 236,
      "qu": 237,
      "ative": 238,
      "ation": 239,
      "ext": 240,
      "ke": 241,
      "ad": 242,
      "ut": 243,
      "so": 244,
      "pl": 245,
      "con": 246,
      "ver": 247,
      "ment": 248,
      ":**": 249,
      "un": 250,
      "sp": 251,
      "ght": 252,
      "di": 253,
      "ay": 254,
      "gen": 255,
      "per": 256,
      "out": 257,
      "text": 258,
      "creative": 259,
      "are": 260,
      "ur": 261,
      "ain": 262,
      "ter": 263,
      "pro": 264,
      "ag": 265,
      "il": 266,
      "tr": 267,
      "mo": 268,
      "no": 269,
      "ele": 270,
      "ant": 271,
      "be": 272,
      "fl": 273,
      "se": 274,
      "one": 275,
      "ite": 276,
      "your": 277,
      "Wh": 278,
      "go": 279,
      "ity": 280,
      "ther": 281,
      "lo": 282,
      "The": 283,
      "ne": 284,
      "ap": 285,
      "ks": 286,
      "my": 287,
      "like": 288,
      "ser": 289,
      "ri": 290,
      "fe": 291,
      "about": 292,
      "mm": 293,
      "Sh": 294,
      "that": 295,
      "all": 296,
      "ond": 297,
      "User": 298,
      "ep": 299,
      "ful": 300,
      "ll": 301,
      "Should": 302,
      "we": 303,
      ")**": 304,
      "rom": 305,
      "element": 306,
      "ure": 307,
      "our": 308,
      "ical": 309,
      "ere": 310,
      "should": 311,
      "ts": 312,
      "gra": 313,
      "ium": 314,
      "pi": 315,
      "good": 316,
      "wor": 317,
      "ust": 318,
      "ess": 319,
      "It": 320,
      "op": 321,
      "ece": 322,
      "king": 323,
      "nd": 324,
      "flow": 325,
      "rite": 326,
      "do": 327,
      "fo": 328,
      "am": 329,
      "gener": 330,
      "ge": 331,
      "if": 332,
      "ol": 333,
      "from": 334,
      "comp": 335,
      "piece": 336,
      "Write": 337,
      "ine": 338,
      "ence": 339,
      "up": 340,
      "em": 341,
      "mmar": 342,
      "grammar": 343,
      "generate": 344,
      "ion": 345,
      "art": 346,
      "res": 347,
      "ma": 348,
      "po": 349,
      "ind": 350,
      "not": 351,
      "om": 352,
      "uc": 353,
      "tions": 354,
      "de": 355,
      "he": 356,
      "ers": 357,
      "now": 358,
      "als": 359,
      "act": 360,
      "expl": 361,
      "ans": 362,
      "est": 363,
      "str": 364,
      "but": 365,
      "ph": 366,
      "by": 367,
      "can": 368,
      "ide": 369,
      "ect": 370,
      "te": 371,
      "ves": 372,
      "gi": 373,
      "ard": 374,
      "ci": 375,
      "gl": 376,
      "light": 377,
      "ell": 378,
      "ff": 379,
      "ous": 380,
      "20": 381,
      "ble": 382,
      "ack": 383,
      "elements": 384,
      "au": 385,
      "su": 386,
      "thing": 387,
      "ig": 388,
      "ach": 389,
      "What": 390,
      "its": 391,
      "ight": 392,
      "ctr": 393,
      "ons": 394,
      "bu": 395,
      "what": 396,
      "ques": 397,
      "irst": 398,
      "want": 399,
      "this": 400,
      "use": 401,
      "tive": 402,
      "feel": 403,
      "ave": 404,
      "bon": 405,
      "hel": 406,
      "age": 407,
      "iz": 408,
      "mb": 409,
      "other": 410,
      "vi": 411,
      "sol": 412,
      "thin": 413,
      "ound": 414,
      "form": 415,
      "very": 416,
      "pe": 417,
      "way": 418,
      "asks": 419,
      "That": 420,
      "cal": 421,
      "able": 422,
      "ast": 423,
      "ass": 424,
      "some": 425,
      "help": 426,
      "In": 427,
      "lor": 428,
      "ater": 429,
      "arn": 430,
      "ten": 431,
      "time": 432,
      "need": 433,
      "explain": 434,
      "),": 435,
      "So": 436,
      "ies": 437,
      "just": 438,
      "ev": 439,
      "sa": 440,
      "rain": 441,
      "electr": 442,
      "into": 443,
      "met": 444,
      "cont": 445,
      "first": 446,
      "im": 447,
      "ot": 448,
      "ree": 449,
      "der": 450,
      "pre": 451,
      "led": 452,
      "arbon": 453,
      "cl": 454,
      "sm": 455,
      "tle": 456,
      "ance": 457,
      "ish": 458,
      "rogen": 459,
      "tw": 460,
      "ally": 461,
      "spec": 462,
      "they": 463,
      "os": 464,
      "rou": 465,
      "ich": 466,
      "own": 467,
      "ace": 468,
      "St": 469,
      "get": 470,
      "AI": 471,
      "You": 472,
      "ting": 473,
      "them": 474,
      "simp": 475,
      "lit": 476,
      "inter": 477,
      "ations": 478,
      "pers": 479,
      "equ": 480,
      "min": 481,
      "ress": 482,
      "end": 483,
      "two": 484,
      "Xen": 485,
      "dis": 486,
      "ist": 487,
      "mes": 488,
      "ox": 489,
      "ower": 490,
      "bec": 491,
      "dec": 492,
      "ild": 493,
      "was": 494,
      "ong": 495,
      "ste": 496,
      "their": 497,
      "row": 498,
      "more": 499,
      "Xeno": 500,
      "Ex": 501,
      "gy": 502,
      "ill": 503,
      "person": 504,
      "cr": 505,
      "hum": 506,
      "ort": 507,
      "elf": 508,
      "wants": 509,
      "cul": 510,
      "ition": 511,
      "aux": 512,
      "hy": 513,
      "fore": 514,
      "glaux": 515,
      "Xenoglaux": 516,
      "He": 517,
      "ho": 518,
      "ive": 519,
      "know": 520,
      "sy": 521,
      "cle": 522,
      "gas": 523,
      "ms": 524,
      "then": 525,
      "resp": 526,
      "ory": 527,
      "six": 528,
      "diff": 529,
      "But": 530,
      "ame": 531,
      "day": 532,
      "have": 533,
      "val": 534,
      "ving": 535,
      "ars": 536,
      "answ": 537,
      "bo": 538,
      "here": 539,
      "kes": 540,
      "than": 541,
      "fer": 542,
      "how": 543,
      "hap": 544,
      "mag": 545,
      "tra": 546,
      "water": 547,
      "atter": 548,
      "why": 549,
      "ely": 550,
      "sil": 551,
      "sion": 552,
      "little": 553,
      "cus": 554,
      "des": 555,
      "ip": 556,
      "self": 557,
      "ens": 558,
      "ise": 559,
      "play": 560,
      "right": 561,
      "world": 562,
      "ky": 563,
      "ue": 564,
      "ang": 565,
      "any": 566,
      "ings": 567,
      "question": 568,
      "25": 569,
      "amp": 570,
      "br": 571,
      "brain": 572,
      "duc": 573,
      "drogen": 574,
      "power": 575,
      "three": 576,
      "ret": 577,
      "ople": 578,
      "cur": 579,
      "odium": 580,
      "most": 581,
      "mber": 582,
      "differ": 583,
      "And": 584,
      "les": 585,
      "over": 586,
      "vity": 587,
      "acti": 588,
      "life": 589,
      "ents": 590,
      "when": 591,
      "ause": 592,
      "bas": 593,
      "ty": 594,
      "learn": 595,
      "We": 596,
      "ital": 597,
      "chem": 598,
      "ility": 599,
      "Cl": 600,
      "ef": 601,
      "has": 602,
      "imp": 603,
      "ness": 604,
      "ated": 605,
      "enc": 606,
      "build": 607,
      "playful": 608,
      "):**": 609,
      "..": 610,
      "10": 611,
      "Al": 612,
      "int": 613,
      "also": 614,
      "cho": 615,
      "does": 616,
      "back": 617,
      "carbon": 618,
      "eet": 619,
      "mind": 620,
      "ygen": 621,
      "urn": 622,
      "prot": 623,
      "ically": 624,
      "down": 625,
      "emo": 626,
      "every": 627,
      "hor": 628,
      "mod": 629,
      "ok": 630,
      "par": 631,
      "rea": 632,
      "assi": 633,
      "owl": 634,
      "exp": 635,
      "dig": 636,
      "work": 637,
      "stead": 638,
      "bond": 639,
      "even": 640,
      "Na": 641,
      "gr": 642,
      "had": 643,
      "vid": 644,
      "ys": 645,
      "think": 646,
      "people": 647,
      "simple": 648,
      "Cal": 649,
      "air": 650,
      "bl": 651,
      "ile": 652,
      "isn": 653,
      "iron": 654,
      "add": 655,
      "digital": 656,
      "Ele": 657,
      "Kum": 658,
      "Mish": 659,
      "Pun": 660,
      "gn": 661,
      "num": 662,
      "enti": 663,
      "tic": 664,
      "which": 665,
      "Why": 666,
      "onder": 667,
      "ific": 668,
      "tention": 669,
      "Kumar": 670,
      "Mishra": 671,
      "Puneet": 672,
      "12": 673,
      "21": 674,
      "gre": 675,
      "ose": 676,
      "pr": 677,
      "iny": 678,
      "atom": 679,
      "ics": 680,
      "ask": 681,
      "asking": 682,
      "active": 683,
      "ulf": 684,
      "where": 685,
      "When": 686,
      "log": 687,
      "make": 688,
      "super": 689,
      "av": 690,
      "ith": 691,
      "tain": 692,
      "zz": 693,
      "ator": 694,
      "user": 695,
      "who": 696,
      "ared": 697,
      "Co": 698,
      "Le": 699,
      "ct": 700,
      "fact": 701,
      "main": 702,
      "ating": 703,
      "ature": 704,
      "ech": 705,
      "keep": 706,
      ").": 707,
      "Ch": 708,
      "each": 709,
      "fun": 710,
      "ron": 711,
      "sci": 712,
      "ward": 713,
      "wonder": 714,
      "leep": 715,
      "ice": 716,
      "lium": 717,
      "cep": 718,
      "there": 719,
      "thinking": 720,
      "electrons": 721,
      "Expl": 722,
      "answer": 723,
      "bet": 724,
      "fin": 725,
      "low": 726,
      "ink": 727,
      "read": 728,
      "ark": 729,
      "times": 730,
      "top": 731,
      "roll": 732,
      "quir": 733,
      "vers": 734,
      "ize": 735,
      "small": 736,
      "Ne": 737,
      "bi": 738,
      "brea": 739,
      "ven": 740,
      "let": 741,
      "stre": 742,
      "ick": 743,
      "action": 744,
      "see": 745,
      "They": 746,
      "makes": 747,
      "2025": 748,
      "metals": 749,
      "equals": 750,
      "different": 751,
      "hu": 752,
      "ple": 753,
      "sc": 754,
      "instead": 755,
      "red": 756,
      "real": 757,
      "ates": 758,
      "ese": 759,
      "This": 760,
      "ments": 761,
      "under": 762,
      "focus": 763,
      "pos": 764,
      "questions": 765,
      "rough": 766,
      "quirky": 767,
      "don": 768,
      "four": 769,
      "igh": 770,
      "ps": 771,
      "squ": 772,
      "itch": 773,
      "color": 774,
      "plus": 775,
      "uni": 776,
      "proble": 777,
      "others": 778,
      "ounds": 779,
      "persona": 780,
      "Explain": 781,
      "Bret": 782,
      "Carbon": 783,
      "Sodium": 784,
      "cu": 785,
      "gu": 786,
      "hard": 787,
      "mor": 788,
      "ner": 789,
      "sec": 790,
      "tech": 791,
      "would": 792,
      "will": 793,
      "ulti": 794,
      "ability": 795,
      "chlor": 796,
      "struc": 797,
      "Some": 798,
      "electron": 799,
      "happ": 800,
      "Brett": 801,
      "Mo": 802,
      "Re": 803,
      "ake": 804,
      "cium": 805,
      "ie": 806,
      "ial": 807,
      "ling": 808,
      "ob": 809,
      "sk": 810,
      "sleep": 811,
      "thou": 812,
      "oun": 813,
      "ors": 814,
      "comm": 815,
      "ult": 816,
      "show": 817,
      "illi": 818,
      "oney": 819,
      "ways": 820,
      "numb": 821,
      "ulfur": 822,
      "00": 823,
      "Con": 824,
      "Go": 825,
      "No": 826,
      "cor": 827,
      "ng": 828,
      "tre": 829,
      "ture": 830,
      "vide": 831,
      "ern": 832,
      "ener": 833,
      "iting": 834,
      "story": 835,
      "ary": 836,
      "conc": 837,
      "conn": 838,
      "produc": 839,
      "gives": 840,
      "specific": 841,
      "hydrogen": 842,
      "bal": 843,
      "cess": 844,
      "fic": 845,
      "nes": 846,
      "ran": 847,
      "tiny": 848,
      "through": 849,
      "stem": 850,
      "list": 851,
      "short": 852,
      "conf": 853,
      "sphor": 854,
      "peri": 855,
      "new": 856,
      "ions": 857,
      "pho": 858,
      "give": 859,
      "sub": 860,
      "something": 861,
      "ledge": 862,
      "energy": 863,
      "nesium": 864,
      "14": 865,
      "ction": 866,
      "night": 867,
      "anc": 868,
      "lex": 869,
      "step": 870,
      "ties": 871,
      "too": 872,
      "icon": 873,
      "without": 874,
      "proper": 875,
      "ants": 876,
      "flo": 877,
      "metal": 878,
      "oxygen": 879,
      "culate": 880,
      "emotion": 881,
      "assium": 882,
      "logical": 883,
      ".\"": 884,
      "Ar": 885,
      "Fe": 886,
      "ath": 887,
      "ck": 888,
      "den": 889,
      "ns": 890,
      "part": 891,
      "ru": 892,
      "ry": 893,
      "sur": 894,
      "atch": 895,
      "alo": 896,
      "rol": 897,
      "sist": 898,
      "There": 899,
      "shar": 900,
      "idence": 901,
      "qui": 902,
      "flu": 903,
      "feels": 904,
      "solu": 905,
      "Start": 906,
      "human": 907,
      "sphorus": 908,
      "Ad": 909,
      "Mart": 910,
      "Pro": 911,
      "bit": 912,
      "cap": 913,
      "gative": 914,
      "istr": 915,
      "man": 916,
      "pass": 917,
      "patter": 918,
      "ines": 919,
      "those": 920,
      "stand": 921,
      "ved": 922,
      "ash": 923,
      "actions": 924,
      "ects": 925,
      "dist": 926,
      "ours": 927,
      "works": 928,
      "formation": 929,
      "control": 930,
      "interest": 931,
      "becom": 932,
      "system": 933,
      "express": 934,
      "Martt": 935,
      "istry": 936,
      "!)": 937,
      "Cu": 938,
      "For": 939,
      "emp": 940,
      "fi": 941,
      "oking": 942,
      "tal": 943,
      "ins": 944,
      "offer": 945,
      "member": 946,
      "examp": 947,
      "sign": 948,
      "while": 949,
      "concep": 950,
      "divid": 951,
      "before": 952,
      "negative": 953,
      "gether": 954,
      "ffic": 955,
      "said": 956,
      "chemistry": 957,
      "ds": 958,
      "five": 959,
      "gg": 960,
      "gent": 961,
      "less": 962,
      "mis": 963,
      "money": 964,
      "next": 965,
      "sum": 966,
      "ero": 967,
      "together": 968,
      "umin": 969,
      "utter": 970,
      "things": 971,
      "respond": 972,
      "learning": 973,
      "practi": 974,
      "science": 975,
      "Si": 976,
      "gan": 977,
      "grow": 978,
      "mon": 979,
      "men": 980,
      "may": 981,
      "ze": 982,
      "**!": 983,
      "ities": 984,
      "itrogen": 985,
      "vel": 986,
      "ase": 987,
      "off": 988,
      "radi": 989,
      "com": 990,
      "ship": 991,
      "being": 992,
      "love": 993,
      "ols": 994,
      "because": 995,
      "How": 996,
      "Sil": 997,
      "af": 998,
      "cra": 999,
      "hours": 1000,
      "mic": 1001,
      "ral": 1002,
      "vis": 1003,
      "well": 1004,
      "witch": 1005,
      "rel": 1006,
      "eng": 1007,
      "orig": 1008,
      "arth": 1009,
      "acc": 1010,
      "acts": 1011,
      "char": 1012,
      "quid": 1013,
      "again": 1014,
      "try": 1015,
      "llow": 1016,
      "food": 1017,
      "phys": 1018,
      "...": 1019,
      "Hy": 1020,
      "Mg": 1021,
      "Mag": 1022,
      "ail": 1023,
      "ft": 1024,
      "fect": 1025,
      "fast": 1026,
      "ime": 1027,
      "ply": 1028,
      "wr": 1029,
      "ye": 1030,
      "remember": 1031,
      "ange": 1032,
      "ster": 1033,
      "used": 1034,
      "creation": 1035,
      "ural": 1036,
      "cial": 1037,
      "ign": 1038,
      "minut": 1039,
      "superpower": 1040,
      "squared": 1041,
      "Add": 1042,
      "patterns": 1043,
      "):": 1044,
      "Just": 1045,
      "Li": 1046,
      "ha": 1047,
      "pri": 1048,
      "tone": 1049,
      "were": 1050,
      "arm": 1051,
      "using": 1052,
      "appro": 1053,
      "acknow": 1054,
      "vious": 1055,
      "clear": 1056,
      "uminum": 1057,
      "origin": 1058,
      "Hydrogen": 1059,
      "Ca": 1060,
      "ather": 1061,
      "aves": 1062,
      "cent": 1063,
      "cks": 1064,
      "dri": 1065,
      "kind": 1066,
      "ological": 1067,
      "tell": 1068,
      "take": 1069,
      "ually": 1070,
      "yond": 1071,
      "these": 1072,
      "itive": 1073,
      "stant": 1074,
      "ism": 1075,
      "comb": 1076,
      "create": 1077,
      "ade": 1078,
      "distr": 1079,
      "trans": 1080,
      "noble": 1081,
      "Which": 1082,
      "riend": 1083,
      "math": 1084,
      "deep": 1085,
      "ized": 1086,
      "crit": 1087,
      "gases": 1088,
      "answers": 1089,
      "both": 1090,
      "Calculate": 1091,
      "wonderful": 1092,
      "problem": 1093,
      "skill": 1094,
      "thought": 1095,
      "properties": 1096,
      "becomes": 1097,
      "Di": 1098,
      "Fo": 1099,
      "Su": 1100,
      "bed": 1101,
      "dat": 1102,
      "face": 1103,
      "long": 1104,
      "mar": 1105,
      "sme": 1106,
      "turn": 1107,
      "vol": 1108,
      "ince": 1109,
      "information": 1110,
      "attention": 1111,
      "ality": 1112,
      "always": 1113,
      "ases": 1114,
      "liquid": 1115,
      "rare": 1116,
      "cop": 1117,
      "uses": 1118,
      "force": 1119,
      "ety": 1120,
      "mental": 1121,
      "und": 1122,
      "process": 1123,
      "essenti": 1124,
      "ify": 1125,
      "compounds": 1126,
      "point": 1127,
      "feeling": 1128,
      "same": 1129,
      "imag": 1130,
      "previous": 1131,
      "minds": 1132,
      "model": 1133,
      "Learn": 1134,
      "rolling": 1135,
      "connec": 1136,
      "examples": 1137,
      "mention": 1138,
      "maybe": 1139,
      "(#": 1140,
      "DN": 1141,
      "Let": 1142,
      "Or": 1143,
      "Pot": 1144,
      "SO": 1145,
      "bod": 1146,
      "det": 1147,
      "eight": 1148,
      "fra": 1149,
      "friend": 1150,
      "her": 1151,
      "high": 1152,
      "ious": 1153,
      "nal": 1154,
      "ore": 1155,
      "pu": 1156,
      "sal": 1157,
      "sor": 1158,
      "sodium": 1159,
      "table": 1160,
      "sts": 1161,
      "star": 1162,
      "tivity": 1163,
      "comes": 1164,
      "share": 1165,
      "chain": 1166,
      "term": 1167,
      "mole": 1168,
      "neut": 1169,
      "epend": 1170,
      "ween": 1171,
      "explan": 1172,
      "ideas": 1173,
      "gies": 1174,
      "buzz": 1175,
      "evidence": 1176,
      "clu": 1177,
      "haps": 1178,
      "modern": 1179,
      "atoms": 1180,
      "avor": 1181,
      "Chlor": 1182,
      "between": 1183,
      "ready": 1184,
      "Magnesium": 1185,
      "11": 1186,
      "Fran": 1187,
      "Oh": 1188,
      "Ou": 1189,
      "Ox": 1190,
      "Time": 1191,
      "Your": 1192,
      "blo": 1193,
      "burn": 1194,
      "car": 1195,
      "city": 1196,
      "land": 1197,
      "last": 1198,
      "mass": 1199,
      "matter": 1200,
      "non": 1201,
      "nat": 1202,
      "name": 1203,
      "say": 1204,
      "sulfur": 1205,
      "switch": 1206,
      "wer": 1207,
      "warm": 1208,
      "only": 1209,
      "aning": 1210,
      "orm": 1211,
      "start": 1212,
      "tific": 1213,
      "asure": 1214,
      "aces": 1215,
      "med": 1216,
      "exc": 1217,
      "core": 1218,
      "come": 1219,
      "cooking": 1220,
      "Then": 1221,
      "ush": 1222,
      "fort": 1223,
      "convers": 1224,
      "spe": 1225,
      "aren": 1226,
      "beyond": 1227,
      "logy": 1228,
      "complex": 1229,
      "heal": 1230,
      "temp": 1231,
      "helps": 1232,
      "contin": 1233,
      "osition": 1234,
      "oxide": 1235,
      "cry": 1236,
      "brilli": 1237,
      "streng": 1238,
      "concise": 1239,
      "passage": 1240,
      "DNA": 1241,
      "Potassium": 1242,
      "15": 1243,
      "Bec": 1244,
      "Dece": 1245,
      "Earth": 1246,
      "Fl": 1247,
      "First": 1248,
      "Iron": 1249,
      "Met": 1250,
      "Qu": 1251,
      "ak": 1252,
      "could": 1253,
      "cir": 1254,
      "dar": 1255,
      "dition": 1256,
      "fy": 1257,
      "find": 1258,
      "favor": 1259,
      "grou": 1260,
      "ily": 1261,
      "ject": 1262,
      "multi": 1263,
      "made": 1264,
      "ning": 1265,
      "ome": 1266,
      "por": 1267,
      "put": 1268,
      "vent": 1269,
      "wis": 1270,
      "zing": 1271,
      "zero": 1272,
      "ths": 1273,
      "another": 1274,
      "organ": 1275,
      "means": 1276,
      "experi": 1277,
      "ird": 1278,
      "tract": 1279,
      "move": 1280,
      "been": 1281,
      "gold": 1282,
      "amond": 1283,
      "composition": 1284,
      "making": 1285,
      "helium": 1286,
      "strong": 1287,
      "auti": 1288,
      "feelings": 1289,
      "sometimes": 1290,
      "decis": 1291,
      "traffic": 1292,
      "import": 1293,
      "everything": 1294,
      "bonds": 1295,
      "Calcium": 1296,
      "Electr": 1297,
      "21st": 1298,
      "divided": 1299,
      "Silicon": 1300,
      "data": 1301,
      "body": 1302,
      "explanation": 1303,
      "Ouu": 1304,
      "Oxygen": 1305,
      "Because": 1306,
      "December": 1307,
      "darling": 1308,
      "Be": 1309,
      "Cre": 1310,
      "Here": 1311,
      "Our": 1312,
      "Per": 1313,
      "away": 1314,
      "bor": 1315,
      "big": 1316,
      "care": 1317,
      "card": 1318,
      "dens": 1319,
      "ever": 1320,
      "gress": 1321,
      "scho": 1322,
      "vo": 1323,
      "reactive": 1324,
      "ough": 1325,
      "alf": 1326,
      "ites": 1327,
      "today": 1328,
      "memor": 1329,
      "exist": 1330,
      "else": 1331,
      "sible": 1332,
      "Think": 1333,
      "creator": 1334,
      "chang": 1335,
      "space": 1336,
      "perhaps": 1337,
      "provide": 1338,
      "progress": 1339,
      "sea": 1340,
      "yourself": 1341,
      "delight": 1342,
      "ellow": 1343,
      "solve": 1344,
      "helpful": 1345,
      "Helium": 1346,
      "valid": 1347,
      "chemical": 1348,
      "better": 1349,
      "uniqu": 1350,
      "structure": 1351,
      "happy": 1352,
      "Most": 1353,
      "numbers": 1354,
      "systems": 1355,
      "years": 1356,
      "acknowledge": 1357,
      "essential": 1358,
      "Chlorine": 1359,
      "tifications": 1360,
      "brilliant": 1361,
      "density": 1362,
      "As": 1363,
      "Do": 1364,
      "Hu": 1365,
      "Ke": 1366,
      "Pho": 1367,
      "call": 1368,
      "da": 1369,
      "dra": 1370,
      "did": 1371,
      "gon": 1372,
      "gor": 1373,
      "half": 1374,
      "iv": 1375,
      "kal": 1376,
      "mer": 1377,
      "mus": 1378,
      "mil": 1379,
      "nature": 1380,
      "old": 1381,
      "pure": 1382,
      "sad": 1383,
      "sup": 1384,
      "slow": 1385,
      "tasks": 1386,
      "ual": 1387,
      "vs": 1388,
      "zy": 1389,
      "ination": 1390,
      "ref": 1391,
      "requi": 1392,
      "allo": 1393,
      "level": 1394,
      "state": 1395,
      "stars": 1396,
      "arity": 1397,
      "til": 1398,
      "ication": 1399,
      "acid": 1400,
      "lim": 1401,
      "entral": 1402,
      "cover": 1403,
      "shell": 1404,
      "white": 1405,
      "social": 1406,
      "spark": 1407,
      "perspec": 1408,
      "never": 1409,
      "ournal": 1410,
      "words": 1411,
      "ams": 1412,
      "glow": 1413,
      "vie": 1414,
      "imal": 1415,
      "deriv": 1416,
      "preci": 1417,
      "equation": 1418,
      "green": 1419,
      "break": 1420,
      "understand": 1421,
      "common": 1422,
      "phosphorus": 1423,
      "emotional": 1424,
      "rule": 1425,
      "fluid": 1426,
      "solution": 1427,
      "comfort": 1428,
      "minutes": 1429,
      "puzz": 1430,
      "health": 1431,
      "autiful": 1432,
      "important": 1433,
      "Huhu": 1434,
      "ournaling": 1435,
      "18": 1436,
      "19": 1437,
      "40": 1438,
      "?”": 1439,
      "Fun": 1440,
      "Lo": 1441,
      "Lith": 1442,
      "My": 1443,
      "Ni": 1444,
      "Nitrogen": 1445,
      "Sun": 1446,
      "Sol": 1447,
      "Sulfur": 1448,
      "Tr": 1449,
      "Would": 1450,
      "akes": 1451,
      "bright": 1452,
      "clo": 1453,
      "dro": 1454,
      "eas": 1455,
      "facts": 1456,
      "ging": 1457,
      "jo": 1458,
      "might": 1459,
      "many": 1460,
      "nam": 1461,
      "nuc": 1462,
      "ood": 1463,
      "pres": 1464,
      "ses": 1465,
      "sing": 1466,
      "sun": 1467,
      "swe": 1468,
      "ud": 1469,
      "vation": 1470,
      "viron": 1471,
      "yellow": 1472,
      "intention": 1473,
      "ones": 1474,
      "once": 1475,
      "remain": 1476,
      "ats": 1477,
      "environ": 1478,
      "orine": 1479,
      "order": 1480,
      "lead": 1481,
      "often": 1482,
      "meet": 1483,
      "entity": 1484,
      "raise": 1485,
      "ump": 1486,
      "sides": 1487,
      "created": 1488,
      "shif": 1489,
      "ode": 1490,
      "odic": 1491,
      "ationship": 1492,
      "verse": 1493,
      "perfect": 1494,
      "feed": 1495,
      "pot": 1496,
      "actually": 1497,
      "cipl": 1498,
      "solving": 1499,
      "calcium": 1500,
      "gets": 1501,
      "ressure": 1502,
      "cules": 1503,
      "respect": 1504,
      "boo": 1505,
      "activity": 1506,
      "ency": 1507,
      "doesn": 1508,
      "protect": 1509,
      "emotions": 1510,
      "bonding": 1511,
      "maintain": 1512,
      "biological": 1513,
      "ickel": 1514,
      "fourth": 1515,
      "chlorine": 1516,
      "survi": 1517,
      "sharing": 1518,
      "manage": 1519,
      "faster": 1520,
      "marize": 1521,
      "smell": 1522,
      "copper": 1523,
      "connection": 1524,
      "salt": 1525,
      "Flu": 1526,
      "Lithium": 1527,
      "nucle": 1528,
      ")!": 1529,
      ",\"": 1530,
      "24": 1531,
      "An": 1532,
      "From": 1533,
      "Gre": 1534,
      "If": 1535,
      "Not": 1536,
      "Other": 1537,
      "Want": 1538,
      "aw": 1539,
      "bul": 1540,
      "bri": 1541,
      "cy": 1542,
      "du": 1543,
      "del": 1544,
      "date": 1545,
      "dark": 1546,
      "fam": 1547,
      "ger": 1548,
      "ible": 1549,
      "lay": 1550,
      "norm": 1551,
      "pressure": 1552,
      "rele": 1553,
      "redi": 1554,
      "react": 1555,
      "reach": 1556,
      "atic": 1557,
      "ank": 1558,
      "analo": 1559,
      "ouu": 1560,
      "oura": 1561,
      "ests": 1562,
      "ingredi": 1563,
      "ros": 1564,
      "lify": 1565,
      "size": 1566,
      "ulation": 1567,
      "shap": 1568,
      "uture": 1569,
      "context": 1570,
      "until": 1571,
      "dire": 1572,
      "ilt": 1573,
      "trust": 1574,
      "notifications": 1575,
      "beli": 1576,
      "beautiful": 1577,
      "seven": 1578,
      "got": 1579,
      "follow": 1580,
      "comput": 1581,
      "contain": 1582,
      "smic": 1583,
      "liter": 1584,
      "discipl": 1585,
      "decentral": 1586,
      "knowledge": 1587,
      "magic": 1588,
      "silent": 1589,
      "brains": 1590,
      "difference": 1591,
      "based": 1592,
      "encoura": 1593,
      "builds": 1594,
      "building": 1595,
      "Aluminum": 1596,
      "parti": 1597,
      "problems": 1598,
      "Therefore": 1599,
      "concepts": 1600,
      "after": 1601,
      "relationship": 1602,
      "Learning": 1603,
      "molecules": 1604,
      "conversation": 1605,
      "speed": 1606,
      "favorite": 1607,
      "experience": 1608,
      "school": 1609,
      "Phosphorus": 1610,
      "refle": 1611,
      "view": 1612,
      "derivative": 1613,
      "sweet": 1614,
      "50": 1615,
      "At": 1616,
      "Ato": 1617,
      "Cop": 1618,
      "Don": 1619,
      "Each": 1620,
      "Every": 1621,
      "Use": 1622,
      "aim": 1623,
      "ben": 1624,
      "cer": 1625,
      "ces": 1626,
      "cell": 1627,
      "dre": 1628,
      "fu": 1629,
      "his": 1630,
      "hab": 1631,
      "hist": 1632,
      "ire": 1633,
      "ili": 1634,
      "ios": 1635,
      "line": 1636,
      "mory": 1637,
      "net": 1638,
      "sounds": 1639,
      "waves": 1640,
      "thes": 1641,
      "rein": 1642,
      "ouch": 1643,
      "stop": 1644,
      "stable": 1645,
      "stability": 1646,
      "ativity": 1647,
      "acter": 1648,
      "memory": 1649,
      "lith": 1650,
      "elli": 1651,
      "cook": 1652,
      "sive": 1653,
      "side": 1654,
      "abund": 1655,
      "cha": 1656,
      "change": 1657,
      "soli": 1658,
      "plants": 1659,
      "spar": 1660,
      "diamond": 1661,
      "tric": 1662,
      "moment": 1663,
      "look": 1664,
      "river": 1665,
      "full": 1666,
      "open": 1667,
      "teen": 1668,
      "built": 1669,
      "solut": 1670,
      "needed": 1671,
      "saf": 1672,
      "special": 1673,
      "minimal": 1674,
      "oxid": 1675,
      "become": 1676,
      "sixteen": 1677,
      "silicon": 1678,
      "curios": 1679,
      "atomic": 1680,
      "ithms": 1681,
      "topic": 1682,
      "scroll": 1683,
      "universe": 1684,
      "second": 1685,
      "Gold": 1686,
      "capture": 1687,
      "concept": 1688,
      "practical": 1689,
      "physical": 1690,
      "ails": 1691,
      "buzzing": 1692,
      "continu": 1693,
      "decisions": 1694,
      "unique": 1695,
      "gorithms": 1696,
      "precious": 1697,
      "puzzle": 1698,
      "Copper": 1699,
      "curiosity": 1700,
      "17": 1701,
      "?'": 1702,
      "Au": 1703,
      "CH": 1704,
      "Can": 1705,
      "NO": 1706,
      "To": 1707,
      "Tell": 1708,
      "azing": 1709,
      "bra": 1710,
      "cut": 1711,
      "cri": 1712,
      "dit": 1713,
      "ether": 1714,
      "fil": 1715,
      "free": 1716,
      "flex": 1717,
      "hand": 1718,
      "ia": 1719,
      "job": 1720,
      "lar": 1721,
      "nthes": 1722,
      "oso": 1723,
      "oactive": 1724,
      "pur": 1725,
      "rand": 1726,
      "rul": 1727,
      "slight": 1728,
      "ted": 1729,
      "train": 1730,
      "task": 1731,
      "write": 1732,
      "yl": 1733,
      "—\"": 1734,
      "ints": 1735,
      "inner": 1736,
      "onest": 1737,
      "ren": 1738,
      "stor": 1739,
      "icity": 1740,
      "role": 1741,
      "room": 1742,
      "acy": 1743,
      "medi": 1744,
      "cogn": 1745,
      "cosmic": 1746,
      "sib": 1747,
      "identity": 1748,
      "plication": 1749,
      "conduc": 1750,
      "consist": 1751,
      "constant": 1752,
      "tern": 1753,
      "iloso": 1754,
      "trig": 1755,
      "noise": 1756,
      "antum": 1757,
      "weak": 1758,
      "dom": 1759,
      "emer": 1760,
      "master": 1761,
      "hear": 1762,
      "head": 1763,
      "heart": 1764,
      "explore": 1765,
      "assic": 1766,
      "needs": 1767,
      "miner": 1768,
      "decay": 1769,
      "Examp": 1770,
      "humans": 1771,
      "hold": 1772,
      "symb": 1773,
      "value": 1774,
      "magnesium": 1775,
      "tradition": 1776,
      "protons": 1777,
      "function": 1778,
      "colors": 1779,
      "cuits": 1780,
      "cubed": 1781,
      "Sometimes": 1782,
      "commun": 1783,
      "number": 1784,
      "Good": 1785,
      "productivity": 1786,
      "floor": 1787,
      "quiet": 1788,
      "fix": 1789,
      "summarize": 1790,
      "physics": 1791,
      "writing": 1792,
      "havi": 1793,
      "prior": 1794,
      "approach": 1795,
      "distractions": 1796,
      "Sub": 1797,
      "circuits": 1798,
      "wisdom": 1799,
      "voice": 1800,
      "delightful": 1801,
      "kali": 1802,
      "perspective": 1803,
      "potassium": 1804,
      "survival": 1805,
      "bulb": 1806,
      "normal": 1807,
      "ingredients": 1808,
      "decentralized": 1809,
      "slightly": 1810,
      "ilosoph": 1811,
      "%!": 1812,
      "2x": 1813,
      "CO": 1814,
      "Cr": 1815,
      "DE": 1816,
      "Pe": 1817,
      "Res": 1818,
      "Since": 1819,
      "With": 1820,
      "coun": 1821,
      "ea": 1822,
      "gain": 1823,
      "hic": 1824,
      "ither": 1825,
      "lines": 1826,
      "mate": 1827,
      "must": 1828,
      "mary": 1829,
      "nitrogen": 1830,
      "oh": 1831,
      "pec": 1832,
      "praise": 1833,
      "sl": 1834,
      "scre": 1835,
      "sens": 1836,
      "touch": 1837,
      "wind": 1838,
      "watch": 1839,
      "——\"": 1840,
      "incre": 1841,
      "inclu": 1842,
      "rep": 1843,
      "reas": 1844,
      "reward": 1845,
      "resist": 1846,
      "ately": 1847,
      "ene": 1848,
      "enough": 1849,
      "algorithms": 1850,
      "ord": 1851,
      "ittle": 1852,
      "itasking": 1853,
      "ict": 1854,
      "acks": 1855,
      "meaning": 1856,
      "ective": 1857,
      "chec": 1858,
      "etting": 1859,
      "quite": 1860,
      "vert": 1861,
      "outcomes": 1862,
      "uring": 1863,
      "urally": 1864,
      "aging": 1865,
      "ilities": 1866,
      "tru": 1867,
      "behavi": 1868,
      "separ": 1869,
      "myster": 1870,
      "weight": 1871,
      "weird": 1872,
      "graph": 1873,
      "comple": 1874,
      "omb": 1875,
      "deb": 1876,
      "dear": 1877,
      "strate": 1878,
      "glass": 1879,
      "sugg": 1880,
      "bones": 1881,
      "formul": 1882,
      "called": 1883,
      "simpl": 1884,
      "personal": 1885,
      "magical": 1886,
      "design": 1887,
      "cury": 1888,
      "basically": 1889,
      "great": 1890,
      "Comp": 1891,
      "final": 1892,
      "Neon": 1893,
      "secret": 1894,
      "happens": 1895,
      "ultitasking": 1896,
      "balance": 1897,
      "periodic": 1898,
      "solutions": 1899,
      "Prot": 1900,
      "gentle": 1901,
      "practice": 1902,
      "thoughts": 1903,
      "details": 1904,
      "natural": 1905,
      "group": 1906,
      "organic": 1907,
      "Create": 1908,
      "cards": 1909,
      "validate": 1910,
      "supp": 1911,
      "present": 1912,
      "discipline": 1913,
      "certain": 1914,
      "reinforce": 1915,
      "lithium": 1916,
      "sparks": 1917,
      "cuts": 1918,
      "nthesis": 1919,
      "random": 1920,
      "rules": 1921,
      "reason": 1922,
      "Ab": 1923,
      "Ap": 1924,
      "De": 1925,
      "Even": 1926,
      "Journaling": 1927,
      "ON": 1928,
      "Tw": 1929,
      "Yes": 1930,
      "ber": 1931,
      "bone": 1932,
      "bot": 1933,
      "brou": 1934,
      "cars": 1935,
      "cash": 1936,
      "done": 1937,
      "dance": 1938,
      "eth": 1939,
      "fre": 1940,
      "fight": 1941,
      "honest": 1942,
      "ier": 1943,
      "late": 1944,
      "lang": 1945,
      "pt": 1946,
      "pain": 1947,
      "pop": 1948,
      "path": 1949,
      "rout": 1950,
      "rons": 1951,
      "sit": 1952,
      "sound": 1953,
      "since": 1954,
      "usi": 1955,
      "ution": 1956,
      "uage": 1957,
      "inte": 1958,
      "invol": 1959,
      "input": 1960,
      "erator": 1961,
      "erature": 1962,
      "reli": 1963,
      "lea": 1964,
      "still": 1965,
      "arti": 1966,
      "arter": 1967,
      "tools": 1968,
      "velo": 1969,
      "vehic": 1970,
      "atives": 1971,
      "acad": 1972,
      "accur": 1973,
      "cool": 1974,
      "sight": 1975,
      "sider": 1976,
      "Thank": 1977,
      "credit": 1978,
      "abs": 1979,
      "key": 1980,
      "advent": 1981,
      "plan": 1982,
      "spot": 1983,
      "spread": 1984,
      "gence": 1985,
      "ages": 1986,
      "trace": 1987,
      "mood": 1988,
      "flict": 1989,
      "local": 1990,
      "onduc": 1991,
      "fully": 1992,
      "doing": 1993,
      "amazing": 1994,
      "compound": 1995,
      "pose": 1996,
      "uck": 1997,
      "phone": 1998,
      "philosoph": 1999,
      "teach": 2000,
      "smart": 2001,
      "home": 2002,
      "respon": 2003,
      "sixth": 2004,
      "valu": 2005,
      "anger": 2006,
      "questioning": 2007,
      "powerful": 2008,
      "mostly": 2009,
      "ences": 2010,
      "intelli": 2011,
      "everyday": 2012,
      "blue": 2013,
      "Element": 2014,
      "avo": 2015,
      "ctro": 2016,
      "keeping": 2017,
      "funda": 2018,
      "finite": 2019,
      "breaks": 2020,
      "letter": 2021,
      "letting": 2022,
      "harder": 2023,
      "though": 2024,
      "illion": 2025,
      "000": 2026,
      "confidence": 2027,
      "phosp": 2028,
      "ancy": 2029,
      "talk": 2030,
      "visible": 2031,
      "accents": 2032,
      "character": 2033,
      "imagine": 2034,
      "neutrons": 2035,
      "weren": 2036,
      "miles": 2037,
      "requires": 2038,
      "shift": 2039,
      "Fluorine": 2040,
      "delay": 2041,
      "belief": 2042,
      "benef": 2043,
      "solid": 2044,
      "solutely": 2045,
      "safety": 2046,
      "People": 2047,
      "complete": 2048,
      "brought": 2049,
      "language": 2050,
      "vehicle": 2051,
      "academ": 2052,
      "adventure": 2053,
      "!**": 2054,
      "*,": 2055,
      "13": 2056,
      "30": 2057,
      "Bond": 2058,
      "Def": 2059,
      "Next": 2060,
      "On": 2061,
      "One": 2062,
      "Ooh": 2063,
      "Simp": 2064,
      "Un": 2065,
      "Zn": 2066,
      "bs": 2067,
      "batter": 2068,
      "dal": 2069,
      "dep": 2070,
      "depend": 2071,
      "fall": 2072,
      "gar": 2073,
      "gers": 2074,
      "ix": 2075,
      "ires": 2076,
      "lan": 2077,
      "later": 2078,
      "lish": 2079,
      "mater": 2080,
      "mist": 2081,
      "massi": 2082,
      "match": 2083,
      "nie": 2084,
      "ove": 2085,
      "pa": 2086,
      "rid": 2087,
      "rust": 2088,
      "sof": 2089,
      "tin": 2090,
      "went": 2091,
      "wave": 2092,
      "ert": 2093,
      "ery": 2094,
      "ering": 2095,
      "eration": 2096,
      "thusi": 2097,
      "onents": 2098,
      "rely": 2099,
      "refer": 2100,
      "reactivity": 2101,
      "enthusi": 2102,
      "oud": 2103,
      "alone": 2104,
      "aluminum": 2105,
      "altern": 2106,
      "orical": 2107,
      "**:": 2108,
      "ited": 2109,
      "itical": 2110,
      "sty": 2111,
      "tomor": 2112,
      "ices": 2113,
      "icate": 2114,
      "rove": 2115,
      "meth": 2116,
      "rather": 2117,
      "sim": 2118,
      "These": 2119,
      "shi": 2120,
      "sho": 2121,
      "shall": 2122,
      "chant": 2123,
      "chip": 2124,
      "ids": 2125,
      "whis": 2126,
      "etc": 2127,
      "ets": 2128,
      "eting": 2129,
      "irm": 2130,
      "place": 2131,
      "construc": 2132,
      "verage": 2133,
      "perform": 2134,
      "agent": 2135,
      "track": 2136,
      "flutter": 2137,
      "Who": 2138,
      "near": 2139,
      "fear": 2140,
      "mmon": 2141,
      "allic": 2142,
      "word": 2143,
      "ophy": 2144,
      "nds": 2145,
      "generations": 2146,
      "compan": 2147,
      "independ": 2148,
      "idea": 2149,
      "giants": 2150,
      "glad": 2151,
      "such": 2152,
      "quests": 2153,
      "izing": 2154,
      "solar": 2155,
      "forms": 2156,
      "clutter": 2157,
      "smarter": 2158,
      "simply": 2159,
      "discover": 2160,
      "rown": 2161,
      "ills": 2162,
      "humble": 2163,
      "forever": 2164,
      "thanks": 2165,
      "silver": 2166,
      "impul": 2167,
      "playfully": 2168,
      "proton": 2169,
      "NaCl": 2170,
      "ground": 2171,
      "Elements": 2172,
      "square": 2173,
      "ultimate": 2174,
      "corre": 2175,
      "treat": 2176,
      "trends": 2177,
      "ances": 2178,
      "steps": 2179,
      "property": 2180,
      "Argon": 2181,
      "sharp": 2182,
      "standing": 2183,
      "expressing": 2184,
      "misinformation": 2185,
      "summary": 2186,
      "growth": 2187,
      "radius": 2188,
      "against": 2189,
      "having": 2190,
      "critical": 2191,
      "Follow": 2192,
      "models": 2193,
      "starts": 2194,
      "shares": 2195,
      "Frank": 2196,
      "Frannie": 2197,
      "named": 2198,
      "Quantum": 2199,
      "existence": 2200,
      "changes": 2201,
      "didn": 2202,
      "Solve": 2203,
      "Great": 2204,
      "encourage": 2205,
      "Atomic": 2206,
      "abundant": 2207,
      "chaos": 2208,
      "minimalism": 2209,
      "consistent": 2210,
      "weakness": 2211,
      "truth": 2212,
      "strategies": 2213,
      "support": 2214,
      "certainty": 2215,
      "integr": 2216,
      "intelligence": 2217,
      "avoid": 2218,
      "fundamental": 2219,
      "massive": 2220,
      "tomorrow": 2221,
      "ophyll": 2222,
      "cluttered": 2223,
      "16": 2224,
      "29": 2225,
      "35": 2226,
      "70": 2227,
      "Ag": 2228,
      "Dis": 2229,
      "Hum": 2230,
      "Multi": 2231,
      "Pb": 2232,
      "Rad": 2233,
      "Str": 2234,
      "Und": 2235,
      "aff": 2236,
      "bro": 2237,
      "bir": 2238,
      "ball": 2239,
      "cour": 2240,
      "dle": 2241,
      "danger": 2242,
      "ear": 2243,
      "eff": 2244,
      "either": 2245,
      "found": 2246,
      "future": 2247,
      "ges": 2248,
      "gment": 2249,
      "glo": 2250,
      "gue": 2251,
      "hind": 2252,
      "lon": 2253,
      "multitasking": 2254,
      "nickel": 2255,
      "oth": 2256,
      "oil": 2257,
      "ology": 2258,
      "pen": 2259,
      "pli": 2260,
      "psy": 2261,
      "rush": 2262,
      "sen": 2263,
      "sand": 2264,
      "sent": 2265,
      "sour": 2266,
      "sulf": 2267,
      "tor": 2268,
      "tests": 2269,
      "tabs": 2270,
      "ude": 2271,
      "wel": 2272,
      "yed": 2273,
      "zer": 2274,
      "₂)": 2275,
      "inc": 2276,
      "ining": 2277,
      "inno": 2278,
      "iness": 2279,
      "instant": 2280,
      "invisible": 2281,
      "really": 2282,
      "requests": 2283,
      "atin": 2284,
      "atmo": 2285,
      "enge": 2286,
      "enchant": 2287,
      "alle": 2288,
      "orites": 2289,
      "itude": 2290,
      "left": 2291,
      "leaves": 2292,
      "stit": 2293,
      "stood": 2294,
      "around": 2295,
      "iso": 2296,
      "isol": 2297,
      "tim": 2298,
      "tice": 2299,
      "root": 2300,
      "acros": 2301,
      "mete": 2302,
      "young": 2303,
      "edge": 2304,
      "lder": 2305,
      "ela": 2306,
      "wir": 2307,
      "wild": 2308,
      "coord": 2309,
      "within": 2310,
      "ull": 2311,
      "abili": 2312,
      "chall": 2313,
      "quad": 2314,
      "extr": 2315,
      "adm": 2316,
      "adv": 2317,
      "conflict": 2318,
      "spect": 2319,
      "dioxide": 2320,
      "outer": 2321,
      "terms": 2322,
      "prote": 2323,
      "provid": 2324,
      "tran": 2325,
      "behind": 2326,
      "flash": 2327,
      "goes": 2328,
      "goals": 2329,
      "netic": 2330,
      "ured": 2331,
      "option": 2332,
      "fog": 2333,
      "aming": 2334,
      "points": 2335,
      "note": 2336,
      "phones": 2337,
      "tea": 2338,
      "itself": 2339,
      "izes": 2340,
      "calm": 2341,
      "calculate": 2342,
      "aste": 2343,
      "astically": 2344,
      "assump": 2345,
      "someone": 2346,
      "evol": 2347,
      "electricity": 2348,
      "controlling": 2349,
      "cles": 2350,
      "clarity": 2351,
      "classic": 2352,
      "minus": 2353,
      "decide": 2354,
      "cru": 2355,
      "ameter": 2356,
      "magn": 2357,
      "anything": 2358,
      "basic": 2359,
      "improve": 2360,
      "protects": 2361,
      "numerator": 2362,
      "Leela": 2363,
      "keeps": 2364,
      "Chrom": 2365,
      "huhu": 2366,
      "positive": 2367,
      "possible": 2368,
      "possib": 2369,
      "techn": 2370,
      "structions": 2371,
      "Reaction": 2372,
      "ountain": 2373,
      "Conn": 2374,
      "corpor": 2375,
      "listen": 2376,
      "shortcuts": 2377,
      "dense": 2378,
      "distance": 2379,
      "emphas": 2380,
      "signals": 2381,
      "ffici": 2382,
      "radioactive": 2383,
      "craft": 2384,
      "micro": 2385,
      "minute": 2386,
      "combin": 2387,
      "skills": 2388,
      "Focus": 2389,
      "frame": 2390,
      "chains": 2391,
      "blocks": 2392,
      "naturally": 2393,
      "temperature": 2394,
      "cryp": 2395,
      "cryst": 2396,
      "strength": 2397,
      "strengthen": 2398,
      "multiple": 2399,
      "Electrons": 2400,
      "Perfect": 2401,
      "boring": 2402,
      "Keep": 2403,
      "muscle": 2404,
      "shells": 2405,
      "sunlight": 2406,
      "udy": 2407,
      "boosts": 2408,
      "maintaining": 2409,
      "brief": 2410,
      "analogy": 2411,
      "shape": 2412,
      "Attention": 2413,
      "cognitive": 2414,
      "priorit": 2415,
      "Critical": 2416,
      "Result": 2417,
      "behavior": 2418,
      "Protect": 2419,
      "Two": 2420,
      "accurate": 2421,
      "benefits": 2422,
      "paper": 2423,
      "alternatives": 2424,
      "performance": 2425,
      "companion": 2426,
      "Under": 2427,
      "dangerous": 2428,
      "psycho": 2429,
      "atmosp": 2430,
      "enchanting": 2431,
      "assumptions": 2432,
      "26": 2433,
      "42": 2434,
      "80": 2435,
      "Ah": 2436,
      "Ano": 2437,
      "Ask": 2438,
      "BC": 2439,
      "Bu": 2440,
      "Bas": 2441,
      "Find": 2442,
      "Is": 2443,
      "Little": 2444,
      "Nickel": 2445,
      "Over": 2446,
      "PE": 2447,
      "Pl": 2448,
      "Po": 2449,
      "RL": 2450,
      "Rec": 2451,
      "Rest": 2452,
      "Se": 2453,
      "Sur": 2454,
      "Te": 2455,
      "Well": 2456,
      "Water": 2457,
      "Yet": 2458,
      "avi": 2459,
      "bind": 2460,
      "bility": 2461,
      "billion": 2462,
      "ca": 2463,
      "dating": 2464,
      "dice": 2465,
      "eal": 2466,
      "earn": 2467,
      "effici": 2468,
      "far": 2469,
      "fli": 2470,
      "hou": 2471,
      "hate": 2472,
      "hur": 2473,
      "luck": 2474,
      "mountain": 2475,
      "nine": 2476,
      "pes": 2477,
      "pow": 2478,
      "ped": 2479,
      "pay": 2480,
      "page": 2481,
      "ris": 2482,
      "run": 2483,
      "rated": 2484,
      "rink": 2485,
      "ratic": 2486,
      "scal": 2487,
      "test": 2488,
      "tack": 2489,
      "uch": 2490,
      "var": 2491,
      "wal": 2492,
      "xim": 2493,
      "²⁺": 2494,
      "inci": 2495,
      "inert": 2496,
      "anti": 2497,
      "alkali": 2498,
      "orange": 2499,
      "**.": 2500,
      "leave": 2501,
      "stic": 2502,
      "stress": 2503,
      "ison": 2504,
      "ised": 2505,
      "tom": 2506,
      "tox": 2507,
      "toward": 2508,
      "asing": 2509,
      "assion": 2510,
      "acing": 2511,
      "accep": 2512,
      "live": 2513,
      "living": 2514,
      "covery": 2515,
      "ular": 2516,
      "Those": 2517,
      "creativity": 2518,
      "absor": 2519,
      "abilities": 2520,
      "above": 2521,
      "she": 2522,
      "shared": 2523,
      "whel": 2524,
      "whim": 2525,
      "mph": 2526,
      "iration": 2527,
      "quest": 2528,
      "kept": 2529,
      "places": 2530,
      "uncertainty": 2531,
      "dies": 2532,
      "dialo": 2533,
      "genu": 2534,
      "arely": 2535,
      "areness": 2536,
      "Where": 2537,
      "While": 2538,
      "goal": 2539,
      "neon": 2540,
      "apor": 2541,
      "apart": 2542,
      "apps": 2543,
      "apply": 2544,
      "application": 2545,
      "few": 2546,
      "mmering": 2547,
      "weap": 2548,
      "weave": 2549,
      "opin": 2550,
      "amin": 2551,
      "amoun": 2552,
      "upon": 2553,
      "ionic": 2554,
      "ression": 2555,
      "develo": 2556,
      "heat": 2557,
      "heav": 2558,
      "actly": 2559,
      "explo": 2560,
      "ected": 2561,
      "lightest": 2562,
      "sugar": 2563,
      "achie": 2564,
      "useful": 2565,
      "ization": 2566,
      "peace": 2567,
      "aster": 2568,
      "Instead": 2569,
      "Inner": 2570,
      "safe": 2571,
      "prep": 2572,
      "prefer": 2573,
      "claim": 2574,
      "osy": 2575,
      "interactions": 2576,
      "interview": 2577,
      "crust": 2578,
      "known": 2579,
      "knowing": 2580,
      "synthesis": 2581,
      "clean": 2582,
      "cleaning": 2583,
      "diffic": 2584,
      "valent": 2585,
      "boids": 2586,
      "travel": 2587,
      "silic": 2588,
      "cuss": 2589,
      "descri": 2590,
      "overwhel": 2591,
      "encing": 2592,
      "choices": 2593,
      "bonded": 2594,
      "grat": 2595,
      "Lead": 2596,
      "wondering": 2597,
      "pleasure": 2598,
      "scrolling": 2599,
      "guide": 2600,
      "guard": 2601,
      "techno": 2602,
      "chlorophyll": 2603,
      "Moon": 2604,
      "ield": 2605,
      "obser": 2606,
      "Noble": 2607,
      "product": 2608,
      "balt": 2609,
      "ballo": 2610,
      "fication": 2611,
      "range": 2612,
      "athy": 2613,
      "surface": 2614,
      "Provide": 2615,
      "distin": 2616,
      "becoming": 2617,
      "Forms": 2618,
      "empires": 2619,
      "empathy": 2620,
      "example": 2621,
      "gently": 2622,
      "engaging": 2623,
      "charge": 2624,
      "wrong": 2625,
      "approxim": 2626,
      "center": 2627,
      "distraction": 2628,
      "deeply": 2629,
      "neutron": 2630,
      "burning": 2631,
      "carry": 2632,
      "matters": 2633,
      "Metals": 2634,
      "groups": 2635,
      "bigger": 2636,
      "Key": 2637,
      "easier": 2638,
      "names": 2639,
      "single": 2640,
      "environment": 2641,
      "feedback": 2642,
      "boost": 2643,
      "family": 2644,
      "direction": 2645,
      "contains": 2646,
      "literacy": 2647,
      "relationships": 2648,
      "fusion": 2649,
      "habits": 2650,
      "stops": 2651,
      "minerals": 2652,
      "Example": 2653,
      "Subtract": 2654,
      "screen": 2655,
      "rewards": 2656,
      "check": 2657,
      "formula": 2658,
      "spotting": 2659,
      "enthusiastically": 2660,
      "method": 2661,
      "shimmering": 2662,
      "shock": 2663,
      "chips": 2664,
      "independence": 2665,
      "Radi": 2666,
      "plied": 2667,
      "sulfide": 2668,
      "welcome": 2669,
      "innovation": 2670,
      "quadratic": 2671,
      "proteins": 2672,
      "transp": 2673,
      "Connect": 2674,
      "corporate": 2675,
      "crypto": 2676,
      "Understanding": 2677,
      "Another": 2678,
      "BCE": 2679,
      "ealous": 2680,
      "earns": 2681,
      "flir": 2682,
      "house": 2683,
      "hurt": 2684,
      "amounts": 2685,
      "heavy": 2686,
      "!!": 2687,
      "'?": 2688,
      ",'": 2689,
      "->": 2690,
      ".'": 2691,
      "1s": 2692,
      "60": 2693,
      "AC": 2694,
      "AL": 2695,
      "Ac": 2696,
      "Bor": 2697,
      "Big": 2698,
      "Brea": 2699,
      "Conduc": 2700,
      "Dec": 2701,
      "Dig": 2702,
      "ES": 2703,
      "En": 2704,
      "Ember": 2705,
      "Fin": 2706,
      "Future": 2707,
      "Gu": 2708,
      "Grou": 2709,
      "Grow": 2710,
      "JSO": 2711,
      "Me": 2712,
      "Mer": 2713,
      "Main": 2714,
      "Many": 2715,
      "Money": 2716,
      "Master": 2717,
      "Name": 2718,
      "Ph": 2719,
      "Pure": 2720,
      "Power": 2721,
      "Sleep": 2722,
      "Switch": 2723,
      "TP": 2724,
      "Teach": 2725,
      "Tie": 2726,
      "aut": 2727,
      "bing": 2728,
      "best": 2729,
      "cking": 2730,
      "cup": 2731,
      "ctions": 2732,
      "camp": 2733,
      "cause": 2734,
      "drow": 2735,
      "dates": 2736,
      "ek": 2737,
      "eat": 2738,
      "eper": 2739,
      "egg": 2740,
      "earth": 2741,
      "fine": 2742,
      "fron": 2743,
      "gin": 2744,
      "gle": 2745,
      "ged": 2746,
      "hack": 2747,
      "hero": 2748,
      "ied": 2749,
      "iled": 2750,
      "ially": 2751,
      "journaling": 2752,
      "jealous": 2753,
      "m_": 2754,
      "mix": 2755,
      "much": 2756,
      "ny": 2757,
      "nin": 2758,
      "oks": 2759,
      "omy": 2760,
      "py": 2761,
      "pati": 2762,
      "pol": 2763,
      "push": 2764,
      "ric": 2765,
      "rati": 2766,
      "rate": 2767,
      "rup": 2768,
      "rings": 2769,
      "sess": 2770,
      "suc": 2771,
      "save": 2772,
      "send": 2773,
      "ton": 2774,
      "tang": 2775,
      "ugg": 2776,
      "udies": 2777,
      "va": 2778,
      "vant": 2779,
      "vapor": 2780,
      "wa": 2781,
      "won": 2782,
      "wre": 2783,
      "wom": 2784,
      "yes": 2785,
      "yet": 2786,
      "inks": 2787,
      "inator": 2788,
      "inary": 2789,
      "individ": 2790,
      "insight": 2791,
      "instructions": 2792,
      "err": 2793,
      "erve": 2794,
      "thre": 2795,
      "thick": 2796,
      "onom": 2797,
      "onomy": 2798,
      "rest": 2799,
      "reci": 2800,
      "reaction": 2801,
      "request": 2802,
      "attr": 2803,
      "antic": 2804,
      "aly": 2805,
      "alse": 2806,
      "almost": 2807,
      "oride": 2808,
      "stay": 2809,
      "stack": 2810,
      "stim": 2811,
      "stick": 2812,
      "arr": 2813,
      "aring": 2814,
      "arch": 2815,
      "ardi": 2816,
      "arify": 2817,
      "thetic": 2818,
      "ands": 2819,
      "tium": 2820,
      "tical": 2821,
      "roo": 2822,
      "rosion": 2823,
      "asp": 2824,
      "ased": 2825,
      "atification": 2826,
      "mel": 2827,
      "rap": 2828,
      "coins": 2829,
      "uly": 2830,
      "Three": 2831,
      "forces": 2832,
      "abol": 2833,
      "shy": 2834,
      "identi": 2835,
      "extra": 2836,
      "adap": 2837,
      "consci": 2838,
      "condition": 2839,
      "verify": 2840,
      "ung": 2841,
      "prob": 2842,
      "prof": 2843,
      "proof": 2844,
      "project": 2845,
      "agree": 2846,
      "moves": 2847,
      "moths": 2848,
      "nothing": 2849,
      "electro": 2850,
      "sequ": 2851,
      "White": 2852,
      "Whether": 2853,
      "going": 2854,
      "looks": 2855,
      "aphor": 2856,
      "rip": 2857,
      "weather": 2858,
      ")**!": 2859,
      "domin": 2860,
      "gebra": 2861,
      "company": 2862,
      "complet": 2863,
      "components": 2864,
      "resour": 2865,
      "poe": 2866,
      "pool": 2867,
      "ominator": 2868,
      "defin": 2869,
      "phr": 2870,
      "lights": 2871,
      "lighter": 2872,
      "ousness": 2873,
      "200": 2874,
      "aught": 2875,
      "vibr": 2876,
      "calcul": 2877,
      "astic": 2878,
      "metaphor": 2879,
      "specif": 2880,
      "species": 2881,
      "Station": 2882,
      "Studies": 2883,
      "equal": 2884,
      "disap": 2885,
      "disgu": 2886,
      "steal": 2887,
      "steel": 2888,
      "personality": 2889,
      "cular": 2890,
      "hydro": 2891,
      "forest": 2892,
      "forests": 2893,
      "respiration": 2894,
      "thank": 2895,
      "trap": 2896,
      "traps": 2897,
      "silence": 2898,
      "bring": 2899,
      "curren": 2900,
      "overnight": 2901,
      "activ": 2902,
      "basics": 2903,
      "types": 2904,
      "backbone": 2905,
      "everyone": 2906,
      "okay": 2907,
      "gratification": 2908,
      "thinkers": 2909,
      "tick": 2910,
      "logic": 2911,
      "Chem": 2912,
      "scienti": 2913,
      "topes": 2914,
      "versal": 2915,
      "bias": 2916,
      "realm": 2917,
      "guess": 2918,
      "obsess": 2919,
      "shows": 2920,
      "treasure": 2921,
      "connect": 2922,
      "production": 2923,
      "confirm": 2924,
      "ancing": 2925,
      "floats": 2926,
      "cket": 2927,
      "denominator": 2928,
      "alogen": 2929,
      "sharper": 2930,
      "controlled": 2931,
      "coming": 2932,
      "accel": 2933,
      "acknowled": 2934,
      "clearly": 2935,
      "driver": 2936,
      "drives": 2937,
      "critic": 2938,
      "wonderfully": 2939,
      "heric": 2940,
      "sorting": 2941,
      "saying": 2942,
      "starting": 2943,
      "excited": 2944,
      "complexity": 2945,
      "continue": 2946,
      "multiply": 2947,
      "Electron": 2948,
      "memorable": 2949,
      "memories": 2950,
      "zyme": 2951,
      "alloy": 2952,
      "sparkle": 2953,
      "True": 2954,
      "drops": 2955,
      "joy": 2956,
      "remaining": 2957,
      "management": 2958,
      "nucleus": 2959,
      "duce": 2960,
      "layer": 2961,
      "relevant": 2962,
      "reacting": 2963,
      "literally": 2964,
      "Everyone": 2965,
      "dreams": 2966,
      "habit": 2967,
      "history": 2968,
      "historical": 2969,
      "diamonds": 2970,
      "tricky": 2971,
      "oxidation": 2972,
      "flexing": 2973,
      "stories": 2974,
      "media": 2975,
      "holds": 2976,
      "symbol": 2977,
      "window": 2978,
      "increases": 2979,
      "include": 2980,
      "resistance": 2981,
      "vertex": 2982,
      "graphy": 2983,
      "designed": 2984,
      "reasoning": 2985,
      "Absolutely": 2986,
      "fighting": 2987,
      "routine": 2988,
      "philosophical": 2989,
      "response": 2990,
      "phosphate": 2991,
      "academics": 2992,
      "Simplify": 2993,
      "depends": 2994,
      "lane": 2995,
      "mistakes": 2996,
      "riddle": 2997,
      "style": 2998,
      "constructive": 2999,
      "discovered": 3000,
      "integral": 3001,
      "Humans": 3002,
      "Multiply": 3003,
      "Strong": 3004,
      "birth": 3005,
      "course": 3006,
      "stitut": 3007,
      "across": 3008,
      "meteorites": 3009,
      "challenge": 3010,
      "extract": 3011,
      "provided": 3012,
      "optional": 3013,
      "crux": 3014,
      "technical": 3015,
      "combinations": 3016,
      "atmospheric": 3017,
      "Surface": 3018,
      "causes": 3019,
      "toxic": 3020,
      "opinions": 3021,
      "achieve": 3022,
      "claims": 3023,
      "technology": 3024,
      "balloons": 3025,
      "flirty": 3026,
      "Digital": 3027,
      "Group": 3028,
      "JSON": 3029,
      "Mercury": 3030,
      "drowning": 3031,
      "front": 3032,
      "ninth": 3033,
      "patience": 3034,
      "success": 3035,
      "uggle": 3036,
      "wrecks": 3037,
      "stimulation": 3038,
      "consciousness": 3039,
      "conditions": 3040,
      "disguised": 3041,
      "%):**": 3042,
      "'.": 3043,
      "*!": 3044,
      ",”": 3045,
      "6x": 3046,
      "78": 3047,
      "85": 3048,
      "86": 3049,
      "AM": 3050,
      "AS": 3051,
      "All": 3052,
      "Br": 3053,
      "Bet": 3054,
      "Both": 3055,
      "Cd": 3056,
      "Col": 3057,
      "Cred": 3058,
      "Comb": 3059,
      "DC": 3060,
      "Dif": 3061,
      "Father": 3062,
      "Gra": 3063,
      "Glow": 3064,
      "Hi": 3065,
      "High": 3066,
      "Its": 3067,
      "Imag": 3068,
      "Light": 3069,
      "Mn": 3070,
      "Man": 3071,
      "Makes": 3072,
      "Now": 3073,
      "Nerve": 3074,
      "OH": 3075,
      "Older": 3076,
      "Pr": 3077,
      "Part": 3078,
      "PDE": 3079,
      "RE": 3080,
      "Sn": 3081,
      "Sp": 3082,
      "Scho": 3083,
      "Stop": 3084,
      "Spec": 3085,
      "Tech": 3086,
      "Up": 3087,
      "aire": 3088,
      "ahead": 3089,
      "ban": 3090,
      "bes": 3091,
      "bel": 3092,
      "bus": 3093,
      "bby": 3094,
      "cm": 3095,
      "cof": 3096,
      "cation": 3097,
      "ctive": 3098,
      "crow": 3099,
      "came": 3100,
      "ding": 3101,
      "dic": 3102,
      "ded": 3103,
      "dop": 3104,
      "dam": 3105,
      "dem": 3106,
      "dish": 3107,
      "dget": 3108,
      "diting": 3109,
      "eer": 3110,
      "fel": 3111,
      "fant": 3112,
      "fif": 3113,
      "fail": 3114,
      "fancy": 3115,
      "field": 3116,
      "gate": 3117,
      "gone": 3118,
      "gest": 3119,
      "game": 3120,
      "hit": 3121,
      "hid": 3122,
      "hun": 3123,
      "him": 3124,
      "hint": 3125,
      "ials": 3126,
      "iety": 3127,
      "jump": 3128,
      "jective": 3129,
      "jured": 3130,
      "knew": 3131,
      "lat": 3132,
      "mne": 3133,
      "ni": 3134,
      "nut": 3135,
      "nice": 3136,
      "oct": 3137,
      "pan": 3138,
      "ping": 3139,
      "pul": 3140,
      "pite": 3141,
      "prou": 3142,
      "pick": 3143,
      "paren": 3144,
      "patin": 3145,
      "rich": 3146,
      "ss": 3147,
      "sat": 3148,
      "sical": 3149,
      "sust": 3150,
      "snow": 3151,
      "sky": 3152,
      "swir": 3153,
      "tual": 3154,
      "taught": 3155,
      "vir": 3156,
      "vill": 3157,
      "vents": 3158,
      "wand": 3159,
      "warn": 3160,
      "wich": 3161,
      "xy": 3162,
      "zomb": 3163,
      "info": 3164,
      "era": 3165,
      "thum": 3166,
      "thri": 3167,
      "thous": 3168,
      "throw": 3169,
      "third": 3170,
      "thood": 3171,
      "onto": 3172,
      "reg": 3173,
      "reve": 3174,
      "reduc": 3175,
      "remind": 3176,
      "reacts": 3177,
      "recharge": 3178,
      "att": 3179,
      "attract": 3180,
      "anese": 3181,
      "ancial": 3182,
      "ename": 3183,
      "alive": 3184,
      "estions": 3185,
      "espec": 3186,
      "**,": 3187,
      "iti": 3188,
      "sta": 3189,
      "stair": 3190,
      "stabili": 3191,
      "study": 3192,
      "arium": 3193,
      "argon": 3194,
      "arrange": 3195,
      "tives": 3196,
      "tosynthesis": 3197,
      "veget": 3198,
      "asy": 3199,
      "aced": 3200,
      "ection": 3201,
      "econom": 3202,
      "ligh": 3203,
      "enty": 3204,
      "wist": 3205,
      "coin": 3206,
      "code": 3207,
      "sions": 3208,
      "sibl": 3209,
      "ulty": 3210,
      "ulthood": 3211,
      "usually": 3212,
      "forget": 3213,
      "chat": 3214,
      "child": 3215,
      "etch": 3216,
      "ational": 3217,
      "adulthood": 3218,
      "soci": 3219,
      "ples": 3220,
      "const": 3221,
      "contract": 3222,
      "consider": 3223,
      "conjured": 3224,
      "unch": 3225,
      "spi": 3226,
      "spin": 3227,
      "spit": 3228,
      "spacing": 3229,
      "output": 3230,
      "ters": 3231,
      "procra": 3232,
      "ager": 3233,
      "ilot": 3234,
      "true": 3235,
      "truly": 3236,
      "nore": 3237,
      "begin": 3238,
      "itement": 3239,
      "therap": 3240,
      "myself": 3241,
      "weigh": 3242,
      "romine": 3243,
      "elemental": 3244,
      "ope": 3245,
      "door": 3246,
      "foil": 3247,
      "amines": 3248,
      "compet": 3249,
      "upstre": 3250,
      "updates": 3251,
      "rescent": 3252,
      "pocket": 3253,
      "dead": 3254,
      "heavi": 3255,
      "giant": 3256,
      "giving": 3257,
      "gigan": 3258,
      "glu": 3259,
      "glitch": 3260,
      "autop": 3261,
      "auditing": 3262,
      "igur": 3263,
      "ignore": 3264,
      "onses": 3265,
      "buys": 3266,
      "budget": 3267,
      "agement": 3268,
      "saves": 3269,
      "metallic": 3270,
      "content": 3271,
      "contra": 3272,
      "prec": 3273,
      "cloud": 3274,
      "twenty": 3275,
      "Stre": 3276,
      "simplify": 3277,
      "equations": 3278,
      "discovery": 3279,
      "Excell": 3280,
      "Exactly": 3281,
      "humility": 3282,
      "Hehe": 3283,
      "hood": 3284,
      "hobby": 3285,
      "knows": 3286,
      "responses": 3287,
      "book": 3288,
      "ferent": 3289,
      "happi": 3290,
      "silly": 3291,
      "anganese": 3292,
      "curious": 3293,
      "Alkali": 3294,
      "choos": 3295,
      "everywhere": 3296,
      "owls": 3297,
      "blur": 3298,
      "added": 3299,
      "addition": 3300,
      "ificent": 3301,
      "Cool": 3302,
      "ctly": 3303,
      "smaller": 3304,
      "biases": 3305,
      "streams": 3306,
      "seemed": 3307,
      "underrated": 3308,
      "posite": 3309,
      "universal": 3310,
      "cule": 3311,
      "hardest": 3312,
      "hardness": 3313,
      "morning": 3314,
      "chloride": 3315,
      "Consider": 3316,
      "corrosion": 3317,
      "treating": 3318,
      "connects": 3319,
      "productive": 3320,
      "configur": 3321,
      "subtle": 3322,
      "subject": 3323,
      "tooth": 3324,
      "emotionally": 3325,
      "athode": 3326,
      "fluorine": 3327,
      "passed": 3328,
      "pattern": 3329,
      "distri": 3330,
      "signs": 3331,
      "signature": 3332,
      "monic": 3333,
      "months": 3334,
      "lovely": 3335,
      "Silver": 3336,
      "engagement": 3337,
      "remembering": 3338,
      "central": 3339,
      "telling": 3340,
      "combust": 3341,
      "transition": 3342,
      "critically": 3343,
      "Diamond": 3344,
      "copic": 3345,
      "imagination": 3346,
      "connections": 3347,
      "molecule": 3348,
      "switches": 3349,
      "warmly": 3350,
      "exciting": 3351,
      "excitement": 3352,
      "conversations": 3353,
      "arent": 3354,
      "circle": 3355,
      "wisely": 3356,
      "stronger": 3357,
      "decision": 3358,
      "Being": 3359,
      "void": 3360,
      "changing": 3361,
      "spacetime": 3362,
      "Mostly": 3363,
      "mercury": 3364,
      "sadness": 3365,
      "slowly": 3366,
      "require": 3367,
      "levels": 3368,
      "acids": 3369,
      "limit": 3370,
      "Location": 3371,
      "Trace": 3372,
      "close": 3373,
      "clock": 3374,
      "joke": 3375,
      "intentional": 3376,
      "remains": 3377,
      "protecting": 3378,
      "manageable": 3379,
      "analogies": 3380,
      "shaped": 3381,
      "particle": 3382,
      "particular": 3383,
      "reflect": 3384,
      "fuel": 3385,
      "momentum": 3386,
      "large": 3387,
      "conduct": 3388,
      "triggers": 3389,
      "emergent": 3390,
      "Examples": 3391,
      "symbols": 3392,
      "communicate": 3393,
      "count": 3394,
      "slower": 3395,
      "watching": 3396,
      "mysterious": 3397,
      "suggest": 3398,
      "simplest": 3399,
      "involved": 3400,
      "homework": 3401,
      "beliefs": 3402,
      "Bonding": 3403,
      "Define": 3404,
      "Once": 3405,
      "battery": 3406,
      "material": 3407,
      "whisk": 3408,
      "impulse": 3409,
      "balls": 3410,
      "early": 3411,
      "sandwich": 3412,
      "source": 3413,
      "isotopes": 3414,
      "coordination": 3415,
      "magnificent": 3416,
      "frameworks": 3417,
      "Build": 3418,
      "Plus": 3419,
      "Poly": 3420,
      "billionaire": 3421,
      "mountains": 3422,
      "powers": 3423,
      "runs": 3424,
      "whimsical": 3425,
      "genuin": 3426,
      "weapon": 3427,
      "difficulty": 3428,
      "gratitude": 3429,
      "distinction": 3430,
      "transparent": 3431,
      "Activity": 3432,
      "Break": 3433,
      "autonomy": 3434,
      "binge": 3435,
      "eggs": 3436,
      "jealousy": 3437,
      "ratio": 3438,
      "tonight": 3439,
      "individual": 3440,
      "recipe": 3441,
      "completely": 3442,
      "phrase": 3443,
      "disappoint": 3444,
      "activities": 3445,
      "scientific": 3446,
      "Credit": 3447,
      "Different": 3448,
      "Imagine": 3449,
      "Manage": 3450,
      "Schools": 3451,
      "felt": 3452,
      "hidden": 3453,
      "mnemonic": 3454,
      "proud": 3455,
      "parents": 3456,
      "sustain": 3457,
      "virtual": 3458,
      "zombies": 3459,
      "thrives": 3460,
      "enamel": 3461,
      "especially": 3462,
      "stairs": 3463,
      "siblings": 3464,
      "considering": 3465,
      "procrast": 3466,
      "therapy": 3467,
      "upstream": 3468,
      "gigantic": 3469,
      "autopilot": 3470,
      "Excellent": 3471,
      "!).": 3472,
      ".,": 3473,
      "27": 3474,
      "2s": 3475,
      "5x": 3476,
      "64": 3477,
      "82": 3478,
      "89": 3479,
      "?\"": 3480,
      "?**": 3481,
      "Aw": 3482,
      "Are": 3483,
      "Area": 3484,
      "By": 3485,
      "Bang": 3486,
      "Bron": 3487,
      "Cor": 3488,
      "Could": 3489,
      "Cadm": 3490,
      "CRE": 3491,
      "Cathode": 3492,
      "Did": 3493,
      "Dist": 3494,
      "Evid": 3495,
      "Elar": 3496,
      "Easy": 3497,
      "FF": 3498,
      "Ga": 3499,
      "Gl": 3500,
      "Gree": 3501,
      "Give": 3502,
      "Hg": 3503,
      "Hist": 3504,
      "Halogen": 3505,
      "IN": 3506,
      "Know": 3507,
      "Mar": 3508,
      "Mic": 3509,
      "Mod": 3510,
      "Manganese": 3511,
      "Of": 3512,
      "Ok": 3513,
      "Out": 3514,
      "Pers": 3515,
      "Round": 3516,
      "Sk": 3517,
      "Sou": 3518,
      "Ste": 3519,
      "Saf": 3520,
      "Setting": 3521,
      "Tra": 3522,
      "Table": 3523,
      "Take": 3524,
      "Temp": 3525,
      "WA": 3526,
      "Watch": 3527,
      "bb": 3528,
      "bin": 3529,
      "bur": 3530,
      "bits": 3531,
      "bark": 3532,
      "barely": 3533,
      "cing": 3534,
      "cum": 3535,
      "cad": 3536,
      "cting": 3537,
      "cutter": 3538,
      "case": 3539,
      "dr": 3540,
      "dy": 3541,
      "dest": 3542,
      "dden": 3543,
      "during": 3544,
      "dancing": 3545,
      "eve": 3546,
      "eld": 3547,
      "eager": 3548,
      "fing": 3549,
      "fab": 3550,
      "fers": 3551,
      "fies": 3552,
      "fair": 3553,
      "father": 3554,
      "faces": 3555,
      "false": 3556,
      "gments": 3557,
      "hi": 3558,
      "har": 3559,
      "hits": 3560,
      "hot": 3561,
      "iodic": 3562,
      "jack": 3563,
      "kward": 3564,
      "kitch": 3565,
      "la": 3566,
      "lin": 3567,
      "lation": 3568,
      "lake": 3569,
      "leng": 3570,
      "ming": 3571,
      "mid": 3572,
      "mone": 3573,
      "mach": 3574,
      "mild": 3575,
      "mark": 3576,
      "matic": 3577,
      "nit": 3578,
      "obe": 3579,
      "pack": 3580,
      "ponder": 3581,
      "patch": 3582,
      "ring": 3583,
      "round": 3584,
      "rition": 3585,
      "rint": 3586,
      "rates": 3587,
      "races": 3588,
      "rarity": 3589,
      "sou": 3590,
      "sli": 3591,
      "sed": 3592,
      "sus": 3593,
      "set": 3594,
      "sure": 3595,
      "sine": 3596,
      "score": 3597,
      "setting": 3598,
      "tly": 3599,
      "tation": 3600,
      "tun": 3601,
      "tage": 3602,
      "tural": 3603,
      "tough": 3604,
      "uce": 3605,
      "uep": 3606,
      "ufact": 3607,
      "vast": 3608,
      "win": 3609,
      "wish": 3610,
      "waste": 3611,
      "xiety": 3612,
      "zes": 3613,
      "zed": 3614,
      "₂,": 3615,
      "₃)": 3616,
      "inv": 3617,
      "inst": 3618,
      "ined": 3619,
      "inate": 3620,
      "inside": 3621,
      "incorporate": 3622,
      "erpr": 3623,
      "thir": 3624,
      "thless": 3625,
      "ony": 3626,
      "online": 3627,
      "resi": 3628,
      "rece": 3629,
      "rese": 3630,
      "reactions": 3631,
      "revis": 3632,
      "reminds": 3633,
      "review": 3634,
      "recogn": 3635,
      "replace": 3636,
      "anas": 3637,
      "anium": 3638,
      "analy": 3639,
      "anxiety": 3640,
      "eness": 3641,
      "alate": 3642,
      "already": 3643,
      "estion": 3644,
      "ession": 3645,
      "ories": 3646,
      "lets": 3647,
      "lebr": 3648,
      "lect": 3649,
      "leverage": 3650,
      "sto": 3651,
      "stri": 3652,
      "theory": 3653,
      "issu": 3654,
      "ission": 3655,
      "tili": 3656,
      "took": 3657,
      "total": 3658,
      "rocks": 3659,
      "robot": 3660,
      "accomp": 3661,
      "mech": 3662,
      "measure": 3663,
      "echo": 3664,
      "lies": 3665,
      "liver": 3666,
      "lience": 3667,
      "lived": 3668,
      "enters": 3669,
      "edible": 3670,
      "elen": 3671,
      "rays": 3672,
      "umber": 3673,
      "col": 3674,
      "coll": 3675,
      "cobalt": 3676,
      "simil": 3677,
      "lyte": 3678,
      "crete": 3679,
      "cresc": 3680,
      "forth": 3681,
      "formed": 3682,
      "absolutely": 3683,
      "ablish": 3684,
      "shiny": 3685,
      "chol": 3686,
      "chef": 3687,
      "chase": 3688,
      "ides": 3689,
      "celebr": 3690,
      "quiz": 3691,
      "extre": 3692,
      "extern": 3693,
      "ador": 3694,
      "plant": 3695,
      "convert": 3696,
      "veral": 3697,
      "unit": 3698,
      "unks": 3699,
      "units": 3700,
      "sprink": 3701,
      "dium": 3702,
      "diary": 3703,
      "diameter": 3704,
      "percent": 3705,
      "ares": 3706,
      "urity": 3707,
      "aint": 3708,
      "promp": 3709,
      "agents": 3710,
      "moments": 3711,
      "mock": 3712,
      "flair": 3713,
      "seen": 3714,
      "several": 3715,
      "lose": 3716,
      "loves": 3717,
      "looking": 3718,
      "Their": 3719,
      "neigh": 3720,
      "neural": 3721,
      "aps": 3722,
      "appe": 3723,
      "applied": 3724,
      "serves": 3725,
      "rients": 3726,
      "rived": 3727,
      ")**:": 3728,
      "worth": 3729,
      "working": 3730,
      "worry": 3731,
      "options": 3732,
      "opens": 3733,
      "optim": 3734,
      "flowing": 3735,
      "flowers": 3736,
      "dote": 3737,
      "ames": 3738,
      "amine": 3739,
      "geological": 3740,
      "compar": 3741,
      "compassion": 3742,
      "upstairs": 3743,
      "emit": 3744,
      "emission": 3745,
      "poem": 3746,
      "poten": 3747,
      "poison": 3748,
      "define": 3749,
      "deliver": 3750,
      "hears": 3751,
      "actor": 3752,
      "establish": 3753,
      "team": 3754,
      "teeth": 3755,
      "cient": 3756,
      "ously": 3757,
      "solved": 3758,
      "solvent": 3759,
      "format": 3760,
      "forming": 3761,
      "calms": 3762,
      "Incre": 3763,
      "Inter": 3764,
      "eving": 3765,
      "saw": 3766,
      "saving": 3767,
      "prevents": 3768,
      "smile": 3769,
      "ished": 3770,
      "spectr": 3771,
      "oss": 3772,
      "Stable": 3773,
      "getting": 3774,
      "interpre": 3775,
      "equally": 3776,
      "istic": 3777,
      "decl": 3778,
      "crash": 3779,
      "humor": 3780,
      "hoard": 3781,
      "clever": 3782,
      "magnet": 3783,
      "desire": 3784,
      "despite": 3785,
      "ipes": 3786,
      "anyone": 3787,
      "brittle": 3788,
      "return": 3789,
      "actice": 3790,
      "bases": 3791,
      "basis": 3792,
      "type": 3793,
      "chemically": 3794,
      "Classic": 3795,
      "Clarify": 3796,
      "buildings": 3797,
      "intro": 3798,
      "choice": 3799,
      "backward": 3800,
      "carbonate": 3801,
      "mindless": 3802,
      "protective": 3803,
      "hormone": 3804,
      "moderation": 3805,
      "parabol": 3806,
      "assist": 3807,
      "expand": 3808,
      "expect": 3809,
      "expression": 3810,
      "grand": 3811,
      "viding": 3812,
      "bling": 3813,
      "black": 3814,
      "blend": 3815,
      "bluep": 3816,
      "adding": 3817,
      "Electro": 3818,
      "ification": 3819,
      "greater": 3820,
      "greeting": 3821,
      "logically": 3822,
      "superhero": 3823,
      "factors": 3824,
      "functions": 3825,
      "funny": 3826,
      "wondered": 3827,
      "reading": 3828,
      "rollers": 3829,
      "bio": 3830,
      "breathe": 3831,
      "street": 3832,
      "huge": 3833,
      "reduce": 3834,
      "secure": 3835,
      "chloramines": 3836,
      "happen": 3837,
      "Remember": 3838,
      "ount": 3839,
      "showing": 3840,
      "corrup": 3841,
      "concent": 3842,
      "concave": 3843,
      "concern": 3844,
      "photosynthesis": 3845,
      "subst": 3846,
      "party": 3847,
      "ruins": 3848,
      "surround": 3849,
      "fluoride": 3850,
      "Process": 3851,
      "capability": 3852,
      "capabilities": 3853,
      "manufact": 3854,
      "controls": 3855,
      "expresses": 3856,
      "fied": 3857,
      "fiery": 3858,
      "talking": 3859,
      "signal": 3860,
      "missing": 3861,
      "SiO": 3862,
      "grown": 3863,
      "growing": 3864,
      "mono": 3865,
      "vision": 3866,
      "engine": 3867,
      "...'": 3868,
      "Liquid": 3869,
      "primes": 3870,
      "driving": 3871,
      "transfers": 3872,
      "thoughtful": 3873,
      "Divide": 3874,
      "Dividing": 3875,
      "Sudden": 3876,
      "smel": 3877,
      "turning": 3878,
      "volcan": 3879,
      "voltage": 3880,
      "processing": 3881,
      "mindset": 3882,
      "modeling": 3883,
      "fragment": 3884,
      "fragments": 3885,
      "friends": 3886,
      "friendly": 3887,
      "higher": 3888,
      "burns": 3889,
      "nonmetals": 3890,
      "warmth": 3891,
      "Metallic": 3892,
      "favorable": 3893,
      "movement": 3894,
      "Periodic": 3895,
      "boron": 3896,
      "chemicals": 3897,
      "slows": 3898,
      "alloys": 3899,
      "statements": 3900,
      "limits": 3901,
      "perspectives": 3902,
      "glowing": 3903,
      "understanding": 3904,
      "easy": 3905,
      "naming": 3906,
      "intentionally": 3907,
      "environments": 3908,
      "environmental": 3909,
      "nucleosy": 3910,
      "Any": 3911,
      "Anode": 3912,
      "aws": 3913,
      "awareness": 3914,
      "awkward": 3915,
      "famous": 3916,
      "releases": 3917,
      "beautifully": 3918,
      "gotten": 3919,
      "following": 3920,
      "computer": 3921,
      "silently": 3922,
      "encouraging": 3923,
      "reflection": 3924,
      "Atoms": 3925,
      "cells": 3926,
      "dream": 3927,
      "network": 3928,
      "cookie": 3929,
      "abundance": 3930,
      "captures": 3931,
      "continued": 3932,
      "?',": 3933,
      "brakes": 3934,
      "filled": 3935,
      "purple": 3936,
      "purpose": 3937,
      "trains": 3938,
      "ylene": 3939,
      "mineral": 3940,
      "holding": 3941,
      "communication": 3942,
      "Substitut": 3943,
      "Without": 3944,
      "country": 3945,
      "gaining": 3946,
      "screens": 3947,
      "sensors": 3948,
      "separates": 3949,
      "mystery": 3950,
      "debated": 3951,
      "formulas": 3952,
      "simpler": 3953,
      "Compound": 3954,
      "Apply": 3955,
      "freely": 3956,
      "pathways": 3957,
      "routing": 3958,
      "reliability": 3959,
      "leaving": 3960,
      "artist": 3961,
      "smartphone": 3962,
      "responsib": 3963,
      "valued": 3964,
      "academic": 3965,
      "Only": 3966,
      "batteries": 3967,
      "falling": 3968,
      "materials": 3969,
      "soft": 3970,
      "reference": 3971,
      "referencing": 3972,
      "simul": 3973,
      "whispers": 3974,
      "mmonia": 3975,
      "impulses": 3976,
      "correcting": 3977,
      "weaknesses": 3978,
      "Discuss": 3979,
      "affects": 3980,
      "globin": 3981,
      "sense": 3982,
      "sentence": 3983,
      "isolated": 3984,
      "spectra": 3985,
      "notebook": 3986,
      "Chroma": 3987,
      "Chromium": 3988,
      "possibilities": 3989,
      "emphasizing": 3990,
      "crystal": 3991,
      "prioritize": 3992,
      "companionship": 3993,
      "Basically": 3994,
      "Isn": 3995,
      "binding": 3996,
      "efficiency": 3997,
      "walking": 3998,
      "accept": 3999,
      "dialogue": 4000,
      "apartment": 4001,
      "develop": 4002,
      "travels": 4003,
      "silica": 4004,
      "overwhelm": 4005,
      "approximation": 4006,
      "Subtracting": 4007,
      "shockwave": 4008,
      "Radioactive": 4009,
      "cryptography": 4010,
      "ALL": 4011,
      "Boron": 4012,
      "Guardi": 4013,
      "Growth": 4014,
      "earths": 4015,
      "m_l": 4016,
      "sending": 4017,
      "threat": 4018,
      "tically": 4019,
      "rapid": 4020,
      "probability": 4021,
      "profession": 4022,
      "electrodes": 4023,
      "ripple": 4024,
      "vibrations": 4025,
      "specifically": 4026,
      "Chemical": 4027,
      "acceleration": 4028,
      "birthday": 4029,
      "successful": 4030,
      "ASES": 4031,
      "Better": 4032,
      "Combining": 4033,
      "Practice": 4034,
      "busy": 4035,
      "crowd": 4036,
      "damage": 4037,
      "fifth": 4038,
      "nutrition": 4039,
      "octet": 4040,
      "pulling": 4041,
      "throwing": 4042,
      "reducing": 4043,
      "stabilizer": 4044,
      "vegetation": 4045,
      "deadlines": 4046,
      "heavier": 4047,
      "Streng": 4048,
      "happily": 4049,
      "Considered": 4050,
      "combustion": 4051,
      "genuinely": 4052,
      "disappointment": 4053,
      "procrastination": 4054,
      "Bronze": 4055,
      "Cadmium": 4056,
      "CREASES": 4057,
      "Evidence": 4058,
      "Elara": 4059,
      "Greek": 4060,
      "Modern": 4061,
      "Okay": 4062,
      "Person": 4063,
      "Safety": 4064,
      "bbles": 4065,
      "hijack": 4066,
      "kitchen": 4067,
      "thirty": 4068,
      "resilience": 4069,
      "accomplish": 4070,
      "mechan": 4071,
      "similar": 4072,
      "crescent": 4073,
      "celebrate": 4074,
      "external": 4075,
      "sprinkle": 4076,
      "potenti": 4077,
      "parabola": 4078,
      "blueprint": 4079,
      "corruption": 4080,
      "manufacturing": 4081,
      "Suddenly": 4082,
      "nucleosynthesis": 4083,
      "Substituting": 4084,
      "professional": 4085,
      "!\"": 4086,
      "!*": 4087,
      "',": 4088,
      ")₂": 4089,
      ".**": 4090,
      "2p": 4091,
      "2NO": 4092,
      "3x": 4093,
      "3000": 4094,
      "47": 4095,
      "48": 4096,
      "640": 4097,
      "93": 4098,
      "94": 4099,
      "98": 4100,
      "99": 4101,
      "AA": 4102,
      "Af": 4103,
      "Ath": 4104,
      "Aure": 4105,
      "Ans": 4106,
      "ATP": 4107,
      "Avoid": 4108,
      "Ba": 4109,
      "Ben": 4110,
      "Batter": 4111,
      "Ballo": 4112,
      "Barium": 4113,
      "Bromine": 4114,
      "Cho": 4115,
      "Cult": 4116,
      "Dr": 4117,
      "Des": 4118,
      "EV": 4119,
      "Ener": 4120,
      "Elder": 4121,
      "Fire": 4122,
      "Ge": 4123,
      "Game": 4124,
      "Gry": 4125,
      "HT": 4126,
      "Hel": 4127,
      "HNO": 4128,
      "Id": 4129,
      "Ion": 4130,
      "Ind": 4131,
      "Ions": 4132,
      "Kry": 4133,
      "LE": 4134,
      "Land": 4135,
      "Low": 4136,
      "Mus": 4137,
      "May": 4138,
      "Mess": 4139,
      "Meet": 4140,
      "Make": 4141,
      "Math": 4142,
      "Multitasking": 4143,
      "Mix": 4144,
      "Non": 4145,
      "Net": 4146,
      "Off": 4147,
      "OFF": 4148,
      "PV": 4149,
      "Pay": 4150,
      "Pur": 4151,
      "Plast": 4152,
      "Red": 4153,
      "Rare": 4154,
      "Rom": 4155,
      "Right": 4156,
      "Rarely": 4157,
      "Sec": 4158,
      "Sum": 4159,
      "Sup": 4160,
      "Spe": 4161,
      "Sea": 4162,
      "Stick": 4163,
      "Top": 4164,
      "Train": 4165,
      "Turn": 4166,
      "Try": 4167,
      "UT": 4168,
      "Using": 4169,
      "Valle": 4170,
      "Vinci": 4171,
      "Wi": 4172,
      "Wr": 4173,
      "Wild": 4174,
      "Yep": 4175,
      "Zinc": 4176,
      "].": 4177,
      "aes": 4178,
      "aul": 4179,
      "aur": 4180,
      "amy": 4181,
      "aking": 4182,
      "aving": 4183,
      "aments": 4184,
      "ailed": 4185,
      "bre": 4186,
      "bad": 4187,
      "bacter": 4188,
      "belli": 4189,
      "backs": 4190,
      "boss": 4191,
      "cat": 4192,
      "cas": 4193,
      "cate": 4194,
      "cts": 4195,
      "cence": 4196,
      "crown": 4197,
      "dou": 4198,
      "drain": 4199,
      "dye": 4200,
      "dinner": 4201,
      "dull": 4202,
      "ean": 4203,
      "een": 4204,
      "fac": 4205,
      "fur": 4206,
      "fig": 4207,
      "fish": 4208,
      "fill": 4209,
      "fetch": 4210,
      "ga": 4211,
      "gs": 4212,
      "git": 4213,
      "gation": 4214,
      "gres": 4215,
      "gather": 4216,
      "ggies": 4217,
      "gativity": 4218,
      "gdal": 4219,
      "games": 4220,
      "hen": 4221,
      "hide": 4222,
      "hip": 4223,
      "hints": 4224,
      "hope": 4225,
      "ius": 4226,
      "ibility": 4227,
      "jor": 4228,
      "jour": 4229,
      "jam": 4230,
      "jects": 4231,
      "jamin": 4232,
      "juggle": 4233,
      "jargon": 4234,
      "jection": 4235,
      "kni": 4236,
      "ls": 4237,
      "lent": 4238,
      "lab": 4239,
      "lau": 4240,
      "link": 4241,
      "loud": 4242,
      "mat": 4243,
      "mit": 4244,
      "mac": 4245,
      "mad": 4246,
      "mam": 4247,
      "mim": 4248,
      "mares": 4249,
      "nm": 4250,
      "nec": 4251,
      "nad": 4252,
      "nals": 4253,
      "nav": 4254,
      "narr": 4255,
      "nthetic": 4256,
      "oc": 4257,
      "oy": 4258,
      "oes": 4259,
      "oti": 4260,
      "oli": 4261,
      "oper": 4262,
      "otic": 4263,
      "ozing": 4264,
      "ogle": 4265,
      "ption": 4266,
      "past": 4267,
      "pause": 4268,
      "packs": 4269,
      "passion": 4270,
      "rhy": 4271,
      "rice": 4272,
      "sin": 4273,
      "smo": 4274,
      "sno": 4275,
      "sits": 4276,
      "song": 4277,
      "sort": 4278,
      "swarm": 4279,
      "schol": 4280,
      "tu": 4281,
      "tes": 4282,
      "tten": 4283,
      "tles": 4284,
      "twist": 4285,
      "uro": 4286,
      "ura": 4287,
      "uate": 4288,
      "usion": 4289,
      "van": 4290,
      "vot": 4291,
      "vations": 4292,
      "wro": 4293,
      "wed": 4294,
      "wall": 4295,
      "wise": 4296,
      "wings": 4297,
      "wink": 4298,
      "wls": 4299,
      "zers": 4300,
      "’.": 4301,
      "⁺)": 4302,
      "₂)**": 4303,
      "indo": 4304,
      "inform": 4305,
      "inven": 4306,
      "infinite": 4307,
      "ered": 4308,
      "eries": 4309,
      "ontium": 4310,
      "redo": 4311,
      "repre": 4312,
      "rect": 4313,
      "refun": 4314,
      "recor": 4315,
      "reases": 4316,
      "reject": 4317,
      "recover": 4318,
      "replication": 4319,
      "reshaped": 4320,
      "rehears": 4321,
      "rebelli": 4322,
      "ata": 4323,
      "atite": 4324,
      "anno": 4325,
      "antom": 4326,
      "ancient": 4327,
      "enyl": 4328,
      "enzyme": 4329,
      "along": 4330,
      "allium": 4331,
      "align": 4332,
      "algebra": 4333,
      "aluate": 4334,
      "essible": 4335,
      "oring": 4336,
      "itten": 4337,
      "itely": 4338,
      "least": 4339,
      "legit": 4340,
      "stone": 4341,
      "stup": 4342,
      "stard": 4343,
      "stles": 4344,
      "states": 4345,
      "storm": 4346,
      "arance": 4347,
      "argue": 4348,
      "theme": 4349,
      "theart": 4350,
      "isms": 4351,
      "ismic": 4352,
      "tool": 4353,
      "tope": 4354,
      "veggies": 4355,
      "icks": 4356,
      "ictive": 4357,
      "roof": 4358,
      "roles": 4359,
      "ropy": 4360,
      "rogation": 4361,
      "asm": 4362,
      "asets": 4363,
      "asura": 4364,
      "ativi": 4365,
      "acity": 4366,
      "meal": 4367,
      "measura": 4368,
      "ecosy": 4369,
      "lier": 4370,
      "lius": 4371,
      "lives": 4372,
      "lified": 4373,
      "ented": 4374,
      "entrepre": 4375,
      "edom": 4376,
      "els": 4377,
      "eles": 4378,
      "eliness": 4379,
      "ramb": 4380,
      "cose": 4381,
      "cope": 4382,
      "cozy": 4383,
      "colon": 4384,
      "covalent": 4385,
      "withdra": 4386,
      "ulous": 4387,
      "ulsive": 4388,
      "usel": 4389,
      "lying": 4390,
      "crew": 4391,
      "forts": 4392,
      "forward": 4393,
      "forgotten": 4394,
      "abor": 4395,
      "ably": 4396,
      "absolut": 4397,
      "shines": 4398,
      "ches": 4399,
      "chills": 4400,
      "chasing": 4401,
      "cheer": 4402,
      "chunks": 4403,
      "oda": 4404,
      "odine": 4405,
      "ident": 4406,
      "quantum": 4407,
      "queries": 4408,
      "keeper": 4409,
      "ady": 4410,
      "utrients": 4411,
      "som": 4412,
      "conclu": 4413,
      "verification": 4414,
      "unlike": 4415,
      "unstable": 4416,
      "unknown": 4417,
      "untang": 4418,
      "spent": 4419,
      "sprite": 4420,
      "spaces": 4421,
      "ayment": 4422,
      "genius": 4423,
      "perately": 4424,
      "outward": 4425,
      "area": 4426,
      "areas": 4427,
      "urb": 4428,
      "urium": 4429,
      "urist": 4430,
      "urgy": 4431,
      "uranium": 4432,
      "prop": 4433,
      "promo": 4434,
      "proves": 4435,
      "proving": 4436,
      "propose": 4437,
      "produce": 4438,
      "agon": 4439,
      "agre": 4440,
      "agnetic": 4441,
      "aggres": 4442,
      "trip": 4443,
      "moon": 4444,
      "moti": 4445,
      "moved": 4446,
      "moglobin": 4447,
      "nost": 4448,
      "notice": 4449,
      "nova": 4450,
      "beast": 4451,
      "flaws": 4452,
      "seem": 4453,
      "semic": 4454,
      "onegativity": 4455,
      "load": 4456,
      "loans": 4457,
      "logi": 4458,
      "loses": 4459,
      "loss": 4460,
      "neur": 4461,
      "netium": 4462,
      "apes": 4463,
      "appreci": 4464,
      "apatite": 4465,
      "series": 4466,
      "rivers": 4467,
      "feet": 4468,
      "feature": 4469,
      "feather": 4470,
      "fewer": 4471,
      "mming": 4472,
      "mmates": 4473,
      "Shiny": 4474,
      "allurgy": 4475,
      "epist": 4476,
      "weaving": 4477,
      "romance": 4478,
      "romantic": 4479,
      "urea": 4480,
      "gravity": 4481,
      "gradu": 4482,
      "pizz": 4483,
      "pivot": 4484,
      "worship": 4485,
      "essence": 4486,
      "opposite": 4487,
      "doll": 4488,
      "docum": 4489,
      "fold": 4490,
      "among": 4491,
      "ift": 4492,
      "ified": 4493,
      "compli": 4494,
      "compress": 4495,
      "compulsive": 4496,
      "ups": 4497,
      "emic": 4498,
      "emits": 4499,
      "email": 4500,
      "embark": 4501,
      "reson": 4502,
      "result": 4503,
      "resetting": 4504,
      "poly": 4505,
      "pochlor": 4506,
      "pools": 4507,
      "poign": 4508,
      "pocamp": 4509,
      "indly": 4510,
      "held": 4511,
      "height": 4512,
      "heated": 4513,
      "heurist": 4514,
      "esting": 4515,
      "estors": 4516,
      "strange": 4517,
      "struggle": 4518,
      "phite": 4519,
      "phased": 4520,
      "phantom": 4521,
      "phenyl": 4522,
      "bye": 4523,
      "teens": 4524,
      "giene": 4525,
      "ards": 4526,
      "glen": 4527,
      "lightweight": 4528,
      "ellar": 4529,
      "suit": 4530,
      "bution": 4531,
      "hello": 4532,
      "peek": 4533,
      "helping": 4534,
      "Indium": 4535,
      "arning": 4536,
      "tend": 4537,
      "tens": 4538,
      "Social": 4539,
      "justify": 4540,
      "evaluate": 4541,
      "samp": 4542,
      "metallurgy": 4543,
      "immedi": 4544,
      "prey": 4545,
      "predic": 4546,
      "preserves": 4547,
      "smiled": 4548,
      "tware": 4549,
      "Star": 4550,
      "Stud": 4551,
      "Study": 4552,
      "simplified": 4553,
      "interact": 4554,
      "interactive": 4555,
      "interaction": 4556,
      "intersec": 4557,
      "interests": 4558,
      "interrogation": 4559,
      "mines": 4560,
      "mining": 4561,
      "ended": 4562,
      "discus": 4563,
      "discomfort": 4564,
      "discuss": 4565,
      "ists": 4566,
      "oxalate": 4567,
      "decides": 4568,
      "wasn": 4569,
      "ongs": 4570,
      "steals": 4571,
      "personify": 4572,
      "hype": 4573,
      "hypochlor": 4574,
      "hygiene": 4575,
      "amed": 4576,
      "days": 4577,
      "boy": 4578,
      "fertili": 4579,
      "magically": 4580,
      "magnetic": 4581,
      "ipts": 4582,
      "amplify": 4583,
      "brings": 4584,
      "brainstorm": 4585,
      "differences": 4586,
      "overstimulation": 4587,
      "base": 4588,
      "bask": 4589,
      "learned": 4590,
      "100": 4591,
      "Always": 4592,
      "Algebra": 4593,
      "choose": 4594,
      "backed": 4595,
      "downward": 4596,
      "hormon": 4597,
      "parts": 4598,
      "paralle": 4599,
      "expected": 4600,
      "digestion": 4601,
      "workspace": 4602,
      "steady": 4603,
      "evenings": 4604,
      "Nah": 4605,
      "grind": 4606,
      "grace": 4607,
      "airing": 4608,
      "blindly": 4609,
      "addictive": 4610,
      "prise": 4611,
      "princi": 4612,
      "actively": 4613,
      "whole": 4614,
      "Cooking": 4615,
      "Common": 4616,
      "Covalent": 4617,
      "Cobalt": 4618,
      "Leverage": 4619,
      "ctor": 4620,
      "ronutrients": 4621,
      "cept": 4622,
      "finish": 4623,
      "finally": 4624,
      "finances": 4625,
      "inkle": 4626,
      "versation": 4627,
      "Never": 4628,
      "biology": 4629,
      "breath": 4630,
      "breathing": 4631,
      "venir": 4632,
      "letes": 4633,
      "actionable": 4634,
      "seek": 4635,
      "seeing": 4636,
      "scar": 4637,
      "scramb": 4638,
      "reality": 4639,
      "position": 4640,
      "squea": 4641,
      "gues": 4642,
      "guid": 4643,
      "nerve": 4644,
      "wouldn": 4645,
      "happiness": 4646,
      "More": 4647,
      "Reality": 4648,
      "Replace": 4649,
      "Ready": 4650,
      "sleeping": 4651,
      "showed": 4652,
      "illions": 4653,
      "numbed": 4654,
      "Contain": 4655,
      "Consist": 4656,
      "Contin": 4657,
      "Conversation": 4658,
      "Goal": 4659,
      "Google": 4660,
      "Notifications": 4661,
      "Notice": 4662,
      "videos": 4663,
      "storytelling": 4664,
      "stems": 4665,
      "confuse": 4666,
      "confused": 4667,
      "confusion": 4668,
      "period": 4669,
      "news": 4670,
      "subtly": 4671,
      "140": 4672,
      "nighters": 4673,
      "nightmares": 4674,
      "anced": 4675,
      "ancestors": 4676,
      "float": 4677,
      "flocking": 4678,
      "denial": 4679,
      "ruthless": 4680,
      "surprise": 4681,
      "flux": 4682,
      "Starting": 4683,
      "humanity": 4684,
      "Adap": 4685,
      "Proper": 4686,
      "bitals": 4687,
      "capacity": 4688,
      "disturb": 4689,
      "interesting": 4690,
      "interested": 4691,
      "CuO": 4692,
      "fire": 4693,
      "tale": 4694,
      "talks": 4695,
      "signing": 4696,
      "dividing": 4697,
      "miss": 4698,
      "mislead": 4699,
      "radiation": 4700,
      "craves": 4701,
      "cramming": 4702,
      "visit": 4703,
      "relativity": 4704,
      "relativi": 4705,
      "accessible": 4706,
      "charges": 4707,
      "foodies": 4708,
      "written": 4709,
      "remembered": 4710,
      "ignites": 4711,
      "Like": 4712,
      "Life": 4713,
      "drift": 4714,
      "takeout": 4715,
      "distract": 4716,
      "transfer": 4717,
      "transactions": 4718,
      "Super": 4719,
      "datasets": 4720,
      "turns": 4721,
      "rarely": 4722,
      "undant": 4723,
      "essentials": 4724,
      "detect": 4725,
      "hermit": 4726,
      "highlight": 4727,
      "puff": 4728,
      "salty": 4729,
      "sorts": 4730,
      "neutral": 4731,
      "buzzword": 4732,
      "blood": 4733,
      "block": 4734,
      "burnt": 4735,
      "switching": 4736,
      "medic": 4737,
      "medical": 4738,
      "ushes": 4739,
      "strengths": 4740,
      "Mete": 4741,
      "Metal": 4742,
      "Questions": 4743,
      "couldn": 4744,
      "ometric": 4745,
      "portions": 4746,
      "portive": 4747,
      "experiences": 4748,
      "Beyond": 4749,
      "Creative": 4750,
      "Perhaps": 4751,
      "carefully": 4752,
      "schools": 4753,
      "memorize": 4754,
      "uniquely": 4755,
      "Asking": 4756,
      "daily": 4757,
      "draw": 4758,
      "dramatic": 4759,
      "mercy": 4760,
      "music": 4761,
      "muscles": 4762,
      "limited": 4763,
      "healthy": 4764,
      "?”,": 4765,
      "Loves": 4766,
      "Trans": 4767,
      "brighter": 4768,
      "easily": 4769,
      "namics": 4770,
      "session": 4771,
      "ordering": 4772,
      "leaders": 4773,
      "feeds": 4774,
      "respectfully": 4775,
      "nuclear": 4776,
      "Green": 4777,
      "Others": 4778,
      "bristles": 4779,
      "duality": 4780,
      "famili": 4781,
      "roscopic": 4782,
      "directly": 4783,
      "believe": 4784,
      "computing": 4785,
      "disciplined": 4786,
      "particles": 4787,
      "schoolwork": 4788,
      "reflective": 4789,
      "Everything": 4790,
      "cellular": 4791,
      "networks": 4792,
      "chaotic": 4793,
      "solids": 4794,
      "tricks": 4795,
      "oxidize": 4796,
      "CHON": 4797,
      "Too": 4798,
      "film": 4799,
      "files": 4800,
      "renting": 4801,
      "storage": 4802,
      "consistency": 4803,
      "trigger": 4804,
      "emerge": 4805,
      "mastery": 4806,
      "decays": 4807,
      "priorities": 4808,
      "Resist": 4809,
      "sensory": 4810,
      "windling": 4811,
      "repayment": 4812,
      "repairing": 4813,
      "rewarded": 4814,
      "resistant": 4815,
      "ordinary": 4816,
      "checks": 4817,
      "behaviors": 4818,
      "separate": 4819,
      "weirdly": 4820,
      "debt": 4821,
      "debating": 4822,
      "suggests": 4823,
      "Abundant": 4824,
      "Apps": 4825,
      "Deep": 4826,
      "bottom": 4827,
      "bottles": 4828,
      "freedom": 4829,
      "pton": 4830,
      "paint": 4831,
      "population": 4832,
      "utionary": 4833,
      "relief": 4834,
      "leaks": 4835,
      "leaking": 4836,
      "velocity": 4837,
      "cooling": 4838,
      "planning": 4839,
      "locally": 4840,
      "onductor": 4841,
      "philosophers": 4842,
      "values": 4843,
      "letters": 4844,
      "phospho": 4845,
      "characters": 4846,
      "adventures": 4847,
      "Defaul": 4848,
      "Unit": 4849,
      "Uninst": 4850,
      "deprived": 4851,
      "software": 4852,
      "simulation": 4853,
      "grounded": 4854,
      "sharpens": 4855,
      "Franklin": 4856,
      "massively": 4857,
      "Discover": 4858,
      "affirm": 4859,
      "broad": 4860,
      "earlier": 4861,
      "effect": 4862,
      "effects": 4863,
      "global": 4864,
      "oils": 4865,
      "rushing": 4866,
      "isotope": 4867,
      "isolate": 4868,
      "wildly": 4869,
      "coordinate": 4870,
      "evolved": 4871,
      "possibly": 4872,
      "emphasize": 4873,
      "crystals": 4874,
      "strengthening": 4875,
      "briefly": 4876,
      "psychology": 4877,
      "psychologi": 4878,
      "4286": 4879,
      "Recipes": 4880,
      "Restaur": 4881,
      "Seek": 4882,
      "Team": 4883,
      "efficient": 4884,
      "pays": 4885,
      "scale": 4886,
      "²⁺)**": 4887,
      "antidote": 4888,
      "sticks": 4889,
      "absorb": 4890,
      "absorbs": 4891,
      "dialogues": 4892,
      "amino": 4893,
      "peaceful": 4894,
      "prepared": 4895,
      "silicates": 4896,
      "overwhelmed": 4897,
      "observation": 4898,
      "approximately": 4899,
      "cryptocurren": 4900,
      "housekeeping": 4901,
      "Enzyme": 4902,
      "Financial": 4903,
      "Methan": 4904,
      "Maintain": 4905,
      "Phone": 4906,
      "Powerful": 4907,
      "campa": 4908,
      "mixed": 4909,
      "tangled": 4910,
      "vault": 4911,
      "wait": 4912,
      "waiting": 4913,
      "woman": 4914,
      "women": 4915,
      "errors": 4916,
      "antica": 4917,
      "roots": 4918,
      "roommates": 4919,
      "aspect": 4920,
      "aspects": 4921,
      "melts": 4922,
      "melting": 4923,
      "identifies": 4924,
      "dominate": 4925,
      "resource": 4926,
      "resources": 4927,
      "poetic": 4928,
      "poetically": 4929,
      "metaphorical": 4930,
      "hydroxy": 4931,
      "trapped": 4932,
      "guesses": 4933,
      "obsessing": 4934,
      "obsessed": 4935,
      "acknowledging": 4936,
      "criticism": 4937,
      "habitat": 4938,
      "windows": 4939,
      "achievement": 4940,
      "Graphite": 4941,
      "Hii": 4942,
      "Space": 4943,
      "Special": 4944,
      "cofactor": 4945,
      "dopamine": 4946,
      "demands": 4947,
      "dishes": 4948,
      "fantastic": 4949,
      "failure": 4950,
      "gestured": 4951,
      "hunting": 4952,
      "patina": 4953,
      "satis": 4954,
      "snowballs": 4955,
      "swirl": 4956,
      "warned": 4957,
      "thumbs": 4958,
      "thousand": 4959,
      "attacks": 4960,
      "staples": 4961,
      "economics": 4962,
      "lightheart": 4963,
      "chatting": 4964,
      "spikes": 4965,
      "competitive": 4966,
      "glucose": 4967,
      "contrast": 4968,
      "choosing": 4969,
      "configurations": 4970,
      "distribut": 4971,
      "requirements": 4972,
      "conductors": 4973,
      "Awareness": 4974,
      "Distance": 4975,
      "Glass": 4976,
      "Historical": 4977,
      "Knowing": 4978,
      "Marcus": 4979,
      "Microscopic": 4980,
      "Skip": 4981,
      "Souvenir": 4982,
      "WAR": 4983,
      "destro": 4984,
      "elders": 4985,
      "fingerpr": 4986,
      "fabulous": 4987,
      "lazy": 4988,
      "machines": 4989,
      "obeys": 4990,
      "soul": 4991,
      "slips": 4992,
      "suss": 4993,
      "receipts": 4994,
      "research": 4995,
      "revising": 4996,
      "analyze": 4997,
      "stored": 4998,
      "elenium": 4999,
      "extreme": 5000,
      "percentages": 5001,
      "prompt": 5002,
      "appeared": 5003,
      "poisonous": 5004,
      "delivered": 5005,
      "established": 5006,
      "Increase": 5007,
      "spectrum": 5008,
      "interpretation": 5009,
      "declutter": 5010,
      "hoarding": 5011,
      "magnets": 5012,
      "introduce": 5013,
      "expectations": 5014,
      "grandma": 5015,
      "Electrolyte": 5016,
      "concentr": 5017,
      "engineer": 5018,
      "fragmented": 5019,
      "awkwardness": 5020,
      "responsibility": 5021,
      "development": 5022,
      "Strength": 5023,
      "Personality": 5024,
      "accomplishment": 5025,
      "externalizes": 5026,
      "potentially": 5027,
      "Athletes": 5028,
      "Aurelius": 5029,
      "Answer": 5030,
      "Benjamin": 5031,
      "Balloon": 5032,
      "Choose": 5033,
      "Culturally": 5034,
      "Energy": 5035,
      "Elderglen": 5036,
      "Gryce": 5037,
      "HTTP": 5038,
      "Hello": 5039,
      "Krypton": 5040,
      "Offer": 5041,
      "Paying": 5042,
      "Romantica": 5043,
      "Summarize": 5044,
      "Speed": 5045,
      "Valley": 5046,
      "Within": 5047,
      "Writing": 5048,
      "aesthetic": 5049,
      "amygdal": 5050,
      "bacteria": 5051,
      "categor": 5052,
      "facial": 5053,
      "further": 5054,
      "figure": 5055,
      "hippocamp": 5056,
      "journals": 5057,
      "knife": 5058,
      "laugh": 5059,
      "mammoths": 5060,
      "mimic": 5061,
      "necess": 5062,
      "navig": 5063,
      "narrative": 5064,
      "snoozing": 5065,
      "scholars": 5066,
      "wrote": 5067,
      "invention": 5068,
      "redox": 5069,
      "refund": 5070,
      "rejecting": 5071,
      "rehearsed": 5072,
      "rebellious": 5073,
      "annoyed": 5074,
      "stupid": 5075,
      "stardust": 5076,
      "measurable": 5077,
      "ecosystems": 5078,
      "entrepreneur": 5079,
      "withdrawal": 5080,
      "absolute": 5081,
      "conclusions": 5082,
      "untangle": 5083,
      "promotion": 5084,
      "aggressive": 5085,
      "beasts": 5086,
      "seems": 5087,
      "feathers": 5088,
      "graduate": 5089,
      "pizza": 5090,
      "heuristics": 5091,
      "Students": 5092,
      "intersections": 5093,
      "discussion": 5094,
      "hormones": 5095,
      "parallel": 5096,
      "principle": 5097,
      "scrambling": 5098,
      "squeaky": 5099,
      "Consistency": 5100,
      "Continue": 5101,
      "relativistic": 5102,
      "CHONP": 5103,
      "Defaulting": 5104,
      "Uninstall": 5105,
      "psychologists": 5106,
      "Restaurant": 5107,
      "hydroxyapatite": 5108,
      "lighthearted": 5109,
      "amygdala": 5110,
      "hippocampus": 5111,
      "\".": 5112,
      "%,": 5113,
      "'!": 5114,
      "'),": 5115,
      "(~": 5116,
      "(‑": 5117,
      ")²": 5118,
      ")³": 5119,
      "*?": 5120,
      "-,": 5121,
      "--": 5122,
      ".)": 5123,
      "05": 5124,
      "23": 5125,
      "2Mg": 5126,
      "32": 5127,
      "36": 5128,
      "38": 5129,
      "3y": 5130,
      "41": 5131,
      "4x": 5132,
      "411": 5133,
      "4xy": 5134,
      "52": 5135,
      "56": 5136,
      "57": 5137,
      "589": 5138,
      "65": 5139,
      "74": 5140,
      "75": 5141,
      "764": 5142,
      "880": 5143,
      "90": 5144,
      "95": 5145,
      "AN": 5146,
      "Air": 5147,
      "ARL": 5148,
      "Ammonia": 5149,
      "BO": 5150,
      "Bon": 5151,
      "Ban": 5152,
      "Bit": 5153,
      "Blo": 5154,
      "Bud": 5155,
      "Brid": 5156,
      "BUT": 5157,
      "Cur": 5158,
      "City": 5159,
      "Cell": 5160,
      "Case": 5161,
      "Crescent": 5162,
      "Count": 5163,
      "Den": 5164,
      "Dime": 5165,
      "Dull": 5166,
      "Data": 5167,
      "EC": 5168,
      "ER": 5169,
      "ET": 5170,
      "Ein": 5171,
      "Educ": 5172,
      "Evol": 5173,
      "Either": 5174,
      "Evalu": 5175,
      "Ess": 5176,
      "Flo": 5177,
      "Friend": 5178,
      "False": 5179,
      "Faced": 5180,
      "GO": 5181,
      "Ger": 5182,
      "Gallium": 5183,
      "His": 5184,
      "Hand": 5185,
      "Has": 5186,
      "Hill": 5187,
      "HCl": 5188,
      "Hint": 5189,
      "Honest": 5190,
      "Hope": 5191,
      "IU": 5192,
      "Ice": 5193,
      "Ki": 5194,
      "Lon": 5195,
      "Lay": 5196,
      "Ligh": 5197,
      "Latin": 5198,
      "MR": 5199,
      "Ma": 5200,
      "Mach": 5201,
      "Made": 5202,
      "Mining": 5203,
      "MARL": 5204,
      "MET": 5205,
      "NP": 5206,
      "NT": 5207,
      "Nature": 5208,
      "Number": 5209,
      "OM": 5210,
      "Ob": 5211,
      "Op": 5212,
      "ODE": 5213,
      "PP": 5214,
      "Pt": 5215,
      "Pen": 5216,
      "Ple": 5217,
      "Pri": 5218,
      "Pos": 5219,
      "Parti": 5220,
      "QL": 5221,
      "RF": 5222,
      "Ro": 5223,
      "Ret": 5224,
      "Rep": 5225,
      "Rust": 5226,
      "Rich": 5227,
      "Ref": 5228,
      "Rarity": 5229,
      "Sy": 5230,
      "Sal": 5231,
      "Sing": 5232,
      "Spl": 5233,
      "Sci": 5234,
      "Same": 5235,
      "Sign": 5236,
      "Selenium": 5237,
      "SQL": 5238,
      "Tc": 5239,
      "Tin": 5240,
      "Tit": 5241,
      "Tend": 5242,
      "Tox": 5243,
      "Tiny": 5244,
      "Tru": 5245,
      "Tung": 5246,
      "Used": 5247,
      "Ve": 5248,
      "Var": 5249,
      "Very": 5250,
      "Wol": 5251,
      "Will": 5252,
      "Warning": 5253,
      "Yup": 5254,
      "Yours": 5255,
      "Yellow": 5256,
      "Yea": 5257,
      "aqu": 5258,
      "aver": 5259,
      "aks": 5260,
      "amm": 5261,
      "ammonia": 5262,
      "band": 5263,
      "bow": 5264,
      "bly": 5265,
      "bble": 5266,
      "bowl": 5267,
      "bile": 5268,
      "boun": 5269,
      "bors": 5270,
      "bbed": 5271,
      "bird": 5272,
      "brown": 5273,
      "barium": 5274,
      "bromine": 5275,
      "bbling": 5276,
      "cin": 5277,
      "cen": 5278,
      "cou": 5279,
      "cli": 5280,
      "ced": 5281,
      "cam": 5282,
      "cach": 5283,
      "cave": 5284,
      "crou": 5285,
      "cating": 5286,
      "cauti": 5287,
      "clim": 5288,
      "couch": 5289,
      "dx": 5290,
      "due": 5291,
      "ditch": 5292,
      "drink": 5293,
      "dwindling": 5294,
      "ears": 5295,
      "eath": 5296,
      "eyes": 5297,
      "fro": 5298,
      "fits": 5299,
      "fuse": 5300,
      "fran": 5301,
      "farm": 5302,
      "fails": 5303,
      "frown": 5304,
      "fills": 5305,
      "faint": 5306,
      "gic": 5307,
      "gir": 5308,
      "gad": 5309,
      "gap": 5310,
      "gard": 5311,
      "gons": 5312,
      "gars": 5313,
      "hes": 5314,
      "hex": 5315,
      "hour": 5316,
      "hem": 5317,
      "hous": 5318,
      "hill": 5319,
      "hive": 5320,
      "hund": 5321,
      "hills": 5322,
      "halogen": 5323,
      "ian": 5324,
      "ifor": 5325,
      "iest": 5326,
      "ibut": 5327,
      "iable": 5328,
      "ieving": 5329,
      "iodine": 5330,
      "jams": 5331,
      "ket": 5332,
      "kely": 5333,
      "ler": 5334,
      "lity": 5335,
      "lind": 5336,
      "lack": 5337,
      "lower": 5338,
      "labs": 5339,
      "mou": 5340,
      "mir": 5341,
      "mere": 5342,
      "mess": 5343,
      "mill": 5344,
      "mile": 5345,
      "million": 5346,
      "macros": 5347,
      "maps": 5348,
      "nu": 5349,
      "nor": 5350,
      "nia": 5351,
      "oly": 5352,
      "ogen": 5353,
      "ores": 5354,
      "ocal": 5355,
      "pH": 5356,
      "pal": 5357,
      "pic": 5358,
      "pink": 5359,
      "pects": 5360,
      "paste": 5361,
      "pped": 5362,
      "punch": 5363,
      "rum": 5364,
      "rise": 5365,
      "rinks": 5366,
      "sn": 5367,
      "sco": 5368,
      "ske": 5369,
      "ssy": 5370,
      "sank": 5371,
      "sinks": 5372,
      "soda": 5373,
      "ssom": 5374,
      "tarn": 5375,
      "tak": 5376,
      "takes": 5377,
      "twir": 5378,
      "taste": 5379,
      "tissu": 5380,
      "taking": 5381,
      "tapes": 5382,
      "uff": 5383,
      "vine": 5384,
      "viny": 5385,
      "vice": 5386,
      "wn": 5387,
      "wo": 5388,
      "wet": 5389,
      "wond": 5390,
      "wins": 5391,
      "wrap": 5392,
      "xen": 5393,
      "xing": 5394,
      "xide": 5395,
      "zard": 5396,
      "zinc": 5397,
      "².": 5398,
      "²**": 5399,
      "²),": 5400,
      "²)²": 5401,
      "³)³": 5402,
      "⁺,": 5403,
      "⁺)**": 5404,
      "⁻)": 5405,
      "⁻,": 5406,
      "₂‑": 5407,
      "₂),": 5408,
      "₃·": 5409,
      "₄)": 5410,
      "inative": 5411,
      "infer": 5412,
      "inky": 5413,
      "inject": 5414,
      "incomplete": 5415,
      "initi": 5416,
      "inspi": 5417,
      "erate": 5418,
      "eria": 5419,
      "thm": 5420,
      "thill": 5421,
      "onent": 5422,
      "onometric": 5423,
      "reit": 5424,
      "repl": 5425,
      "rets": 5426,
      "reuse": 5427,
      "repe": 5428,
      "reass": 5429,
      "revers": 5430,
      "recomm": 5431,
      "recall": 5432,
      "redesign": 5433,
      "recovery": 5434,
      "replaces": 5435,
      "rephrase": 5436,
      "rejection": 5437,
      "recating": 5438,
      "aten": 5439,
      "atings": 5440,
      "attemp": 5441,
      "attack": 5442,
      "ann": 5443,
      "anks": 5444,
      "angl": 5445,
      "anim": 5446,
      "animal": 5447,
      "enzy": 5448,
      "enjo": 5449,
      "enjoy": 5450,
      "ouds": 5451,
      "alkal": 5452,
      "escap": 5453,
      "orb": 5454,
      "oration": 5455,
      "orite": 5456,
      "orbitals": 5457,
      "leaf": 5458,
      "sten": 5459,
      "station": 5460,
      "sters": 5461,
      "stamp": 5462,
      "stature": 5463,
      "stones": 5464,
      "stove": 5465,
      "stony": 5466,
      "stellar": 5467,
      "stuff": 5468,
      "arc": 5469,
      "arl": 5470,
      "arer": 5471,
      "arily": 5472,
      "theories": 5473,
      "ision": 5474,
      "anding": 5475,
      "tial": 5476,
      "tile": 5477,
      "tiles": 5478,
      "veled": 5479,
      "vector": 5480,
      "icy": 5481,
      "icit": 5482,
      "icies": 5483,
      "ications": 5484,
      "robo": 5485,
      "roded": 5486,
      "rotten": 5487,
      "asant": 5488,
      "atility": 5489,
      "acle": 5490,
      "acking": 5491,
      "ache": 5492,
      "acular": 5493,
      "meme": 5494,
      "melan": 5495,
      "meters": 5496,
      "owe": 5497,
      "eces": 5498,
      "lie": 5499,
      "lime": 5500,
      "lift": 5501,
      "likely": 5502,
      "entropy": 5503,
      "eds": 5504,
      "eding": 5505,
      "educ": 5506,
      "exactly": 5507,
      "elabor": 5508,
      "raw": 5509,
      "umines": 5510,
      "wire": 5511,
      "wide": 5512,
      "cos": 5513,
      "coal": 5514,
      "cold": 5515,
      "cops": 5516,
      "cosine": 5517,
      "cohes": 5518,
      "coatings": 5519,
      "sigh": 5520,
      "sizz": 5521,
      "ulate": 5522,
      "ulative": 5523,
      "Through": 5524,
      "Thanks": 5525,
      "usual": 5526,
      "creations": 5527,
      "creating": 5528,
      "creates": 5529,
      "foraging": 5530,
      "forged": 5531,
      "forcing": 5532,
      "shut": 5533,
      "sheet": 5534,
      "shrinks": 5535,
      "ched": 5536,
      "champ": 5537,
      "chime": 5538,
      "chea": 5539,
      "chuck": 5540,
      "ody": 5541,
      "odor": 5542,
      "whate": 5543,
      "whether": 5544,
      "etition": 5545,
      "etrated": 5546,
      "mps": 5547,
      "ceive": 5548,
      "quant": 5549,
      "quity": 5550,
      "quick": 5551,
      "quality": 5552,
      "query": 5553,
      "quanti": 5554,
      "quaint": 5555,
      "quoti": 5556,
      "ades": 5557,
      "adjust": 5558,
      "adore": 5559,
      "soon": 5560,
      "soil": 5561,
      "plain": 5562,
      "plast": 5563,
      "plating": 5564,
      "plastic": 5565,
      "plications": 5566,
      "conver": 5567,
      "conser": 5568,
      "contemp": 5569,
      "congrat": 5570,
      "consequ": 5571,
      "concrete": 5572,
      "conceive": 5573,
      "unt": 5574,
      "unlo": 5575,
      "uneven": 5576,
      "unheal": 5577,
      "unexpected": 5578,
      "spok": 5579,
      "spaced": 5580,
      "dipo": 5581,
      "dients": 5582,
      "divide": 5583,
      "division": 5584,
      "diphenyl": 5585,
      "ays": 5586,
      "gency": 5587,
      "perple": 5588,
      "permis": 5589,
      "peroxide": 5590,
      "outs": 5591,
      "outside": 5592,
      "arest": 5593,
      "urine": 5594,
      "ainless": 5595,
      "terri": 5596,
      "terran": 5597,
      "tersweet": 5598,
      "proactive": 5599,
      "profound": 5600,
      "ags": 5601,
      "agation": 5602,
      "aggre": 5603,
      "agric": 5604,
      "iling": 5605,
      "ilumines": 5606,
      "tries": 5607,
      "trick": 5608,
      "traction": 5609,
      "tracks": 5610,
      "mot": 5611,
      "moist": 5612,
      "moving": 5613,
      "mobile": 5614,
      "mossy": 5615,
      "nobody": 5616,
      "bee": 5617,
      "beam": 5618,
      "beings": 5619,
      "bearer": 5620,
      "flam": 5621,
      "flame": 5622,
      "flaming": 5623,
      "flamm": 5624,
      "segment": 5625,
      "seismic": 5626,
      "yours": 5627,
      "Whith": 5628,
      "lot": 5629,
      "lots": 5630,
      "logies": 5631,
      "appre": 5632,
      "applications": 5633,
      "serious": 5634,
      "rim": 5635,
      "rial": 5636,
      "ries": 5637,
      "ribbles": 5638,
      "She": 5639,
      "Shall": 5640,
      "Shell": 5641,
      "Sharing": 5642,
      "Shift": 5643,
      "allow": 5644,
      "alline": 5645,
      "allenge": 5646,
      "web": 5647,
      "wear": 5648,
      "webs": 5649,
      "gray": 5650,
      "grams": 5651,
      "grains": 5652,
      "pieces": 5653,
      "ustom": 5654,
      "opp": 5655,
      "ops": 5656,
      "oping": 5657,
      "opoly": 5658,
      "foot": 5659,
      "amagnetic": 5660,
      "general": 5661,
      "gem": 5662,
      "geology": 5663,
      "ifier": 5664,
      "compres": 5665,
      "upward": 5666,
      "uptake": 5667,
      "rescu": 5668,
      "max": 5669,
      "major": 5670,
      "masters": 5671,
      "indic": 5672,
      "uction": 5673,
      "ucial": 5674,
      "debu": 5675,
      "deoff": 5676,
      "definite": 5677,
      "deeper": 5678,
      "heme": 5679,
      "hemoglobin": 5680,
      "actors": 5681,
      "explode": 5682,
      "estone": 5683,
      "strontium": 5684,
      "cannot": 5685,
      "teams": 5686,
      "teaming": 5687,
      "gia": 5688,
      "giver": 5689,
      "lightbulb": 5690,
      "ellent": 5691,
      "ffs": 5692,
      "bled": 5693,
      "audit": 5694,
      "sugars": 5695,
      "igns": 5696,
      "achieving": 5697,
      "bubbles": 5698,
      "buoy": 5699,
      "wanted": 5700,
      "via": 5701,
      "vibe": 5702,
      "vivid": 5703,
      "vista": 5704,
      "solves": 5705,
      "thinks": 5706,
      "thiness": 5707,
      "former": 5708,
      "peer": 5709,
      "pearance": 5710,
      "assical": 5711,
      "assup": 5712,
      "helped": 5713,
      "Inclu": 5714,
      "Instructions": 5715,
      "tense": 5716,
      "timed": 5717,
      "timeline": 5718,
      "explains": 5719,
      "explained": 5720,
      "event": 5721,
      "raints": 5722,
      "rainbow": 5723,
      "electric": 5724,
      "electronegativity": 5725,
      "metabol": 5726,
      "contact": 5727,
      "otons": 5728,
      "prepar": 5729,
      "premon": 5730,
      "clarify": 5731,
      "clouds": 5732,
      "classical": 5733,
      "ossible": 5734,
      "Stat": 5735,
      "Step": 5736,
      "Stars": 5737,
      "Stabili": 5738,
      "Stony": 5739,
      "Stainless": 5740,
      "geting": 5741,
      "interven": 5742,
      "internal": 5743,
      "intervie": 5744,
      "equi": 5745,
      "equili": 5746,
      "ending": 5747,
      "endation": 5748,
      "dissolve": 5749,
      "disorder": 5750,
      "discharge": 5751,
      "discrete": 5752,
      "dissolves": 5753,
      "decent": 5754,
      "decreases": 5755,
      "decades": 5756,
      "stein": 5757,
      "steep": 5758,
      "Exp": 5759,
      "illumin": 5760,
      "crucial": 5761,
      "humming": 5762,
      "culating": 5763,
      "cultural": 5764,
      "hydr": 5765,
      "synthetic": 5766,
      "msgs": 5767,
      "boid": 5768,
      "board": 5769,
      "trading": 5770,
      "traveled": 5771,
      "tradeoff": 5772,
      "silencing": 5773,
      "desires": 5774,
      "plays": 5775,
      "angle": 5776,
      "anged": 5777,
      "anyway": 5778,
      "bricks": 5779,
      "ductile": 5780,
      "retard": 5781,
      "curves": 5782,
      "curring": 5783,
      "overall": 5784,
      "chemilumines": 5785,
      "effort": 5786,
      "efforts": 5787,
      "hash": 5788,
      "impact": 5789,
      "impossible": 5790,
      "builder": 5791,
      "Also": 5792,
      "Alright": 5793,
      "Algorithms": 5794,
      "Altern": 5795,
      "background": 5796,
      "park": 5797,
      "parameter": 5798,
      "assistant": 5799,
      "exponents": 5800,
      "grid": 5801,
      "Calculating": 5802,
      "blushes": 5803,
      "adds": 5804,
      "Elemental": 5805,
      "ential": 5806,
      "entists": 5807,
      "entirely": 5808,
      "tics": 5809,
      "grew": 5810,
      "grey": 5811,
      "pride": 5812,
      "logging": 5813,
      "superchar": 5814,
      "supernova": 5815,
      "superposition": 5816,
      "ators": 5817,
      "Come": 5818,
      "Coins": 5819,
      "Cosmic": 5820,
      "factories": 5821,
      "Challenge": 5822,
      "funds": 5823,
      "Explore": 5824,
      "financial": 5825,
      "topics": 5826,
      "versus": 5827,
      "smallest": 5828,
      "Neural": 5829,
      "streets": 5830,
      "strewn": 5831,
      "differently": 5832,
      "please": 5833,
      "scribbles": 5834,
      "realistic": 5835,
      "underground": 5836,
      "underlying": 5837,
      "focused": 5838,
      "roughly": 5839,
      "colorful": 5840,
      "colorless": 5841,
      "cube": 5842,
      "guardi": 5843,
      "moral": 5844,
      "morals": 5845,
      "secrets": 5846,
      "willing": 5847,
      "Reactive": 5848,
      "Reaf": 5849,
      "obvious": 5850,
      "objective": 5851,
      "objects": 5852,
      "skin": 5853,
      "skip": 5854,
      "thouse": 5855,
      "comma": 5856,
      "ultural": 5857,
      "Conflict": 5858,
      "corner": 5859,
      "trees": 5860,
      "treats": 5861,
      "concaten": 5862,
      "produced": 5863,
      "balancing": 5864,
      "substit": 5865,
      "substitut": 5866,
      "subjective": 5867,
      "subterran": 5868,
      "nights": 5869,
      "floated": 5870,
      "flock": 5871,
      "flocks": 5872,
      "Art": 5873,
      "Arsen": 5874,
      "Archime": 5875,
      "Feeding": 5876,
      "deny": 5877,
      "partner": 5878,
      "aloof": 5879,
      "sister": 5880,
      "soluble": 5881,
      "bittersweet": 5882,
      "passages": 5883,
      "standard": 5884,
      "distant": 5885,
      "distill": 5886,
      "tales": 5887,
      "signific": 5888,
      "misuse": 5889,
      "responding": 5890,
      "Six": 5891,
      "mony": 5892,
      "monopoly": 5893,
      "velous": 5894,
      "radio": 5895,
      "radiance": 5896,
      "ships": 5897,
      "crazy": 5898,
      "crawls": 5899,
      "visiting": 5900,
      "relative": 5901,
      "origins": 5902,
      "accent": 5903,
      "account": 5904,
      "trying": 5905,
      "...)**": 5906,
      "Magnetic": 5907,
      "wrung": 5908,
      "Adding": 5909,
      "Addition": 5910,
      "Justify": 5911,
      "priate": 5912,
      "appropriate": 5913,
      "CaO": 5914,
      "drive": 5915,
      "kinds": 5916,
      "kindly": 5917,
      "tells": 5918,
      "combo": 5919,
      "combat": 5920,
      "combine": 5921,
      "combination": 5922,
      "transforms": 5923,
      "criteria": 5924,
      "Diameter": 5925,
      "Direct": 5926,
      "Food": 5927,
      "longing": 5928,
      "marvelous": 5929,
      "turned": 5930,
      "liquids": 5931,
      "imagining": 5932,
      "imaginary": 5933,
      "imaginative": 5934,
      "mentioning": 5935,
      "bodies": 5936,
      "detail": 5937,
      "detected": 5938,
      "eighteen": 5939,
      "fram": 5940,
      "friendship": 5941,
      "highly": 5942,
      "highway": 5943,
      "salts": 5944,
      "sorrow": 5945,
      "sorry": 5946,
      "ependent": 5947,
      "explanations": 5948,
      "buzzes": 5949,
      "clues": 5950,
      "Chlorophyll": 5951,
      "bloom": 5952,
      "blossom": 5953,
      "lands": 5954,
      "landing": 5955,
      "landed": 5956,
      "landsc": 5957,
      "says": 5958,
      "sulfuric": 5959,
      "warming": 5960,
      "tificial": 5961,
      "excellent": 5962,
      "speak": 5963,
      "speaks": 5964,
      "brilliance": 5965,
      "150": 5966,
      "Flame": 5967,
      "Quiz": 5968,
      "finding": 5969,
      "multiplied": 5970,
      "organize": 5971,
      "organism": 5972,
      "importance": 5973,
      "Electricity": 5974,
      "Beers": 5975,
      "Beautiful": 5976,
      "Peru": 5977,
      "born": 5978,
      "borhood": 5979,
      "carefre": 5980,
      "memorizing": 5981,
      "changed": 5982,
      "delights": 5983,
      "validation": 5984,
      "structured": 5985,
      "brilliantly": 5986,
      "Does": 5987,
      "calling": 5988,
      "draft": 5989,
      "dragon": 5990,
      "dragons": 5991,
      "merging": 5992,
      "mergers": 5993,
      "milk": 5994,
      "suppose": 5995,
      "supportive": 5996,
      "slowdown": 5997,
      "alloyed": 5998,
      "tility": 5999,
      "limestone": 6000,
      "entralized": 6001,
      "glowed": 6002,
      "derivatives": 6003,
      "breakdown": 6004,
      "understandable": 6005,
      "puzzles": 6006,
      "Look": 6007,
      "Looking": 6008,
      "Solar": 6009,
      "Solution": 6010,
      "brighten": 6011,
      "dropped": 6012,
      "presence": 6013,
      "presents": 6014,
      "meets": 6015,
      "shifts": 6016,
      "shifting": 6017,
      "potat": 6018,
      "Fluoride": 6019,
      "Ant": 6020,
      "bulk": 6021,
      "brium": 6022,
      "cycl": 6023,
      "cycles": 6024,
      "cylind": 6025,
      "delic": 6026,
      "layers": 6027,
      "layman": 6028,
      "release": 6029,
      "ingredient": 6030,
      "directions": 6031,
      "trusted": 6032,
      "compute": 6033,
      "computers": 6034,
      "computational": 6035,
      "decentralization": 6036,
      "schooling": 6037,
      "reflects": 6038,
      "viewpoint": 6039,
      "beneath": 6040,
      "dreaming": 6041,
      "reinforcing": 6042,
      "opened": 6043,
      "safely": 6044,
      "oxides": 6045,
      "oxidizes": 6046,
      "continuum": 6047,
      "continuation": 6048,
      "continuous": 6049,
      "continuously": 6050,
      "?'.": 6051,
      "NON": 6052,
      "Tooth": 6053,
      "Tellurium": 6054,
      "braking": 6055,
      "filaments": 6056,
      "flexibility": 6057,
      "handle": 6058,
      "jobs": 6059,
      "purring": 6060,
      "training": 6061,
      "yllium": 6062,
      "rent": 6063,
      "mediate": 6064,
      "conducts": 6065,
      "conductor": 6066,
      "trigonometric": 6067,
      "weakly": 6068,
      "emerging": 6069,
      "emerges": 6070,
      "heartwarming": 6071,
      "functional": 6072,
      "Goodbye": 6073,
      "approaches": 6074,
      "bulbs": 6075,
      "normalize": 6076,
      "ilosophical": 6077,
      "DECREASES": 6078,
      "gains": 6079,
      "slumber": 6080,
      "slinky": 6081,
      "sensor": 6082,
      "touches": 6083,
      "increasing": 6084,
      "includes": 6085,
      "repetition": 6086,
      "meaningful": 6087,
      "truths": 6088,
      "separation": 6089,
      "separately": 6090,
      "mysteries": 6091,
      "graphite": 6092,
      "strategy": 6093,
      "suggestions": 6094,
      "simplicity": 6095,
      "personalities": 6096,
      "greatest": 6097,
      "Compounds": 6098,
      "Protons": 6099,
      "grouping": 6100,
      "supplies": 6101,
      "reinforcement": 6102,
      "randomness": 6103,
      "Appearance": 6104,
      "Dear": 6105,
      "ONE": 6106,
      "Twinkle": 6107,
      "ethylene": 6108,
      "honestly": 6109,
      "painful": 6110,
      "popul": 6111,
      "involves": 6112,
      "inputs": 6113,
      "erators": 6114,
      "accuracy": 6115,
      "spreads": 6116,
      "moods": 6117,
      "teaches": 6118,
      "characteristic": 6119,
      "delays": 6120,
      "benefit": 6121,
      "Simply": 6122,
      "Uni": 6123,
      "depth": 6124,
      "deprecating": 6125,
      "depending": 6126,
      "matches": 6127,
      "matching": 6128,
      "softer": 6129,
      "tiniest": 6130,
      "waveleng": 6131,
      "enthusiasm": 6132,
      "methyl": 6133,
      "construct": 6134,
      "independent": 6135,
      "correction": 6136,
      "correctly": 6137,
      "sharpest": 6138,
      "integration": 6139,
      "29411": 6140,
      "3529411": 6141,
      "706": 6142,
      "PbO": 6143,
      "brother": 6144,
      "birds": 6145,
      "courtes": 6146,
      "effective": 6147,
      "lonely": 6148,
      "loneliness": 6149,
      "penetrated": 6150,
      "sources": 6151,
      "inctive": 6152,
      "instantly": 6153,
      "alleable": 6154,
      "timid": 6155,
      "challeng": 6156,
      "admit": 6157,
      "advance": 6158,
      "advice": 6159,
      "advances": 6160,
      "evolving": 6161,
      "cruel": 6162,
      "magnitude": 6163,
      "numerators": 6164,
      "crafted": 6165,
      "combined": 6166,
      "prioritizing": 6167,
      "Protector": 6168,
      "psychological": 6169,
      "atmosphere": 6170,
      "26880": 6171,
      "Basic": 6172,
      "PET": 6173,
      "Reco": 6174,
      "powder": 6175,
      "risk": 6176,
      "risks": 6177,
      "risky": 6178,
      "scales": 6179,
      "scalar": 6180,
      "tested": 6181,
      "tackle": 6182,
      "tackling": 6183,
      "various": 6184,
      "inertness": 6185,
      "accepted": 6186,
      "whimsy": 6187,
      "genuine": 6188,
      "weapons": 6189,
      "explosion": 6190,
      "explosive": 6191,
      "difficult": 6192,
      "description": 6193,
      "observed": 6194,
      "observations": 6195,
      "distinct": 6196,
      "carrying": 6197,
      "methodology": 6198,
      "shockwaves": 6199,
      "Radius": 6200,
      "transport": 6201,
      "Conductivity": 6202,
      "Decentralized": 6203,
      "Final": 6204,
      "Measure": 6205,
      "Philosophical": 6206,
      "cups": 6207,
      "m_s": 6208,
      "pyro": 6209,
      "polished": 6210,
      "pushes": 6211,
      "rupted": 6212,
      "insights": 6213,
      "error": 6214,
      "attraction": 6215,
      "attracts": 6216,
      "arranged": 6217,
      "identify": 6218,
      "adapt": 6219,
      "adaptive": 6220,
      "probabilities": 6221,
      "profile": 6222,
      "sequence": 6223,
      "ripples": 6224,
      "dominance": 6225,
      "definition": 6226,
      "definitely": 6227,
      "vibrant": 6228,
      "calculations": 6229,
      "specifies": 6230,
      "hydroxide": 6231,
      "current": 6232,
      "treasures": 6233,
      "connecting": 6234,
      "accelerators": 6235,
      "acknowledges": 6236,
      "alloying": 6237,
      "habitats": 6238,
      "Simplifying": 6239,
      "birthdate": 6240,
      "Brass": 6241,
      "Color": 6242,
      "Collect": 6243,
      "Glows": 6244,
      "Highly": 6245,
      "Lightweight": 6246,
      "Party": 6247,
      "Partner": 6248,
      "PDEs": 6249,
      "Technetium": 6250,
      "Upon": 6251,
      "banks": 6252,
      "bananas": 6253,
      "below": 6254,
      "belongs": 6255,
      "dicts": 6256,
      "dopants": 6257,
      "latency": 6258,
      "lattice": 6259,
      "nibbling": 6260,
      "panels": 6261,
      "swirly": 6262,
      "villain": 6263,
      "villages": 6264,
      "wander": 6265,
      "thumb": 6266,
      "thousands": 6267,
      "regression": 6268,
      "reveal": 6269,
      "reveals": 6270,
      "reminding": 6271,
      "attracted": 6272,
      "itivity": 6273,
      "studying": 6274,
      "economic": 6275,
      "lighthouse": 6276,
      "wistful": 6277,
      "forgetful": 6278,
      "childhood": 6279,
      "etched": 6280,
      "socially": 6281,
      "constancy": 6282,
      "constraints": 6283,
      "outputs": 6284,
      "beginning": 6285,
      "doorway": 6286,
      "glitchy": 6287,
      "budgeting": 6288,
      "contradicts": 6289,
      "precise": 6290,
      "chooses": 6291,
      "blurry": 6292,
      "configuration": 6293,
      "distribution": 6294,
      "Diamonds": 6295,
      "countless": 6296,
      "suggested": 6297,
      "Polyethylene": 6298,
      "sustainability": 6299,
      "823529411": 6300,
      "Halogens": 6301,
      "INCREASES": 6302,
      "Outer": 6303,
      "Steel": 6304,
      "Traffic": 6305,
      "Tempest": 6306,
      "Temperature": 6307,
      "dynamics": 6308,
      "harsh": 6309,
      "length": 6310,
      "midnight": 6311,
      "middle": 6312,
      "marketing": 6313,
      "nitric": 6314,
      "patches": 6315,
      "settle": 6316,
      "tuned": 6317,
      "invite": 6318,
      "inviting": 6319,
      "recognize": 6320,
      "strike": 6321,
      "striking": 6322,
      "measurement": 6323,
      "colle": 6324,
      "collap": 6325,
      "adorable": 6326,
      "adorably": 6327,
      "neighbors": 6328,
      "neighborhood": 6329,
      "optimum": 6330,
      "comparison": 6331,
      "Interesting": 6332,
      "humorous": 6333,
      "backwards": 6334,
      "biochemistry": 6335,
      "streetlights": 6336,
      "happened": 6337,
      "concerned": 6338,
      "substance": 6339,
      "substances": 6340,
      "surrounded": 6341,
      "smelted": 6342,
      "volcanoes": 6343,
      "Guardian": 6344,
      "Guardians": 6345,
      "mechanism": 6346,
      "mechanisms": 6347,
      "After": 6348,
      "Batteries": 6349,
      "Desperately": 6350,
      "EVER": 6351,
      "Fireworks": 6352,
      "Geological": 6353,
      "Identity": 6354,
      "Ionic": 6355,
      "Independent": 6356,
      "LEGO": 6357,
      "Muscle": 6358,
      "Maybe": 6359,
      "Networks": 6360,
      "PVC": 6361,
      "Plastic": 6362,
      "Second": 6363,
      "Topic": 6364,
      "cascad": 6365,
      "doub": 6366,
      "gathered": 6367,
      "hension": 6368,
      "hopeful": 6369,
      "linked": 6370,
      "maturity": 6371,
      "macro": 6372,
      "nada": 6373,
      "occurring": 6374,
      "operate": 6375,
      "rhythm": 6376,
      "tube": 6377,
      "walls": 6378,
      "indolent": 6379,
      "record": 6380,
      "alignment": 6381,
      "elestial": 6382,
      "colonies": 6383,
      "useless": 6384,
      "cheerful": 6385,
      "identities": 6386,
      "propagation": 6387,
      "agonal": 6388,
      "agreed": 6389,
      "triple": 6390,
      "nostal": 6391,
      "semiconductor": 6392,
      "appreciate": 6393,
      "features": 6394,
      "epistemic": 6395,
      "dolls": 6396,
      "document": 6397,
      "compliment": 6398,
      "compressing": 6399,
      "resonated": 6400,
      "polymer": 6401,
      "poignant": 6402,
      "sample": 6403,
      "immediately": 6404,
      "hypochlorous": 6405,
      "boyance": 6406,
      "fertilizer": 6407,
      "scarcity": 6408,
      "guiding": 6409,
      "Adaptive": 6410,
      "fireworks": 6411,
      "blockchain": 6412,
      "medicine": 6413,
      "Meteorites": 6414,
      "Transition": 6415,
      "familiar": 6416,
      "phosphorescent": 6417,
      "affirmation": 6418,
      "cryptocurrency": 6419,
      "Methane": 6420,
      "campaign": 6421,
      "distributed": 6422,
      "Skipping": 6423,
      "WARD": 6424,
      "destroyed": 6425,
      "fingerprint": 6426,
      "concentrations": 6427,
      "categories": 6428,
      "necessary": 6429,
      "764706": 6430,
      "BOOM": 6431,
      "Bonus": 6432,
      "Bananas": 6433,
      "Bitcoin": 6434,
      "Blood": 6435,
      "Budgeting": 6436,
      "Bridge": 6437,
      "Current": 6438,
      "Dense": 6439,
      "Einstein": 6440,
      "Educational": 6441,
      "Evolutionary": 6442,
      "Evaluating": 6443,
      "Essential": 6444,
      "German": 6445,
      "Handle": 6446,
      "Honestly": 6447,
      "Kimber": 6448,
      "Lighthill": 6449,
      "Machine": 6450,
      "METAL": 6451,
      "NPK": 6452,
      "Opposite": 6453,
      "Richards": 6454,
      "Salt": 6455,
      "Split": 6456,
      "Scientists": 6457,
      "Toxic": 6458,
      "Tungsten": 6459,
      "Various": 6460,
      "Wolfram": 6461,
      "Yeah": 6462,
      "aversion": 6463,
      "couple": 6464,
      "cliffs": 6465,
      "caching": 6466,
      "crouched": 6467,
      "cautious": 6468,
      "climate": 6469,
      "ditching": 6470,
      "girl": 6471,
      "gadgets": 6472,
      "hexagonal": 6473,
      "houses": 6474,
      "hundred": 6475,
      "halogens": 6476,
      "kettle": 6477,
      "mouth": 6478,
      "macroscopic": 6479,
      "ogenic": 6480,
      "scoop": 6481,
      "tarnish": 6482,
      "taken": 6483,
      "tapestry": 6484,
      "vinyl": 6485,
      "wonders": 6486,
      "xenon": 6487,
      "inspired": 6488,
      "reiterate": 6489,
      "replacing": 6490,
      "recommendation": 6491,
      "angles": 6492,
      "animals": 6493,
      "enzymes": 6494,
      "enjoyment": 6495,
      "stationary": 6496,
      "robotics": 6497,
      "education": 6498,
      "elaborate": 6499,
      "cohesion": 6500,
      "sizzle": 6501,
      "shuttle": 6502,
      "cheaper": 6503,
      "whatever": 6504,
      "quotient": 6505,
      "plastics": 6506,
      "contemplation": 6507,
      "consequences": 6508,
      "unlocking": 6509,
      "unhealthiness": 6510,
      "spoken": 6511,
      "dipole": 6512,
      "perplexing": 6513,
      "permission": 6514,
      "aggregate": 6515,
      "agricultural": 6516,
      "moisture": 6517,
      "flamboyance": 6518,
      "flamingos": 6519,
      "flammable": 6520,
      "Whitham": 6521,
      "apprehension": 6522,
      "website": 6523,
      "compressible": 6524,
      "rescued": 6525,
      "debugg": 6526,
      "metabolism": 6527,
      "premonition": 6528,
      "interventions": 6529,
      "interviewer": 6530,
      "illuminator": 6531,
      "chemiluminescence": 6532,
      "parameterized": 6533,
      "supercharging": 6534,
      "supernovae": 6535,
      "guardian": 6536,
      "substitution": 6537,
      "substitute": 6538,
      "subterranean": 6539,
      "Arsenic": 6540,
      "Archimedes": 6541,
      "accountability": 6542,
      "carefreeness": 6543,
      "cylinders": 6544,
      "wavelengths": 6545,
      "courtesy": 6546,
      "823529411764706": 6547,
      "EVERY": 6548
    },
    "merges": [
      [
        "i",
        "n"
      ],
      [
        "e",
        "r"
      ],
      [
        "t",
        "h"
      ],
      [
        "o",
        "n"
      ],
      [
        "r",
        "e"
      ],
      [
        "a",
        "t"
      ],
      [
        "a",
        "n"
      ],
      [
        "e",
        "n"
      ],
      [
        "o",
        "u"
      ],
      [
        "a",
        "l"
      ],
      [
        "e",
        "s"
      ],
      [
        "o",
        "r"
      ],
      [
        "*",
        "*"
      ],
      [
        "i",
        "t"
      ],
      [
        "in",
        "g"
      ],
      [
        "l",
        "e"
      ],
      [
        "s",
        "t"
      ],
      [
        "a",
        "r"
      ],
      [
        "th",
        "e"
      ],
      [
        "i",
        "s"
      ],
      [
        "an",
        "d"
      ],
      [
        "t",
        "i"
      ],
      [
        "t",
        "o"
      ],
      [
        "v",
        "e"
      ],
      [
        "i",
        "c"
      ],
      [
        "r",
        "o"
      ],
      [
        "a",
        "s"
      ],
      [
        "at",
        "i"
      ],
      [
        "a",
        "c"
      ],
      [
        "o",
        "f"
      ],
      [
        "m",
        "e"
      ],
      [
        "o",
        "w"
      ],
      [
        "e",
        "c"
      ],
      [
        "l",
        "i"
      ],
      [
        "en",
        "t"
      ],
      [
        "y",
        "ou"
      ],
      [
        "e",
        "d"
      ],
      [
        "l",
        "d"
      ],
      [
        "e",
        "x"
      ],
      [
        "e",
        "l"
      ],
      [
        "r",
        "a"
      ],
      [
        "u",
        "m"
      ],
      [
        "w",
        "i"
      ],
      [
        "c",
        "o"
      ],
      [
        "s",
        "i"
      ],
      [
        "wi",
        "th"
      ],
      [
        "u",
        "l"
      ],
      [
        "T",
        "h"
      ],
      [
        "u",
        "s"
      ],
      [
        "l",
        "y"
      ],
      [
        "c",
        "re"
      ],
      [
        "f",
        "or"
      ],
      [
        "g",
        "h"
      ],
      [
        "ti",
        "on"
      ],
      [
        "a",
        "b"
      ],
      [
        "ou",
        "ld"
      ],
      [
        "s",
        "h"
      ],
      [
        "c",
        "h"
      ],
      [
        "o",
        "d"
      ],
      [
        "i",
        "d"
      ],
      [
        "w",
        "h"
      ],
      [
        "e",
        "t"
      ],
      [
        "m",
        "p"
      ],
      [
        "c",
        "e"
      ],
      [
        "at",
        "e"
      ],
      [
        "i",
        "r"
      ],
      [
        "q",
        "u"
      ],
      [
        "ati",
        "ve"
      ],
      [
        "ati",
        "on"
      ],
      [
        "ex",
        "t"
      ],
      [
        "k",
        "e"
      ],
      [
        "a",
        "d"
      ],
      [
        "u",
        "t"
      ],
      [
        "s",
        "o"
      ],
      [
        "p",
        "l"
      ],
      [
        "c",
        "on"
      ],
      [
        "v",
        "er"
      ],
      [
        "m",
        "ent"
      ],
      [
        ":",
        "**"
      ],
      [
        "u",
        "n"
      ],
      [
        "s",
        "p"
      ],
      [
        "gh",
        "t"
      ],
      [
        "d",
        "i"
      ],
      [
        "a",
        "y"
      ],
      [
        "g",
        "en"
      ],
      [
        "p",
        "er"
      ],
      [
        "ou",
        "t"
      ],
      [
        "t",
        "ext"
      ],
      [
        "cre",
        "ative"
      ],
      [
        "a",
        "re"
      ],
      [
        "u",
        "r"
      ],
      [
        "a",
        "in"
      ],
      [
        "t",
        "er"
      ],
      [
        "p",
        "ro"
      ],
      [
        "a",
        "g"
      ],
      [
        "i",
        "l"
      ],
      [
        "t",
        "r"
      ],
      [
        "m",
        "o"
      ],
      [
        "n",
        "o"
      ],
      [
        "e",
        "le"
      ],
      [
        "an",
        "t"
      ],
      [
        "b",
        "e"
      ],
      [
        "f",
        "l"
      ],
      [
        "s",
        "e"
      ],
      [
        "on",
        "e"
      ],
      [
        "it",
        "e"
      ],
      [
        "you",
        "r"
      ],
      [
        "W",
        "h"
      ],
      [
        "g",
        "o"
      ],
      [
        "it",
        "y"
      ],
      [
        "th",
        "er"
      ],
      [
        "l",
        "o"
      ],
      [
        "Th",
        "e"
      ],
      [
        "n",
        "e"
      ],
      [
        "a",
        "p"
      ],
      [
        "k",
        "s"
      ],
      [
        "m",
        "y"
      ],
      [
        "li",
        "ke"
      ],
      [
        "s",
        "er"
      ],
      [
        "r",
        "i"
      ],
      [
        "f",
        "e"
      ],
      [
        "ab",
        "out"
      ],
      [
        "m",
        "m"
      ],
      [
        "S",
        "h"
      ],
      [
        "th",
        "at"
      ],
      [
        "al",
        "l"
      ],
      [
        "on",
        "d"
      ],
      [
        "U",
        "ser"
      ],
      [
        "e",
        "p"
      ],
      [
        "f",
        "ul"
      ],
      [
        "l",
        "l"
      ],
      [
        "Sh",
        "ould"
      ],
      [
        "w",
        "e"
      ],
      [
        ")",
        "**"
      ],
      [
        "ro",
        "m"
      ],
      [
        "ele",
        "ment"
      ],
      [
        "u",
        "re"
      ],
      [
        "ou",
        "r"
      ],
      [
        "ic",
        "al"
      ],
      [
        "er",
        "e"
      ],
      [
        "sh",
        "ould"
      ],
      [
        "t",
        "s"
      ],
      [
        "g",
        "ra"
      ],
      [
        "i",
        "um"
      ],
      [
        "p",
        "i"
      ],
      [
        "go",
        "od"
      ],
      [
        "w",
        "or"
      ],
      [
        "u",
        "st"
      ],
      [
        "es",
        "s"
      ],
      [
        "I",
        "t"
      ],
      [
        "o",
        "p"
      ],
      [
        "ec",
        "e"
      ],
      [
        "k",
        "ing"
      ],
      [
        "n",
        "d"
      ],
      [
        "fl",
        "ow"
      ],
      [
        "r",
        "ite"
      ],
      [
        "d",
        "o"
      ],
      [
        "f",
        "o"
      ],
      [
        "a",
        "m"
      ],
      [
        "gen",
        "er"
      ],
      [
        "g",
        "e"
      ],
      [
        "i",
        "f"
      ],
      [
        "o",
        "l"
      ],
      [
        "f",
        "rom"
      ],
      [
        "co",
        "mp"
      ],
      [
        "pi",
        "ece"
      ],
      [
        "W",
        "rite"
      ],
      [
        "in",
        "e"
      ],
      [
        "en",
        "ce"
      ],
      [
        "u",
        "p"
      ],
      [
        "e",
        "m"
      ],
      [
        "mm",
        "ar"
      ],
      [
        "gra",
        "mmar"
      ],
      [
        "gener",
        "ate"
      ],
      [
        "i",
        "on"
      ],
      [
        "ar",
        "t"
      ],
      [
        "re",
        "s"
      ],
      [
        "m",
        "a"
      ],
      [
        "p",
        "o"
      ],
      [
        "in",
        "d"
      ],
      [
        "no",
        "t"
      ],
      [
        "o",
        "m"
      ],
      [
        "u",
        "c"
      ],
      [
        "tion",
        "s"
      ],
      [
        "d",
        "e"
      ],
      [
        "h",
        "e"
      ],
      [
        "er",
        "s"
      ],
      [
        "n",
        "ow"
      ],
      [
        "al",
        "s"
      ],
      [
        "ac",
        "t"
      ],
      [
        "ex",
        "pl"
      ],
      [
        "an",
        "s"
      ],
      [
        "es",
        "t"
      ],
      [
        "st",
        "r"
      ],
      [
        "b",
        "ut"
      ],
      [
        "p",
        "h"
      ],
      [
        "b",
        "y"
      ],
      [
        "c",
        "an"
      ],
      [
        "id",
        "e"
      ],
      [
        "ec",
        "t"
      ],
      [
        "t",
        "e"
      ],
      [
        "v",
        "es"
      ],
      [
        "g",
        "i"
      ],
      [
        "ar",
        "d"
      ],
      [
        "c",
        "i"
      ],
      [
        "g",
        "l"
      ],
      [
        "li",
        "ght"
      ],
      [
        "el",
        "l"
      ],
      [
        "f",
        "f"
      ],
      [
        "ou",
        "s"
      ],
      [
        "2",
        "0"
      ],
      [
        "b",
        "le"
      ],
      [
        "ac",
        "k"
      ],
      [
        "element",
        "s"
      ],
      [
        "a",
        "u"
      ],
      [
        "s",
        "u"
      ],
      [
        "th",
        "ing"
      ],
      [
        "i",
        "g"
      ],
      [
        "ac",
        "h"
      ],
      [
        "Wh",
        "at"
      ],
      [
        "it",
        "s"
      ],
      [
        "i",
        "ght"
      ],
      [
        "c",
        "tr"
      ],
      [
        "on",
        "s"
      ],
      [
        "b",
        "u"
      ],
      [
        "wh",
        "at"
      ],
      [
        "qu",
        "es"
      ],
      [
        "ir",
        "st"
      ],
      [
        "w",
        "ant"
      ],
      [
        "th",
        "is"
      ],
      [
        "us",
        "e"
      ],
      [
        "ti",
        "ve"
      ],
      [
        "fe",
        "el"
      ],
      [
        "a",
        "ve"
      ],
      [
        "b",
        "on"
      ],
      [
        "h",
        "el"
      ],
      [
        "ag",
        "e"
      ],
      [
        "i",
        "z"
      ],
      [
        "m",
        "b"
      ],
      [
        "o",
        "ther"
      ],
      [
        "v",
        "i"
      ],
      [
        "so",
        "l"
      ],
      [
        "th",
        "in"
      ],
      [
        "ou",
        "nd"
      ],
      [
        "for",
        "m"
      ],
      [
        "ver",
        "y"
      ],
      [
        "p",
        "e"
      ],
      [
        "w",
        "ay"
      ],
      [
        "as",
        "ks"
      ],
      [
        "Th",
        "at"
      ],
      [
        "c",
        "al"
      ],
      [
        "ab",
        "le"
      ],
      [
        "a",
        "st"
      ],
      [
        "as",
        "s"
      ],
      [
        "so",
        "me"
      ],
      [
        "hel",
        "p"
      ],
      [
        "I",
        "n"
      ],
      [
        "l",
        "or"
      ],
      [
        "at",
        "er"
      ],
      [
        "ar",
        "n"
      ],
      [
        "t",
        "en"
      ],
      [
        "ti",
        "me"
      ],
      [
        "ne",
        "ed"
      ],
      [
        "expl",
        "ain"
      ],
      [
        ")",
        ","
      ],
      [
        "S",
        "o"
      ],
      [
        "i",
        "es"
      ],
      [
        "j",
        "ust"
      ],
      [
        "e",
        "v"
      ],
      [
        "s",
        "a"
      ],
      [
        "ra",
        "in"
      ],
      [
        "ele",
        "ctr"
      ],
      [
        "in",
        "to"
      ],
      [
        "me",
        "t"
      ],
      [
        "con",
        "t"
      ],
      [
        "f",
        "irst"
      ],
      [
        "i",
        "m"
      ],
      [
        "o",
        "t"
      ],
      [
        "re",
        "e"
      ],
      [
        "d",
        "er"
      ],
      [
        "p",
        "re"
      ],
      [
        "le",
        "d"
      ],
      [
        "ar",
        "bon"
      ],
      [
        "c",
        "l"
      ],
      [
        "s",
        "m"
      ],
      [
        "t",
        "le"
      ],
      [
        "an",
        "ce"
      ],
      [
        "is",
        "h"
      ],
      [
        "ro",
        "gen"
      ],
      [
        "t",
        "w"
      ],
      [
        "al",
        "ly"
      ],
      [
        "sp",
        "ec"
      ],
      [
        "the",
        "y"
      ],
      [
        "o",
        "s"
      ],
      [
        "r",
        "ou"
      ],
      [
        "ic",
        "h"
      ],
      [
        "ow",
        "n"
      ],
      [
        "ac",
        "e"
      ],
      [
        "S",
        "t"
      ],
      [
        "g",
        "et"
      ],
      [
        "A",
        "I"
      ],
      [
        "Y",
        "ou"
      ],
      [
        "t",
        "ing"
      ],
      [
        "the",
        "m"
      ],
      [
        "si",
        "mp"
      ],
      [
        "l",
        "it"
      ],
      [
        "in",
        "ter"
      ],
      [
        "ation",
        "s"
      ],
      [
        "per",
        "s"
      ],
      [
        "e",
        "qu"
      ],
      [
        "m",
        "in"
      ],
      [
        "res",
        "s"
      ],
      [
        "en",
        "d"
      ],
      [
        "tw",
        "o"
      ],
      [
        "X",
        "en"
      ],
      [
        "d",
        "is"
      ],
      [
        "i",
        "st"
      ],
      [
        "m",
        "es"
      ],
      [
        "o",
        "x"
      ],
      [
        "ow",
        "er"
      ],
      [
        "b",
        "ec"
      ],
      [
        "d",
        "ec"
      ],
      [
        "i",
        "ld"
      ],
      [
        "w",
        "as"
      ],
      [
        "on",
        "g"
      ],
      [
        "st",
        "e"
      ],
      [
        "the",
        "ir"
      ],
      [
        "ro",
        "w"
      ],
      [
        "mo",
        "re"
      ],
      [
        "Xen",
        "o"
      ],
      [
        "E",
        "x"
      ],
      [
        "g",
        "y"
      ],
      [
        "il",
        "l"
      ],
      [
        "pers",
        "on"
      ],
      [
        "c",
        "r"
      ],
      [
        "h",
        "um"
      ],
      [
        "or",
        "t"
      ],
      [
        "el",
        "f"
      ],
      [
        "want",
        "s"
      ],
      [
        "c",
        "ul"
      ],
      [
        "it",
        "ion"
      ],
      [
        "au",
        "x"
      ],
      [
        "h",
        "y"
      ],
      [
        "fo",
        "re"
      ],
      [
        "gl",
        "aux"
      ],
      [
        "Xeno",
        "glaux"
      ],
      [
        "H",
        "e"
      ],
      [
        "h",
        "o"
      ],
      [
        "i",
        "ve"
      ],
      [
        "k",
        "now"
      ],
      [
        "s",
        "y"
      ],
      [
        "c",
        "le"
      ],
      [
        "g",
        "as"
      ],
      [
        "m",
        "s"
      ],
      [
        "th",
        "en"
      ],
      [
        "re",
        "sp"
      ],
      [
        "or",
        "y"
      ],
      [
        "si",
        "x"
      ],
      [
        "di",
        "ff"
      ],
      [
        "B",
        "ut"
      ],
      [
        "a",
        "me"
      ],
      [
        "d",
        "ay"
      ],
      [
        "h",
        "ave"
      ],
      [
        "v",
        "al"
      ],
      [
        "v",
        "ing"
      ],
      [
        "ar",
        "s"
      ],
      [
        "ans",
        "w"
      ],
      [
        "b",
        "o"
      ],
      [
        "h",
        "ere"
      ],
      [
        "k",
        "es"
      ],
      [
        "th",
        "an"
      ],
      [
        "f",
        "er"
      ],
      [
        "h",
        "ow"
      ],
      [
        "h",
        "ap"
      ],
      [
        "m",
        "ag"
      ],
      [
        "t",
        "ra"
      ],
      [
        "w",
        "ater"
      ],
      [
        "at",
        "ter"
      ],
      [
        "wh",
        "y"
      ],
      [
        "el",
        "y"
      ],
      [
        "si",
        "l"
      ],
      [
        "si",
        "on"
      ],
      [
        "lit",
        "tle"
      ],
      [
        "c",
        "us"
      ],
      [
        "d",
        "es"
      ],
      [
        "i",
        "p"
      ],
      [
        "s",
        "elf"
      ],
      [
        "en",
        "s"
      ],
      [
        "is",
        "e"
      ],
      [
        "pl",
        "ay"
      ],
      [
        "ri",
        "ght"
      ],
      [
        "wor",
        "ld"
      ],
      [
        "k",
        "y"
      ],
      [
        "u",
        "e"
      ],
      [
        "an",
        "g"
      ],
      [
        "an",
        "y"
      ],
      [
        "ing",
        "s"
      ],
      [
        "ques",
        "tion"
      ],
      [
        "2",
        "5"
      ],
      [
        "a",
        "mp"
      ],
      [
        "b",
        "r"
      ],
      [
        "b",
        "rain"
      ],
      [
        "d",
        "uc"
      ],
      [
        "d",
        "rogen"
      ],
      [
        "p",
        "ower"
      ],
      [
        "th",
        "ree"
      ],
      [
        "re",
        "t"
      ],
      [
        "op",
        "le"
      ],
      [
        "c",
        "ur"
      ],
      [
        "od",
        "ium"
      ],
      [
        "mo",
        "st"
      ],
      [
        "mb",
        "er"
      ],
      [
        "diff",
        "er"
      ],
      [
        "A",
        "nd"
      ],
      [
        "l",
        "es"
      ],
      [
        "o",
        "ver"
      ],
      [
        "v",
        "ity"
      ],
      [
        "ac",
        "ti"
      ],
      [
        "li",
        "fe"
      ],
      [
        "ent",
        "s"
      ],
      [
        "wh",
        "en"
      ],
      [
        "a",
        "use"
      ],
      [
        "b",
        "as"
      ],
      [
        "t",
        "y"
      ],
      [
        "le",
        "arn"
      ],
      [
        "W",
        "e"
      ],
      [
        "it",
        "al"
      ],
      [
        "ch",
        "em"
      ],
      [
        "il",
        "ity"
      ],
      [
        "C",
        "l"
      ],
      [
        "e",
        "f"
      ],
      [
        "h",
        "as"
      ],
      [
        "i",
        "mp"
      ],
      [
        "n",
        "ess"
      ],
      [
        "at",
        "ed"
      ],
      [
        "en",
        "c"
      ],
      [
        "bu",
        "ild"
      ],
      [
        "play",
        "ful"
      ],
      [
        ")",
        ":**"
      ],
      [
        ".",
        "."
      ],
      [
        "1",
        "0"
      ],
      [
        "A",
        "l"
      ],
      [
        "in",
        "t"
      ],
      [
        "al",
        "so"
      ],
      [
        "ch",
        "o"
      ],
      [
        "do",
        "es"
      ],
      [
        "b",
        "ack"
      ],
      [
        "c",
        "arbon"
      ],
      [
        "e",
        "et"
      ],
      [
        "m",
        "ind"
      ],
      [
        "y",
        "gen"
      ],
      [
        "ur",
        "n"
      ],
      [
        "pro",
        "t"
      ],
      [
        "ical",
        "ly"
      ],
      [
        "d",
        "own"
      ],
      [
        "e",
        "mo"
      ],
      [
        "e",
        "very"
      ],
      [
        "h",
        "or"
      ],
      [
        "m",
        "od"
      ],
      [
        "o",
        "k"
      ],
      [
        "p",
        "ar"
      ],
      [
        "re",
        "a"
      ],
      [
        "as",
        "si"
      ],
      [
        "ow",
        "l"
      ],
      [
        "ex",
        "p"
      ],
      [
        "di",
        "g"
      ],
      [
        "wor",
        "k"
      ],
      [
        "ste",
        "ad"
      ],
      [
        "b",
        "ond"
      ],
      [
        "ev",
        "en"
      ],
      [
        "N",
        "a"
      ],
      [
        "g",
        "r"
      ],
      [
        "h",
        "ad"
      ],
      [
        "v",
        "id"
      ],
      [
        "y",
        "s"
      ],
      [
        "thin",
        "k"
      ],
      [
        "pe",
        "ople"
      ],
      [
        "simp",
        "le"
      ],
      [
        "C",
        "al"
      ],
      [
        "a",
        "ir"
      ],
      [
        "b",
        "l"
      ],
      [
        "i",
        "le"
      ],
      [
        "is",
        "n"
      ],
      [
        "ir",
        "on"
      ],
      [
        "ad",
        "d"
      ],
      [
        "dig",
        "ital"
      ],
      [
        "E",
        "le"
      ],
      [
        "K",
        "um"
      ],
      [
        "M",
        "ish"
      ],
      [
        "P",
        "un"
      ],
      [
        "g",
        "n"
      ],
      [
        "n",
        "um"
      ],
      [
        "en",
        "ti"
      ],
      [
        "ti",
        "c"
      ],
      [
        "wh",
        "ich"
      ],
      [
        "Wh",
        "y"
      ],
      [
        "ond",
        "er"
      ],
      [
        "if",
        "ic"
      ],
      [
        "ten",
        "tion"
      ],
      [
        "Kum",
        "ar"
      ],
      [
        "Mish",
        "ra"
      ],
      [
        "Pun",
        "eet"
      ],
      [
        "1",
        "2"
      ],
      [
        "2",
        "1"
      ],
      [
        "g",
        "re"
      ],
      [
        "o",
        "se"
      ],
      [
        "p",
        "r"
      ],
      [
        "in",
        "y"
      ],
      [
        "at",
        "om"
      ],
      [
        "ic",
        "s"
      ],
      [
        "as",
        "k"
      ],
      [
        "as",
        "king"
      ],
      [
        "ac",
        "tive"
      ],
      [
        "ul",
        "f"
      ],
      [
        "wh",
        "ere"
      ],
      [
        "Wh",
        "en"
      ],
      [
        "lo",
        "g"
      ],
      [
        "ma",
        "ke"
      ],
      [
        "su",
        "per"
      ],
      [
        "a",
        "v"
      ],
      [
        "i",
        "th"
      ],
      [
        "t",
        "ain"
      ],
      [
        "z",
        "z"
      ],
      [
        "at",
        "or"
      ],
      [
        "us",
        "er"
      ],
      [
        "wh",
        "o"
      ],
      [
        "are",
        "d"
      ],
      [
        "C",
        "o"
      ],
      [
        "L",
        "e"
      ],
      [
        "c",
        "t"
      ],
      [
        "f",
        "act"
      ],
      [
        "m",
        "ain"
      ],
      [
        "at",
        "ing"
      ],
      [
        "at",
        "ure"
      ],
      [
        "ec",
        "h"
      ],
      [
        "ke",
        "ep"
      ],
      [
        ")",
        "."
      ],
      [
        "C",
        "h"
      ],
      [
        "e",
        "ach"
      ],
      [
        "f",
        "un"
      ],
      [
        "r",
        "on"
      ],
      [
        "s",
        "ci"
      ],
      [
        "w",
        "ard"
      ],
      [
        "w",
        "onder"
      ],
      [
        "le",
        "ep"
      ],
      [
        "ic",
        "e"
      ],
      [
        "li",
        "um"
      ],
      [
        "ce",
        "p"
      ],
      [
        "ther",
        "e"
      ],
      [
        "thin",
        "king"
      ],
      [
        "electr",
        "ons"
      ],
      [
        "Ex",
        "pl"
      ],
      [
        "answ",
        "er"
      ],
      [
        "b",
        "et"
      ],
      [
        "f",
        "in"
      ],
      [
        "l",
        "ow"
      ],
      [
        "in",
        "k"
      ],
      [
        "re",
        "ad"
      ],
      [
        "ar",
        "k"
      ],
      [
        "ti",
        "mes"
      ],
      [
        "to",
        "p"
      ],
      [
        "ro",
        "ll"
      ],
      [
        "qu",
        "ir"
      ],
      [
        "ver",
        "s"
      ],
      [
        "iz",
        "e"
      ],
      [
        "sm",
        "all"
      ],
      [
        "N",
        "e"
      ],
      [
        "b",
        "i"
      ],
      [
        "b",
        "rea"
      ],
      [
        "v",
        "en"
      ],
      [
        "le",
        "t"
      ],
      [
        "st",
        "re"
      ],
      [
        "ic",
        "k"
      ],
      [
        "ac",
        "tion"
      ],
      [
        "se",
        "e"
      ],
      [
        "The",
        "y"
      ],
      [
        "ma",
        "kes"
      ],
      [
        "20",
        "25"
      ],
      [
        "met",
        "als"
      ],
      [
        "equ",
        "als"
      ],
      [
        "differ",
        "ent"
      ],
      [
        "h",
        "u"
      ],
      [
        "p",
        "le"
      ],
      [
        "s",
        "c"
      ],
      [
        "in",
        "stead"
      ],
      [
        "re",
        "d"
      ],
      [
        "re",
        "al"
      ],
      [
        "at",
        "es"
      ],
      [
        "es",
        "e"
      ],
      [
        "Th",
        "is"
      ],
      [
        "ment",
        "s"
      ],
      [
        "un",
        "der"
      ],
      [
        "fo",
        "cus"
      ],
      [
        "po",
        "s"
      ],
      [
        "ques",
        "tions"
      ],
      [
        "rou",
        "gh"
      ],
      [
        "quir",
        "ky"
      ],
      [
        "d",
        "on"
      ],
      [
        "f",
        "our"
      ],
      [
        "i",
        "gh"
      ],
      [
        "p",
        "s"
      ],
      [
        "s",
        "qu"
      ],
      [
        "it",
        "ch"
      ],
      [
        "co",
        "lor"
      ],
      [
        "pl",
        "us"
      ],
      [
        "un",
        "i"
      ],
      [
        "pro",
        "ble"
      ],
      [
        "other",
        "s"
      ],
      [
        "ound",
        "s"
      ],
      [
        "person",
        "a"
      ],
      [
        "Expl",
        "ain"
      ],
      [
        "B",
        "ret"
      ],
      [
        "C",
        "arbon"
      ],
      [
        "S",
        "odium"
      ],
      [
        "c",
        "u"
      ],
      [
        "g",
        "u"
      ],
      [
        "h",
        "ard"
      ],
      [
        "m",
        "or"
      ],
      [
        "n",
        "er"
      ],
      [
        "s",
        "ec"
      ],
      [
        "t",
        "ech"
      ],
      [
        "w",
        "ould"
      ],
      [
        "wi",
        "ll"
      ],
      [
        "ul",
        "ti"
      ],
      [
        "ab",
        "ility"
      ],
      [
        "ch",
        "lor"
      ],
      [
        "str",
        "uc"
      ],
      [
        "So",
        "me"
      ],
      [
        "electr",
        "on"
      ],
      [
        "hap",
        "p"
      ],
      [
        "Bret",
        "t"
      ],
      [
        "M",
        "o"
      ],
      [
        "R",
        "e"
      ],
      [
        "a",
        "ke"
      ],
      [
        "c",
        "ium"
      ],
      [
        "i",
        "e"
      ],
      [
        "i",
        "al"
      ],
      [
        "l",
        "ing"
      ],
      [
        "o",
        "b"
      ],
      [
        "s",
        "k"
      ],
      [
        "s",
        "leep"
      ],
      [
        "th",
        "ou"
      ],
      [
        "ou",
        "n"
      ],
      [
        "or",
        "s"
      ],
      [
        "co",
        "mm"
      ],
      [
        "ul",
        "t"
      ],
      [
        "sh",
        "ow"
      ],
      [
        "il",
        "li"
      ],
      [
        "one",
        "y"
      ],
      [
        "way",
        "s"
      ],
      [
        "num",
        "b"
      ],
      [
        "ulf",
        "ur"
      ],
      [
        "0",
        "0"
      ],
      [
        "C",
        "on"
      ],
      [
        "G",
        "o"
      ],
      [
        "N",
        "o"
      ],
      [
        "c",
        "or"
      ],
      [
        "n",
        "g"
      ],
      [
        "t",
        "re"
      ],
      [
        "t",
        "ure"
      ],
      [
        "v",
        "ide"
      ],
      [
        "er",
        "n"
      ],
      [
        "en",
        "er"
      ],
      [
        "it",
        "ing"
      ],
      [
        "st",
        "ory"
      ],
      [
        "ar",
        "y"
      ],
      [
        "con",
        "c"
      ],
      [
        "con",
        "n"
      ],
      [
        "pro",
        "duc"
      ],
      [
        "gi",
        "ves"
      ],
      [
        "spec",
        "ific"
      ],
      [
        "hy",
        "drogen"
      ],
      [
        "b",
        "al"
      ],
      [
        "c",
        "ess"
      ],
      [
        "f",
        "ic"
      ],
      [
        "n",
        "es"
      ],
      [
        "r",
        "an"
      ],
      [
        "t",
        "iny"
      ],
      [
        "th",
        "rough"
      ],
      [
        "st",
        "em"
      ],
      [
        "li",
        "st"
      ],
      [
        "sh",
        "ort"
      ],
      [
        "con",
        "f"
      ],
      [
        "sp",
        "hor"
      ],
      [
        "per",
        "i"
      ],
      [
        "ne",
        "w"
      ],
      [
        "ion",
        "s"
      ],
      [
        "ph",
        "o"
      ],
      [
        "gi",
        "ve"
      ],
      [
        "su",
        "b"
      ],
      [
        "some",
        "thing"
      ],
      [
        "led",
        "ge"
      ],
      [
        "ener",
        "gy"
      ],
      [
        "nes",
        "ium"
      ],
      [
        "1",
        "4"
      ],
      [
        "c",
        "tion"
      ],
      [
        "n",
        "ight"
      ],
      [
        "an",
        "c"
      ],
      [
        "le",
        "x"
      ],
      [
        "st",
        "ep"
      ],
      [
        "ti",
        "es"
      ],
      [
        "to",
        "o"
      ],
      [
        "ic",
        "on"
      ],
      [
        "with",
        "out"
      ],
      [
        "pro",
        "per"
      ],
      [
        "ant",
        "s"
      ],
      [
        "fl",
        "o"
      ],
      [
        "met",
        "al"
      ],
      [
        "ox",
        "ygen"
      ],
      [
        "cul",
        "ate"
      ],
      [
        "emo",
        "tion"
      ],
      [
        "assi",
        "um"
      ],
      [
        "log",
        "ical"
      ],
      [
        ".",
        "\""
      ],
      [
        "A",
        "r"
      ],
      [
        "F",
        "e"
      ],
      [
        "a",
        "th"
      ],
      [
        "c",
        "k"
      ],
      [
        "d",
        "en"
      ],
      [
        "n",
        "s"
      ],
      [
        "p",
        "art"
      ],
      [
        "r",
        "u"
      ],
      [
        "r",
        "y"
      ],
      [
        "s",
        "ur"
      ],
      [
        "at",
        "ch"
      ],
      [
        "al",
        "o"
      ],
      [
        "ro",
        "l"
      ],
      [
        "si",
        "st"
      ],
      [
        "Th",
        "ere"
      ],
      [
        "sh",
        "ar"
      ],
      [
        "id",
        "ence"
      ],
      [
        "qu",
        "i"
      ],
      [
        "fl",
        "u"
      ],
      [
        "feel",
        "s"
      ],
      [
        "sol",
        "u"
      ],
      [
        "St",
        "art"
      ],
      [
        "hum",
        "an"
      ],
      [
        "sphor",
        "us"
      ],
      [
        "A",
        "d"
      ],
      [
        "M",
        "art"
      ],
      [
        "P",
        "ro"
      ],
      [
        "b",
        "it"
      ],
      [
        "c",
        "ap"
      ],
      [
        "g",
        "ative"
      ],
      [
        "i",
        "str"
      ],
      [
        "m",
        "an"
      ],
      [
        "p",
        "ass"
      ],
      [
        "p",
        "atter"
      ],
      [
        "in",
        "es"
      ],
      [
        "th",
        "ose"
      ],
      [
        "st",
        "and"
      ],
      [
        "ve",
        "d"
      ],
      [
        "as",
        "h"
      ],
      [
        "ac",
        "tions"
      ],
      [
        "ec",
        "ts"
      ],
      [
        "di",
        "st"
      ],
      [
        "our",
        "s"
      ],
      [
        "wor",
        "ks"
      ],
      [
        "form",
        "ation"
      ],
      [
        "cont",
        "rol"
      ],
      [
        "inter",
        "est"
      ],
      [
        "bec",
        "om"
      ],
      [
        "sy",
        "stem"
      ],
      [
        "exp",
        "ress"
      ],
      [
        "Mart",
        "t"
      ],
      [
        "istr",
        "y"
      ],
      [
        "!",
        ")"
      ],
      [
        "C",
        "u"
      ],
      [
        "F",
        "or"
      ],
      [
        "e",
        "mp"
      ],
      [
        "f",
        "i"
      ],
      [
        "o",
        "king"
      ],
      [
        "t",
        "al"
      ],
      [
        "in",
        "s"
      ],
      [
        "of",
        "fer"
      ],
      [
        "me",
        "mber"
      ],
      [
        "ex",
        "amp"
      ],
      [
        "si",
        "gn"
      ],
      [
        "wh",
        "ile"
      ],
      [
        "con",
        "cep"
      ],
      [
        "di",
        "vid"
      ],
      [
        "be",
        "fore"
      ],
      [
        "ne",
        "gative"
      ],
      [
        "ge",
        "ther"
      ],
      [
        "ff",
        "ic"
      ],
      [
        "sa",
        "id"
      ],
      [
        "chem",
        "istry"
      ],
      [
        "d",
        "s"
      ],
      [
        "f",
        "ive"
      ],
      [
        "g",
        "g"
      ],
      [
        "g",
        "ent"
      ],
      [
        "l",
        "ess"
      ],
      [
        "m",
        "is"
      ],
      [
        "m",
        "oney"
      ],
      [
        "n",
        "ext"
      ],
      [
        "s",
        "um"
      ],
      [
        "er",
        "o"
      ],
      [
        "to",
        "gether"
      ],
      [
        "um",
        "in"
      ],
      [
        "ut",
        "ter"
      ],
      [
        "thing",
        "s"
      ],
      [
        "resp",
        "ond"
      ],
      [
        "learn",
        "ing"
      ],
      [
        "pr",
        "acti"
      ],
      [
        "sci",
        "ence"
      ],
      [
        "S",
        "i"
      ],
      [
        "g",
        "an"
      ],
      [
        "g",
        "row"
      ],
      [
        "m",
        "on"
      ],
      [
        "m",
        "en"
      ],
      [
        "m",
        "ay"
      ],
      [
        "z",
        "e"
      ],
      [
        "**",
        "!"
      ],
      [
        "it",
        "ies"
      ],
      [
        "it",
        "rogen"
      ],
      [
        "ve",
        "l"
      ],
      [
        "as",
        "e"
      ],
      [
        "of",
        "f"
      ],
      [
        "ra",
        "di"
      ],
      [
        "co",
        "m"
      ],
      [
        "sh",
        "ip"
      ],
      [
        "be",
        "ing"
      ],
      [
        "lo",
        "ve"
      ],
      [
        "ol",
        "s"
      ],
      [
        "bec",
        "ause"
      ],
      [
        "H",
        "ow"
      ],
      [
        "S",
        "il"
      ],
      [
        "a",
        "f"
      ],
      [
        "c",
        "ra"
      ],
      [
        "h",
        "ours"
      ],
      [
        "m",
        "ic"
      ],
      [
        "r",
        "al"
      ],
      [
        "v",
        "is"
      ],
      [
        "w",
        "ell"
      ],
      [
        "w",
        "itch"
      ],
      [
        "re",
        "l"
      ],
      [
        "en",
        "g"
      ],
      [
        "or",
        "ig"
      ],
      [
        "ar",
        "th"
      ],
      [
        "ac",
        "c"
      ],
      [
        "ac",
        "ts"
      ],
      [
        "ch",
        "ar"
      ],
      [
        "qu",
        "id"
      ],
      [
        "ag",
        "ain"
      ],
      [
        "tr",
        "y"
      ],
      [
        "ll",
        "ow"
      ],
      [
        "fo",
        "od"
      ],
      [
        "ph",
        "ys"
      ],
      [
        "..",
        "."
      ],
      [
        "H",
        "y"
      ],
      [
        "M",
        "g"
      ],
      [
        "M",
        "ag"
      ],
      [
        "a",
        "il"
      ],
      [
        "f",
        "t"
      ],
      [
        "f",
        "ect"
      ],
      [
        "f",
        "ast"
      ],
      [
        "i",
        "me"
      ],
      [
        "p",
        "ly"
      ],
      [
        "w",
        "r"
      ],
      [
        "y",
        "e"
      ],
      [
        "re",
        "member"
      ],
      [
        "an",
        "ge"
      ],
      [
        "st",
        "er"
      ],
      [
        "us",
        "ed"
      ],
      [
        "cre",
        "ation"
      ],
      [
        "ur",
        "al"
      ],
      [
        "ci",
        "al"
      ],
      [
        "ig",
        "n"
      ],
      [
        "min",
        "ut"
      ],
      [
        "super",
        "power"
      ],
      [
        "squ",
        "ared"
      ],
      [
        "Ad",
        "d"
      ],
      [
        "patter",
        "ns"
      ],
      [
        ")",
        ":"
      ],
      [
        "J",
        "ust"
      ],
      [
        "L",
        "i"
      ],
      [
        "h",
        "a"
      ],
      [
        "p",
        "ri"
      ],
      [
        "t",
        "one"
      ],
      [
        "w",
        "ere"
      ],
      [
        "ar",
        "m"
      ],
      [
        "us",
        "ing"
      ],
      [
        "ap",
        "pro"
      ],
      [
        "ack",
        "now"
      ],
      [
        "vi",
        "ous"
      ],
      [
        "cle",
        "ar"
      ],
      [
        "umin",
        "um"
      ],
      [
        "orig",
        "in"
      ],
      [
        "Hy",
        "drogen"
      ],
      [
        "C",
        "a"
      ],
      [
        "a",
        "ther"
      ],
      [
        "a",
        "ves"
      ],
      [
        "c",
        "ent"
      ],
      [
        "c",
        "ks"
      ],
      [
        "d",
        "ri"
      ],
      [
        "k",
        "ind"
      ],
      [
        "o",
        "logical"
      ],
      [
        "t",
        "ell"
      ],
      [
        "t",
        "ake"
      ],
      [
        "u",
        "ally"
      ],
      [
        "y",
        "ond"
      ],
      [
        "th",
        "ese"
      ],
      [
        "it",
        "ive"
      ],
      [
        "st",
        "ant"
      ],
      [
        "is",
        "m"
      ],
      [
        "co",
        "mb"
      ],
      [
        "cre",
        "ate"
      ],
      [
        "ad",
        "e"
      ],
      [
        "di",
        "str"
      ],
      [
        "tr",
        "ans"
      ],
      [
        "no",
        "ble"
      ],
      [
        "Wh",
        "ich"
      ],
      [
        "ri",
        "end"
      ],
      [
        "ma",
        "th"
      ],
      [
        "de",
        "ep"
      ],
      [
        "iz",
        "ed"
      ],
      [
        "cr",
        "it"
      ],
      [
        "gas",
        "es"
      ],
      [
        "answ",
        "ers"
      ],
      [
        "bo",
        "th"
      ],
      [
        "Cal",
        "culate"
      ],
      [
        "wonder",
        "ful"
      ],
      [
        "proble",
        "m"
      ],
      [
        "sk",
        "ill"
      ],
      [
        "thou",
        "ght"
      ],
      [
        "proper",
        "ties"
      ],
      [
        "becom",
        "es"
      ],
      [
        "D",
        "i"
      ],
      [
        "F",
        "o"
      ],
      [
        "S",
        "u"
      ],
      [
        "b",
        "ed"
      ],
      [
        "d",
        "at"
      ],
      [
        "f",
        "ace"
      ],
      [
        "l",
        "ong"
      ],
      [
        "m",
        "ar"
      ],
      [
        "s",
        "me"
      ],
      [
        "t",
        "urn"
      ],
      [
        "v",
        "ol"
      ],
      [
        "in",
        "ce"
      ],
      [
        "in",
        "formation"
      ],
      [
        "at",
        "tention"
      ],
      [
        "al",
        "ity"
      ],
      [
        "al",
        "ways"
      ],
      [
        "as",
        "es"
      ],
      [
        "li",
        "quid"
      ],
      [
        "ra",
        "re"
      ],
      [
        "co",
        "p"
      ],
      [
        "us",
        "es"
      ],
      [
        "for",
        "ce"
      ],
      [
        "et",
        "y"
      ],
      [
        "ment",
        "al"
      ],
      [
        "un",
        "d"
      ],
      [
        "pro",
        "cess"
      ],
      [
        "ess",
        "enti"
      ],
      [
        "if",
        "y"
      ],
      [
        "comp",
        "ounds"
      ],
      [
        "po",
        "int"
      ],
      [
        "feel",
        "ing"
      ],
      [
        "sa",
        "me"
      ],
      [
        "im",
        "ag"
      ],
      [
        "pre",
        "vious"
      ],
      [
        "mind",
        "s"
      ],
      [
        "mod",
        "el"
      ],
      [
        "Le",
        "arn"
      ],
      [
        "roll",
        "ing"
      ],
      [
        "conn",
        "ec"
      ],
      [
        "examp",
        "les"
      ],
      [
        "men",
        "tion"
      ],
      [
        "may",
        "be"
      ],
      [
        "(",
        "#"
      ],
      [
        "D",
        "N"
      ],
      [
        "L",
        "et"
      ],
      [
        "O",
        "r"
      ],
      [
        "P",
        "ot"
      ],
      [
        "S",
        "O"
      ],
      [
        "b",
        "od"
      ],
      [
        "d",
        "et"
      ],
      [
        "e",
        "ight"
      ],
      [
        "f",
        "ra"
      ],
      [
        "f",
        "riend"
      ],
      [
        "h",
        "er"
      ],
      [
        "h",
        "igh"
      ],
      [
        "i",
        "ous"
      ],
      [
        "n",
        "al"
      ],
      [
        "o",
        "re"
      ],
      [
        "p",
        "u"
      ],
      [
        "s",
        "al"
      ],
      [
        "s",
        "or"
      ],
      [
        "s",
        "odium"
      ],
      [
        "t",
        "able"
      ],
      [
        "st",
        "s"
      ],
      [
        "st",
        "ar"
      ],
      [
        "ti",
        "vity"
      ],
      [
        "co",
        "mes"
      ],
      [
        "sh",
        "are"
      ],
      [
        "ch",
        "ain"
      ],
      [
        "ter",
        "m"
      ],
      [
        "mo",
        "le"
      ],
      [
        "ne",
        "ut"
      ],
      [
        "ep",
        "end"
      ],
      [
        "we",
        "en"
      ],
      [
        "expl",
        "an"
      ],
      [
        "ide",
        "as"
      ],
      [
        "gi",
        "es"
      ],
      [
        "bu",
        "zz"
      ],
      [
        "ev",
        "idence"
      ],
      [
        "cl",
        "u"
      ],
      [
        "hap",
        "s"
      ],
      [
        "mod",
        "ern"
      ],
      [
        "atom",
        "s"
      ],
      [
        "av",
        "or"
      ],
      [
        "Ch",
        "lor"
      ],
      [
        "bet",
        "ween"
      ],
      [
        "read",
        "y"
      ],
      [
        "Mag",
        "nesium"
      ],
      [
        "1",
        "1"
      ],
      [
        "F",
        "ran"
      ],
      [
        "O",
        "h"
      ],
      [
        "O",
        "u"
      ],
      [
        "O",
        "x"
      ],
      [
        "T",
        "ime"
      ],
      [
        "Y",
        "our"
      ],
      [
        "b",
        "lo"
      ],
      [
        "b",
        "urn"
      ],
      [
        "c",
        "ar"
      ],
      [
        "c",
        "ity"
      ],
      [
        "l",
        "and"
      ],
      [
        "l",
        "ast"
      ],
      [
        "m",
        "ass"
      ],
      [
        "m",
        "atter"
      ],
      [
        "n",
        "on"
      ],
      [
        "n",
        "at"
      ],
      [
        "n",
        "ame"
      ],
      [
        "s",
        "ay"
      ],
      [
        "s",
        "ulfur"
      ],
      [
        "s",
        "witch"
      ],
      [
        "w",
        "er"
      ],
      [
        "w",
        "arm"
      ],
      [
        "on",
        "ly"
      ],
      [
        "an",
        "ing"
      ],
      [
        "or",
        "m"
      ],
      [
        "st",
        "art"
      ],
      [
        "ti",
        "fic"
      ],
      [
        "as",
        "ure"
      ],
      [
        "ac",
        "es"
      ],
      [
        "me",
        "d"
      ],
      [
        "ex",
        "c"
      ],
      [
        "co",
        "re"
      ],
      [
        "co",
        "me"
      ],
      [
        "co",
        "oking"
      ],
      [
        "Th",
        "en"
      ],
      [
        "us",
        "h"
      ],
      [
        "for",
        "t"
      ],
      [
        "con",
        "vers"
      ],
      [
        "sp",
        "e"
      ],
      [
        "are",
        "n"
      ],
      [
        "be",
        "yond"
      ],
      [
        "lo",
        "gy"
      ],
      [
        "comp",
        "lex"
      ],
      [
        "he",
        "al"
      ],
      [
        "te",
        "mp"
      ],
      [
        "help",
        "s"
      ],
      [
        "cont",
        "in"
      ],
      [
        "os",
        "ition"
      ],
      [
        "ox",
        "ide"
      ],
      [
        "cr",
        "y"
      ],
      [
        "br",
        "illi"
      ],
      [
        "stre",
        "ng"
      ],
      [
        "conc",
        "ise"
      ],
      [
        "pass",
        "age"
      ],
      [
        "DN",
        "A"
      ],
      [
        "Pot",
        "assium"
      ],
      [
        "1",
        "5"
      ],
      [
        "B",
        "ec"
      ],
      [
        "D",
        "ece"
      ],
      [
        "E",
        "arth"
      ],
      [
        "F",
        "l"
      ],
      [
        "F",
        "irst"
      ],
      [
        "I",
        "ron"
      ],
      [
        "M",
        "et"
      ],
      [
        "Q",
        "u"
      ],
      [
        "a",
        "k"
      ],
      [
        "c",
        "ould"
      ],
      [
        "c",
        "ir"
      ],
      [
        "d",
        "ar"
      ],
      [
        "d",
        "ition"
      ],
      [
        "f",
        "y"
      ],
      [
        "f",
        "ind"
      ],
      [
        "f",
        "avor"
      ],
      [
        "g",
        "rou"
      ],
      [
        "i",
        "ly"
      ],
      [
        "j",
        "ect"
      ],
      [
        "m",
        "ulti"
      ],
      [
        "m",
        "ade"
      ],
      [
        "n",
        "ing"
      ],
      [
        "o",
        "me"
      ],
      [
        "p",
        "or"
      ],
      [
        "p",
        "ut"
      ],
      [
        "v",
        "ent"
      ],
      [
        "w",
        "is"
      ],
      [
        "z",
        "ing"
      ],
      [
        "z",
        "ero"
      ],
      [
        "th",
        "s"
      ],
      [
        "an",
        "other"
      ],
      [
        "or",
        "gan"
      ],
      [
        "me",
        "ans"
      ],
      [
        "ex",
        "peri"
      ],
      [
        "ir",
        "d"
      ],
      [
        "tr",
        "act"
      ],
      [
        "mo",
        "ve"
      ],
      [
        "be",
        "en"
      ],
      [
        "go",
        "ld"
      ],
      [
        "am",
        "ond"
      ],
      [
        "comp",
        "osition"
      ],
      [
        "ma",
        "king"
      ],
      [
        "he",
        "lium"
      ],
      [
        "str",
        "ong"
      ],
      [
        "au",
        "ti"
      ],
      [
        "feel",
        "ings"
      ],
      [
        "some",
        "times"
      ],
      [
        "dec",
        "is"
      ],
      [
        "tra",
        "ffic"
      ],
      [
        "imp",
        "ort"
      ],
      [
        "every",
        "thing"
      ],
      [
        "bond",
        "s"
      ],
      [
        "Cal",
        "cium"
      ],
      [
        "Ele",
        "ctr"
      ],
      [
        "21",
        "st"
      ],
      [
        "divid",
        "ed"
      ],
      [
        "Sil",
        "icon"
      ],
      [
        "dat",
        "a"
      ],
      [
        "bod",
        "y"
      ],
      [
        "explan",
        "ation"
      ],
      [
        "Ou",
        "u"
      ],
      [
        "Ox",
        "ygen"
      ],
      [
        "Bec",
        "ause"
      ],
      [
        "Dece",
        "mber"
      ],
      [
        "dar",
        "ling"
      ],
      [
        "B",
        "e"
      ],
      [
        "C",
        "re"
      ],
      [
        "H",
        "ere"
      ],
      [
        "O",
        "ur"
      ],
      [
        "P",
        "er"
      ],
      [
        "a",
        "way"
      ],
      [
        "b",
        "or"
      ],
      [
        "b",
        "ig"
      ],
      [
        "c",
        "are"
      ],
      [
        "c",
        "ard"
      ],
      [
        "d",
        "ens"
      ],
      [
        "e",
        "ver"
      ],
      [
        "g",
        "ress"
      ],
      [
        "s",
        "cho"
      ],
      [
        "v",
        "o"
      ],
      [
        "re",
        "active"
      ],
      [
        "ou",
        "gh"
      ],
      [
        "al",
        "f"
      ],
      [
        "it",
        "es"
      ],
      [
        "to",
        "day"
      ],
      [
        "me",
        "mor"
      ],
      [
        "ex",
        "ist"
      ],
      [
        "el",
        "se"
      ],
      [
        "si",
        "ble"
      ],
      [
        "Th",
        "ink"
      ],
      [
        "cre",
        "ator"
      ],
      [
        "ch",
        "ang"
      ],
      [
        "sp",
        "ace"
      ],
      [
        "per",
        "haps"
      ],
      [
        "pro",
        "vide"
      ],
      [
        "pro",
        "gress"
      ],
      [
        "se",
        "a"
      ],
      [
        "your",
        "self"
      ],
      [
        "de",
        "light"
      ],
      [
        "ell",
        "ow"
      ],
      [
        "sol",
        "ve"
      ],
      [
        "help",
        "ful"
      ],
      [
        "He",
        "lium"
      ],
      [
        "val",
        "id"
      ],
      [
        "chem",
        "ical"
      ],
      [
        "bet",
        "ter"
      ],
      [
        "uni",
        "qu"
      ],
      [
        "struc",
        "ture"
      ],
      [
        "happ",
        "y"
      ],
      [
        "Mo",
        "st"
      ],
      [
        "numb",
        "ers"
      ],
      [
        "system",
        "s"
      ],
      [
        "ye",
        "ars"
      ],
      [
        "acknow",
        "ledge"
      ],
      [
        "essenti",
        "al"
      ],
      [
        "Chlor",
        "ine"
      ],
      [
        "tific",
        "ations"
      ],
      [
        "brilli",
        "ant"
      ],
      [
        "dens",
        "ity"
      ],
      [
        "A",
        "s"
      ],
      [
        "D",
        "o"
      ],
      [
        "H",
        "u"
      ],
      [
        "K",
        "e"
      ],
      [
        "P",
        "ho"
      ],
      [
        "c",
        "all"
      ],
      [
        "d",
        "a"
      ],
      [
        "d",
        "ra"
      ],
      [
        "d",
        "id"
      ],
      [
        "g",
        "on"
      ],
      [
        "g",
        "or"
      ],
      [
        "h",
        "alf"
      ],
      [
        "i",
        "v"
      ],
      [
        "k",
        "al"
      ],
      [
        "m",
        "er"
      ],
      [
        "m",
        "us"
      ],
      [
        "m",
        "il"
      ],
      [
        "n",
        "ature"
      ],
      [
        "o",
        "ld"
      ],
      [
        "p",
        "ure"
      ],
      [
        "s",
        "ad"
      ],
      [
        "s",
        "up"
      ],
      [
        "s",
        "low"
      ],
      [
        "t",
        "asks"
      ],
      [
        "u",
        "al"
      ],
      [
        "v",
        "s"
      ],
      [
        "z",
        "y"
      ],
      [
        "in",
        "ation"
      ],
      [
        "re",
        "f"
      ],
      [
        "re",
        "qui"
      ],
      [
        "al",
        "lo"
      ],
      [
        "le",
        "vel"
      ],
      [
        "st",
        "ate"
      ],
      [
        "st",
        "ars"
      ],
      [
        "ar",
        "ity"
      ],
      [
        "ti",
        "l"
      ],
      [
        "ic",
        "ation"
      ],
      [
        "ac",
        "id"
      ],
      [
        "li",
        "m"
      ],
      [
        "ent",
        "ral"
      ],
      [
        "co",
        "ver"
      ],
      [
        "sh",
        "ell"
      ],
      [
        "wh",
        "ite"
      ],
      [
        "so",
        "cial"
      ],
      [
        "sp",
        "ark"
      ],
      [
        "per",
        "spec"
      ],
      [
        "ne",
        "ver"
      ],
      [
        "our",
        "nal"
      ],
      [
        "wor",
        "ds"
      ],
      [
        "am",
        "s"
      ],
      [
        "gl",
        "ow"
      ],
      [
        "vi",
        "e"
      ],
      [
        "im",
        "al"
      ],
      [
        "der",
        "iv"
      ],
      [
        "pre",
        "ci"
      ],
      [
        "equ",
        "ation"
      ],
      [
        "gre",
        "en"
      ],
      [
        "brea",
        "k"
      ],
      [
        "under",
        "stand"
      ],
      [
        "comm",
        "on"
      ],
      [
        "pho",
        "sphorus"
      ],
      [
        "emotion",
        "al"
      ],
      [
        "ru",
        "le"
      ],
      [
        "flu",
        "id"
      ],
      [
        "solu",
        "tion"
      ],
      [
        "com",
        "fort"
      ],
      [
        "minut",
        "es"
      ],
      [
        "pu",
        "zz"
      ],
      [
        "heal",
        "th"
      ],
      [
        "auti",
        "ful"
      ],
      [
        "import",
        "ant"
      ],
      [
        "Hu",
        "hu"
      ],
      [
        "ournal",
        "ing"
      ],
      [
        "1",
        "8"
      ],
      [
        "1",
        "9"
      ],
      [
        "4",
        "0"
      ],
      [
        "?",
        "”"
      ],
      [
        "F",
        "un"
      ],
      [
        "L",
        "o"
      ],
      [
        "L",
        "ith"
      ],
      [
        "M",
        "y"
      ],
      [
        "N",
        "i"
      ],
      [
        "N",
        "itrogen"
      ],
      [
        "S",
        "un"
      ],
      [
        "S",
        "ol"
      ],
      [
        "S",
        "ulfur"
      ],
      [
        "T",
        "r"
      ],
      [
        "W",
        "ould"
      ],
      [
        "a",
        "kes"
      ],
      [
        "b",
        "right"
      ],
      [
        "c",
        "lo"
      ],
      [
        "d",
        "ro"
      ],
      [
        "e",
        "as"
      ],
      [
        "f",
        "acts"
      ],
      [
        "g",
        "ing"
      ],
      [
        "j",
        "o"
      ],
      [
        "m",
        "ight"
      ],
      [
        "m",
        "any"
      ],
      [
        "n",
        "am"
      ],
      [
        "n",
        "uc"
      ],
      [
        "o",
        "od"
      ],
      [
        "p",
        "res"
      ],
      [
        "s",
        "es"
      ],
      [
        "s",
        "ing"
      ],
      [
        "s",
        "un"
      ],
      [
        "s",
        "we"
      ],
      [
        "u",
        "d"
      ],
      [
        "v",
        "ation"
      ],
      [
        "v",
        "iron"
      ],
      [
        "y",
        "ellow"
      ],
      [
        "in",
        "tention"
      ],
      [
        "on",
        "es"
      ],
      [
        "on",
        "ce"
      ],
      [
        "re",
        "main"
      ],
      [
        "at",
        "s"
      ],
      [
        "en",
        "viron"
      ],
      [
        "or",
        "ine"
      ],
      [
        "or",
        "der"
      ],
      [
        "le",
        "ad"
      ],
      [
        "of",
        "ten"
      ],
      [
        "me",
        "et"
      ],
      [
        "ent",
        "ity"
      ],
      [
        "ra",
        "ise"
      ],
      [
        "um",
        "p"
      ],
      [
        "si",
        "des"
      ],
      [
        "cre",
        "ated"
      ],
      [
        "sh",
        "if"
      ],
      [
        "od",
        "e"
      ],
      [
        "od",
        "ic"
      ],
      [
        "ation",
        "ship"
      ],
      [
        "ver",
        "se"
      ],
      [
        "per",
        "fect"
      ],
      [
        "fe",
        "ed"
      ],
      [
        "po",
        "t"
      ],
      [
        "act",
        "ually"
      ],
      [
        "ci",
        "pl"
      ],
      [
        "sol",
        "ving"
      ],
      [
        "cal",
        "cium"
      ],
      [
        "get",
        "s"
      ],
      [
        "ress",
        "ure"
      ],
      [
        "cul",
        "es"
      ],
      [
        "resp",
        "ect"
      ],
      [
        "bo",
        "o"
      ],
      [
        "acti",
        "vity"
      ],
      [
        "enc",
        "y"
      ],
      [
        "does",
        "n"
      ],
      [
        "prot",
        "ect"
      ],
      [
        "emo",
        "tions"
      ],
      [
        "bond",
        "ing"
      ],
      [
        "main",
        "tain"
      ],
      [
        "bi",
        "ological"
      ],
      [
        "ick",
        "el"
      ],
      [
        "four",
        "th"
      ],
      [
        "chlor",
        "ine"
      ],
      [
        "sur",
        "vi"
      ],
      [
        "shar",
        "ing"
      ],
      [
        "man",
        "age"
      ],
      [
[...]
