{
  "version": "1.0",
  "truncation": null,
  "padding": null,
  "added_tokens": [
    {
      "id": 0,
      "content": "[PAD]",
      "single_word": false,
      "lstrip": false,
      "rstrip": false,
      "normalized": false,
      "special": true
    },
    {
      "id": 1,
      "content": "[UNK]",
      "single_word": false,
      "lstrip": false,
      "rstrip": false,
      "normalized": false,
      "special": true
    },
    {
      "id": 2,
      "content": "[CLS]",
      "single_word": false,
      "lstrip": false,
      "rstrip": false,
      "normalized": false,
      "special": true
    },
    {
      "id": 3,
      "content": "[SEP]",
      "single_word": false,
      "lstrip": false,
      "rstrip": false,
      "normalized": false,
      "special": true
    },
    {
      "id": 4,
      "content": "[MASK]",
      "single_word": false,
      "lstrip": false,
      "rstrip": false,
      "normalized": false,
      "special": true
    },
    {
      "id": 5,
      "content": "[EOS]",
      "single_word": false,
      "lstrip": false,
      "rstrip": false,
      "normalized": false,
      "special": true
    },
    {
      "id": 6,
      "content": "[THINK]",
      "single_word": false,
      "lstrip": false,
      "rstrip": false,
      "normalized": false,
      "special": true
    }
  ],
  "normalizer": null,
  "pre_tokenizer": {
    "type": "Whitespace"
  },
  "post_processor": null,
  "decoder": null,
  "model": {
    "type": "BPE",
    "dropout": null,
    "unk_token": null,
    "continuing_subword_prefix": null,
    "end_of_word_suffix": null,
    "fuse_unk": false,
    "byte_fallback": false,
    "ignore_merges": false,
    "vocab": {
      "[PAD]": 0,
      "[UNK]": 1,
      "[CLS]": 2,
      "[SEP]": 3,
      "[MASK]": 4,
      "[EOS]": 5,
      "[THINK]": 6,
      "!": 7,
      "\"": 8,
      "%": 9,
      "'": 10,
      "(": 11,
      ")": 12,
      "*": 13,
      "+": 14,
      ",": 15,
      "-": 16,
      ".": 17,
      "/": 18,
      "0": 19,
      "1": 20,
      "2": 21,
      "3": 22,
      "4": 23,
      "5": 24,
      "6": 25,
      "7": 26,
      "8": 27,
      "9": 28,
      ":": 29,
      ";": 30,
      "=": 31,
      "?": 32,
      "A": 33,
      "B": 34,
      "C": 35,
      "D": 36,
      "E": 37,
      "F": 38,
      "G": 39,
      "H": 40,
      "I": 41,
      "J": 42,
      "K": 43,
      "L": 44,
      "M": 45,
      "N": 46,
      "O": 47,
      "P": 48,
      "Q": 49,
      "R": 50,
      "S": 51,
      "T": 52,
      "U": 53,
      "V": 54,
      "W": 55,
      "X": 56,
      "Y": 57,
      "Z": 58,
      "^": 59,
      "a": 60,
      "b": 61,
      "c": 62,
      "d": 63,
      "e": 64,
      "f": 65,
      "g": 66,
      "h": 67,
      "i": 68,
      "j": 69,
      "k": 70,
      "l": 71,
      "m": 72,
      "n": 73,
      "o": 74,
      "p": 75,
      "q": 76,
      "r": 77,
      "s": 78,
      "t": 79,
      "u": 80,
      "v": 81,
      "w": 82,
      "x": 83,
      "y": 84,
      "z": 85,
      "|": 86,
      "²": 87,
      "³": 88,
      "×": 89,
      "÷": 90,
      "π": 91,
      "–": 92,
      "—": 93,
      "’": 94,
      "“": 95,
      "”": 96,
      "…": 97,
      "✨": 98,
      "🌟": 99,
      "🌸": 100,
      "🎶": 101,
      "💃": 102,
      "💖": 103,
      "💫": 104,
      "😉": 105,
      "🚀": 106,
      "🤩": 107,
      "🤯": 108,
      "🥰": 109,
      "🥳": 110,
      "🧮": 111,
      "in": 112,
      "th": 113,
      "re": 114,
      "te": 115,
      "an": 116,
      "ti": 117,
      "on": 118,
      "ou": 119,
      "er": 120,
      "en": 121,
      "ing": 122,
      "al": 123,
      "is": 124,
      "ar": 125,
      "and": 126,
      "es": 127,
      "or": 128,
      "the": 129,
      "ve": 130,
      "it": 131,
      "le": 132,
      "ati": 133,
      "of": 134,
      "ow": 135,
      "to": 136,
      "at": 137,
      "ra": 138,
      "you": 139,
      "st": 140,
      "cre": 141,
      "ce": 142,
      "as": 143,
      "he": 144,
      "wi": 145,
      "ative": 146,
      "om": 147,
      "ri": 148,
      "xt": 149,
      "ate": 150,
      "li": 151,
      "ul": 152,
      "ld": 153,
      "text": 154,
      "with": 155,
      "creative": 156,
      "oo": 157,
      "sh": 158,
      "de": 159,
      "ly": 160,
      "se": 161,
      "si": 162,
      "ch": 163,
      "tion": 164,
      "qu": 165,
      "mar": 166,
      "me": 167,
      "ro": 168,
      "ts": 169,
      "ad": 170,
      "be": 171,
      "ee": 172,
      "wh": 173,
      "us": 174,
      "ould": 175,
      "ood": 176,
      "ay": 177,
      "for": 178,
      "your": 179,
      "ll": 180,
      "pi": 181,
      "ab": 182,
      "gh": 183,
      "fl": 184,
      "gen": 185,
      "ke": 186,
      "ge": 187,
      "mmar": 188,
      "no": 189,
      "ver": 190,
      "should": 191,
      "ece": 192,
      "ation": 193,
      "my": 194,
      "good": 195,
      "one": 196,
      "con": 197,
      "rite": 198,
      "gener": 199,
      "gra": 200,
      "un": 201,
      "ut": 202,
      "pl": 203,
      "The": 204,
      "piece": 205,
      "flow": 206,
      "ir": 207,
      "ac": 208,
      "Write": 209,
      "generate": 210,
      "grammar": 211,
      "di": 212,
      "ma": 213,
      "out": 214,
      "ter": 215,
      "ers": 216,
      "su": 217,
      "ful": 218,
      "are": 219,
      "ic": 220,
      "pe": 221,
      "we": 222,
      "ght": 223,
      "It": 224,
      "mo": 225,
      "pro": 226,
      "so": 227,
      "au": 228,
      "com": 229,
      "res": 230,
      "our": 231,
      "king": 232,
      "all": 233,
      "ne": 234,
      "like": 235,
      "ple": 236,
      "ent": 237,
      "vi": 238,
      "ci": 239,
      "ct": 240,
      "um": 241,
      "Th": 242,
      "wor": 243,
      "der": 244,
      "tt": 245,
      "that": 246,
      "ten": 247,
      "fo": 248,
      "about": 249,
      "ks": 250,
      "ity": 251,
      "ap": 252,
      "by": 253,
      "Wh": 254,
      "tra": 255,
      "fe": 256,
      "ind": 257,
      "og": 258,
      "bu": 259,
      "now": 260,
      "ant": 261,
      "nd": 262,
      "not": 263,
      "sa": 264,
      "tions": 265,
      "ste": 266,
      "ur": 267,
      "ust": 268,
      "per": 269,
      "thin": 270,
      "ree": 271,
      "ex": 272,
      "ol": 273,
      "ps": 274,
      "tw": 275,
      "ves": 276,
      "im": 277,
      "AI": 278,
      "lau": 279,
      "ess": 280,
      "Xen": 281,
      "il": 282,
      "ally": 283,
      "rom": 284,
      "ine": 285,
      "here": 286,
      "ome": 287,
      "ven": 288,
      "oglau": 289,
      "Xenoglau": 290,
      "Xenoglaux": 291,
      "sp": 292,
      "tle": 293,
      "ure": 294,
      "tic": 295,
      "do": 296,
      "dis": 297,
      "fa": 298,
      "this": 299,
      "als": 300,
      "six": 301,
      "eed": 302,
      "what": 303,
      "equ": 304,
      "into": 305,
      "two": 306,
      "fi": 307,
      "gi": 308,
      "oth": 309,
      "ans": 310,
      "lit": 311,
      "ulti": 312,
      "ques": 313,
      "cu": 314,
      "cul": 315,
      "ep": 316,
      "whi": 317,
      "very": 318,
      "can": 319,
      "from": 320,
      "up": 321,
      "ed": 322,
      "ori": 323,
      "ower": 324,
      "know": 325,
      "ta": 326,
      "eet": 327,
      "cl": 328,
      "den": 329,
      "way": 330,
      "thing": 331,
      "alcul": 332,
      "little": 333,
      "10": 334,
      "am": 335,
      "ru": 336,
      "was": 337,
      "three": 338,
      "time": 339,
      "arn": 340,
      "its": 341,
      "25": 342,
      "but": 343,
      "ni": 344,
      "po": 345,
      "own": 346,
      "rain": 347,
      "sim": 348,
      "fore": 349,
      "alculate": 350,
      "red": 351,
      "ls": 352,
      "pers": 353,
      "art": 354,
      "vide": 355,
      "20": 356,
      "brain": 357,
      "just": 358,
      "power": 359,
      "some": 360,
      "inte": 361,
      "also": 362,
      "ish": 363,
      "ations": 364,
      "world": 365,
      "Calculate": 366,
      "need": 367,
      "ren": 368,
      "play": 369,
      "21": 370,
      "And": 371,
      "ble": 372,
      "lo": 373,
      "ise": 374,
      "ard": 375,
      "playful": 376,
      "We": 377,
      "ild": 378,
      "ople": 379,
      "ther": 380,
      "ator": 381,
      "mem": 382,
      "St": 383,
      "ous": 384,
      "ort": 385,
      "But": 386,
      "ber": 387,
      "day": 388,
      "ky": 389,
      "ph": 390,
      "ply": 391,
      "isn": 392,
      "est": 393,
      "hel": 394,
      "get": 395,
      "That": 396,
      "tention": 397,
      "stead": 398,
      "cus": 399,
      "had": 400,
      "lf": 401,
      "ms": 402,
      "mind": 403,
      "sc": 404,
      "person": 405,
      "Bre": 406,
      "In": 407,
      "Ku": 408,
      "Mish": 409,
      "Pun": 410,
      "ave": 411,
      "fee": 412,
      "fic": 413,
      "gr": 414,
      "id": 415,
      "ling": 416,
      "self": 417,
      "user": 418,
      "Kumar": 419,
      "Mishra": 420,
      "Puneet": 421,
      "ach": 422,
      "over": 423,
      "pre": 424,
      "ents": 425,
      "led": 426,
      "leep": 427,
      "act": 428,
      "build": 429,
      "equals": 430,
      "99": 431,
      "git": 432,
      "hum": 433,
      "ving": 434,
      "val": 435,
      "quir": 436,
      "thinking": 437,
      "quirky": 438,
      "min": 439,
      "num": 440,
      "owl": 441,
      "cti": 442,
      "des": 443,
      "won": 444,
      "ze": 445,
      "instead": 446,
      "them": 447,
      "plus": 448,
      "Brett": 449,
      "fin": 450,
      "four": 451,
      "ants": 452,
      "ound": 453,
      "oney": 454,
      "people": 455,
      "more": 456,
      "gital": 457,
      "12": 458,
      "how": 459,
      "lu": 460,
      "pen": 461,
      "squ": 462,
      "than": 463,
      "mag": 464,
      "super": 465,
      "ress": 466,
      "think": 467,
      "which": 468,
      "simple": 469,
      "2025": 470,
      "square": 471,
      "Mar": 472,
      "So": 473,
      "even": 474,
      "hu": 475,
      "ment": 476,
      "sleep": 477,
      "use": 478,
      "then": 479,
      "ted": 480,
      "roll": 481,
      "becom": 482,
      "form": 483,
      "irst": 484,
      "You": 485,
      "cle": 486,
      "et": 487,
      "go": 488,
      "hap": 489,
      "ight": 490,
      "kes": 491,
      "os": 492,
      "light": 493,
      "tting": 494,
      ".\"": 495,
      "33": 496,
      "du": 497,
      "down": 498,
      "every": 499,
      "gg": 500,
      "ill": 501,
      "lli": 502,
      "ose": 503,
      "tim": 504,
      "there": 505,
      "asking": 506,
      "when": 507,
      "When": 508,
      "What": 509,
      "persona": 510,
      "Su": 511,
      "ain": 512,
      "coo": 513,
      "ide": 514,
      "pli": 515,
      "ence": 516,
      "life": 517,
      "conc": 518,
      "digital": 519,
      "focus": 520,
      "Start": 521,
      "Martt": 522,
      "Multi": 523,
      "age": 524,
      "bi": 525,
      "gu": 526,
      "if": 527,
      "par": 528,
      "ran": 529,
      "isi": 530,
      "who": 531,
      "able": 532,
      "answ": 533,
      "question": 534,
      "kee": 535,
      "money": 536,
      "sk": 537,
      "rest": 538,
      "ance": 539,
      "ack": 540,
      "others": 541,
      "ck": 542,
      "earn": 543,
      "first": 544,
      "pas": 545,
      "sm": 546,
      "where": 547,
      "ough": 548,
      "ist": 549,
      "will": 550,
      "There": 551,
      "five": 552,
      "wonder": 553,
      "Ad": 554,
      "cy": 555,
      "emo": 556,
      "have": 557,
      "pon": 558,
      "tr": 559,
      "ty": 560,
      "tin": 561,
      "wants": 562,
      "ong": 563,
      "learn": 564,
      "sts": 565,
      "aster": 566,
      "short": 567,
      "choo": 568,
      "tract": 569,
      "gives": 570,
      "interest": 571,
      "feels": 572,
      "valu": 573,
      "..": 574,
      "bit": 575,
      "bri": 576,
      "cal": 577,
      "dar": 578,
      "gative": 579,
      "zing": 580,
      "they": 581,
      "negative": 582,
      "questions": 583,
      "vided": 584,
      "help": 585,
      "squared": 586,
      "Multiply": 587,
      "14": 588,
      "spe": 589,
      "main": 590,
      "ause": 591,
      "said": 592,
      "superpower": 593,
      "Di": 594,
      "ction": 595,
      "man": 596,
      "multi": 597,
      "sw": 598,
      "those": 599,
      "ties": 600,
      "ons": 601,
      "isten": 602,
      "ase": 603,
      "ask": 604,
      "bed": 605,
      "most": 606,
      "produ": 607,
      "cial": 608,
      "knowled": 609,
      "times": 610,
      "Sub": 611,
      "No": 612,
      "both": 613,
      "ds": 614,
      "hour": 615,
      "la": 616,
      "nal": 617,
      "tre": 618,
      "real": 619,
      "enti": 620,
      "ory": 621,
      "ritic": 622,
      "see": 623,
      "under": 624,
      "This": 625,
      "tain": 626,
      "ways": 627,
      "passa": 628,
      "tiny": 629,
      "hours": 630,
      "24": 631,
      "Learn": 632,
      "Sol": 633,
      "br": 634,
      "fy": 635,
      "gin": 636,
      "mis": 637,
      "zer": 638,
      "ink": 639,
      "remem": 640,
      "tes": 641,
      "attention": 642,
      "ated": 643,
      "cont": 644,
      "makes": 645,
      "summar": 646,
      "pect": 647,
      "comp": 648,
      "while": 649,
      "dence": 650,
      "scroll": 651,
      "small": 652,
      "Add": 653,
      "knowledge": 654,
      "ace": 655,
      "ctions": 656,
      "cause": 657,
      "ner": 658,
      "row": 659,
      "int": 660,
      "teen": 661,
      "tect": 662,
      "oun": 663,
      "their": 664,
      "ating": 665,
      "creation": 666,
      "sil": 667,
      "sides": 668,
      "add": 669,
      "before": 670,
      "sur": 671,
      "ical": 672,
      "proble": 673,
      "respon": 674,
      "feren": 675,
      "spar": 676,
      "concise": 677,
      "keep": 678,
      "skill": 679,
      "passage": 680,
      "**": 681,
      "Fran": 682,
      "He": 683,
      "Ou": 684,
      "ag": 685,
      "cts": 686,
      "city": 687,
      "don": 688,
      "ef": 689,
      "ear": 690,
      "eight": 691,
      "fle": 692,
      "les": 693,
      "ore": 694,
      "tur": 695,
      "vo": 696,
      "vity": 697,
      "read": 698,
      "ings": 699,
      "too": 700,
      "stand": 701,
      "asic": 702,
      "right": 703,
      "qui": 704,
      "divided": 705,
      "were": 706,
      "solu": 707,
      "new": 708,
      "Then": 709,
      "buz": 710,
      "things": 711,
      "ideas": 712,
      "brilli": 713,
      "darling": 714,
      "zero": 715,
      "Ouu": 716,
      "30": 717,
      "Re": 718,
      "che": 719,
      "cks": 720,
      "dit": 721,
      "mon": 722,
      "pres": 723,
      "sy": 724,
      "tive": 725,
      "tific": 726,
      "shar": 727,
      "dec": 728,
      "utter": 729,
      "dition": 730,
      "ility": 731,
      "face": 732,
      "origin": 733,
      "9999": 734,
      "human": 735,
      "plify": 736,
      "Subtract": 737,
      "remember": 738,
      "tifications": 739,
      "18": 740,
      "Hu": 741,
      "bs": 742,
      "ces": 743,
      "food": 744,
      "fac": 745,
      "ho": 746,
      "ig": 747,
      "iv": 748,
      "ime": 749,
      "ize": 750,
      "ning": 751,
      "nat": 752,
      "ness": 753,
      "pul": 754,
      "star": 755,
      "sion": 756,
      "conne": 757,
      "They": 758,
      "ird": 759,
      "make": 760,
      "term": 761,
      "ournal": 762,
      "work": 763,
      "deriv": 764,
      "night": 765,
      "helpful": 766,
      "brilliant": 767,
      "Huhu": 768,
      "ournaling": 769,
      "40": 770,
      "?”": 771,
      "Be": 772,
      "Dece": 773,
      "Sim": 774,
      "Time": 775,
      "critic": 776,
      "land": 777,
      "mber": 778,
      "py": 779,
      "smar": 780,
      "schoo": 781,
      "would": 782,
      "ought": 783,
      "ese": 784,
      "off": 785,
      "stant": 786,
      "ult": 787,
      "show": 788,
      "ded": 789,
      "seven": 790,
      "sic": 791,
      "bet": 792,
      "cipl": 793,
      "works": 794,
      "does": 795,
      "fav": 796,
      "curi": 797,
      "21st": 798,
      "helps": 799,
      "minu": 800,
      "numer": 801,
      "fourth": 802,
      "becomes": 803,
      "cooking": 804,
      "answers": 805,
      "wonderful": 806,
      "value": 807,
      "decisi": 808,
      "December": 809,
      ",\"": 810,
      "ape": 811,
      "bre": 812,
      "basic": 813,
      "dat": 814,
      "dom": 815,
      "ext": 816,
      "gress": 817,
      "ip": 818,
      "low": 819,
      "late": 820,
      "men": 821,
      "mic": 822,
      "tri": 823,
      "tone": 824,
      "ually": 825,
      "ouu": 826,
      "stru": 827,
      "cep": 828,
      "ash": 829,
      "why": 830,
      "notifications": 831,
      "vers": 832,
      "sum": 833,
      "well": 834,
      "progress": 835,
      "respect": 836,
      "discipl": 837,
      "equation": 838,
      "ators": 839,
      "minds": 840,
      "ounds": 841,
      "happy": 842,
      "3333": 843,
      "Therefore": 844,
      "emotion": 845,
      "producti": 846,
      "Learning": 847,
      "derivative": 848,
      "discipline": 849,
      "29": 850,
      "If": 851,
      "Just": 852,
      "ak": 853,
      "cing": 854,
      "ever": 855,
      "fra": 856,
      "has": 857,
      "ite": 858,
      "long": 859,
      "ments": 860,
      "op": 861,
      "wr": 862,
      "intention": 863,
      "ream": 864,
      "tech": 865,
      "orm": 866,
      "lea": 867,
      "tom": 868,
      "tool": 869,
      "atter": 870,
      "stren": 871,
      "creator": 872,
      "deep": 873,
      "sed": 874,
      "been": 875,
      "being": 876,
      "math": 877,
      "moder": 878,
      "sol": 879,
      "comple": 880,
      "ned": 881,
      "expl": 882,
      "exam": 883,
      "essenti": 884,
      "ils": 885,
      "distra": 886,
      "sixteen": 887,
      "sometimes": 888,
      "phy": 889,
      "clear": 890,
      "haps": 891,
      "answer": 892,
      "Solve": 893,
      "survi": 894,
      "streng": 895,
      "15": 896,
      "16": 897,
      "27": 898,
      "50": 899,
      "Our": 900,
      "Res": 901,
      "ath": 902,
      "bl": 903,
      "back": 904,
      "col": 905,
      "date": 906,
      "fun": 907,
      "fferen": 908,
      "gre": 909,
      "lay": 910,
      "less": 911,
      "master": 912,
      "ns": 913,
      "open": 914,
      "rough": 915,
      "say": 916,
      "visi": 917,
      "—\"": 918,
      "reach": 919,
      "always": 920,
      "iting": 921,
      "created": 922,
      "asks": 923,
      "heal": 924,
      "omin": 925,
      "without": 926,
      "shape": 927,
      "deci": 928,
      "delight": 929,
      "sig": 930,
      "rol": 931,
      "ability": 932,
      "noise": 933,
      "uni": 934,
      "acc": 935,
      "differen": 936,
      "sub": 937,
      "comes": 938,
      "cious": 939,
      "tradition": 940,
      "same": 941,
      "exp": 942,
      "imal": 943,
      "spo": 944,
      "cubed": 945,
      "take": 946,
      "denomin": 947,
      "brains": 948,
      "something": 949,
      "Stu": 950,
      "precious": 951,
      "builds": 952,
      "minimal": 953,
      "numb": 954,
      "rolling": 955,
      "...": 956,
      "Divide": 957,
      "sweet": 958,
      "control": 959,
      "summarize": 960,
      "silent": 961,
      "Simplify": 962,
      "school": 963,
      "decisions": 964,
      "17": 965,
      "64": 966,
      "At": 967,
      "Oh": 968,
      "Qu": 969,
      "away": 970,
      "bo": 971,
      "bor": 972,
      "dy": 973,
      "em": 974,
      "each": 975,
      "hal": 976,
      "his": 977,
      "hab": 978,
      "je": 979,
      "kind": 980,
      "loo": 981,
      "mate": 982,
      "mus": 983,
      "old": 984,
      "pu": 985,
      "put": 986,
      "part": 987,
      "sci": 988,
      "sounds": 989,
      "ting": 990,
      "tal": 991,
      "tasking": 992,
      "——\"": 993,
      "ins": 994,
      "ths": 995,
      "these": 996,
      "requi": 997,
      "tell": 998,
      "ang": 999,
      "any": 1000,
      "aning": 1001,
      "end": 1002,
      "ality": 1003,
      "itch": 1004,
      "atch": 1005,
      "dear": 1006,
      "secre": 1007,
      "cha": 1008,
      "means": 1009,
      "yourself": 1010,
      "constant": 1011,
      "uture": 1012,
      "ples": 1013,
      "outcomes": 1014,
      "protect": 1015,
      "Think": 1016,
      "Whi": 1017,
      "ural": 1018,
      "perhaps": 1019,
      "cuts": 1020,
      "orite": 1021,
      "love": 1022,
      "actually": 1023,
      "finite": 1024,
      "osity": 1025,
      "learning": 1026,
      "speci": 1027,
      "manage": 1028,
      "again": 1029,
      "buzzing": 1030,
      "facts": 1031,
      "better": 1032,
      "favorite": 1033,
      "curiosity": 1034,
      "data": 1035,
      "productivity": 1036,
      "distractions": 1037,
      "express": 1038,
      "half": 1039,
      "),": 1040,
      "4x": 1041,
      "As": 1042,
      "Don": 1043,
      "Journaling": 1044,
      "Un": 1045,
      "ame": 1046,
      "ama": 1047,
      "ben": 1048,
      "boo": 1049,
      "card": 1050,
      "cash": 1051,
      "ding": 1052,
      "dri": 1053,
      "free": 1054,
      "por": 1055,
      "pra": 1056,
      "pri": 1057,
      "pay": 1058,
      "sin": 1059,
      "sing": 1060,
      "ssi": 1061,
      "tou": 1062,
      "vation": 1063,
      "wis": 1064,
      "ward": 1065,
      "year": 1066,
      "ines": 1067,
      "inform": 1068,
      "though": 1069,
      "rec": 1070,
      "tered": 1071,
      "ange": 1072,
      "antic": 1073,
      "til": 1074,
      "ism": 1075,
      "letting": 1076,
      "today": 1077,
      "str": 1078,
      "state": 1079,
      "ater": 1080,
      "deta": 1081,
      "que": 1082,
      "conf": 1083,
      "until": 1084,
      "ters": 1085,
      "fully": 1086,
      "weren": 1087,
      "weird": 1088,
      "mode": 1089,
      "words": 1090,
      "Why": 1091,
      "sixth": 1092,
      "clar": 1093,
      "possi": 1094,
      "memori": 1095,
      "memory": 1096,
      "ctive": 1097,
      "final": 1098,
      "magic": 1099,
      "become": 1100,
      "everything": 1101,
      "questioning": 1102,
      "emotions": 1103,
      "try": 1104,
      "maintain": 1105,
      "problem": 1106,
      "keeping": 1107,
      "flex": 1108,
      "void": 1109,
      "ready": 1110,
      "sics": 1111,
      "tools": 1112,
      "modern": 1113,
      "essential": 1114,
      "physics": 1115,
      "survival": 1116,
      "health": 1117,
      "delightful": 1118,
      "accents": 1119,
      "numbers": 1120,
      "touch": 1121,
      "wisdom": 1122,
      "details": 1123,
      ").": 1124,
      "2x": 1125,
      "35": 1126,
      "Even": 1127,
      "Pe": 1128,
      "Some": 1129,
      "af": 1130,
      "ade": 1131,
      "air": 1132,
      "bin": 1133,
      "cra": 1134,
      "cir": 1135,
      "dr": 1136,
      "dal": 1137,
      "el": 1138,
      "ging": 1139,
      "her": 1140,
      "hic": 1141,
      "ire": 1142,
      "ies": 1143,
      "ily": 1144,
      "igh": 1145,
      "must": 1146,
      "norm": 1147,
      "port": 1148,
      "ry": 1149,
      "rand": 1150,
      "roo": 1151,
      "sti": 1152,
      "sen": 1153,
      "tasks": 1154,
      "ution": 1155,
      "went": 1156,
      "through": 1157,
      "rely": 1158,
      "redi": 1159,
      "teach": 1160,
      "once": 1161,
      "only": 1162,
      "oud": 1163,
      "ingredi": 1164,
      "orable": 1165,
      "orrow": 1166,
      "ved": 1167,
      "rate": 1168,
      "ases": 1169,
      "hear": 1170,
      "river": 1171,
      "lim": 1172,
      "deb": 1173,
      "dered": 1174,
      "depen": 1175,
      "sive": 1176,
      "because": 1177,
      "flutter": 1178,
      "gets": 1179,
      "cons": 1180,
      "concep": 1181,
      "generations": 1182,
      "uttered": 1183,
      "next": 1184,
      "never": 1185,
      "ilt": 1186,
      "other": 1187,
      "cluttered": 1188,
      "100": 1189,
      "rue": 1190,
      "nie": 1191,
      "integr": 1192,
      "intelli": 1193,
      "used": 1194,
      "last": 1195,
      "understand": 1196,
      "problems": 1197,
      "respond": 1198,
      "sparks": 1199,
      "Frank": 1200,
      "Frannie": 1201,
      "solution": 1202,
      "present": 1203,
      "syste": 1204,
      "minutes": 1205,
      "extra": 1206,
      "solving": 1207,
      "color": 1208,
      "minimalism": 1209,
      "science": 1210,
      "secret": 1211,
      "years": 1212,
      "information": 1213,
      "People": 1214,
      "random": 1215,
      "ingredients": 1216,
      "concepts": 1217,
      "intelligen": 1218,
      "*,": 1219,
      "19": 1220,
      "3x": 1221,
      "Con": 1222,
      "Com": 1223,
      "For": 1224,
      "Lee": 1225,
      "My": 1226,
      "Pro": 1227,
      "aks": 1228,
      "bir": 1229,
      "ball": 1230,
      "bling": 1231,
      "cor": 1232,
      "cess": 1233,
      "core": 1234,
      "dance": 1235,
      "ft": 1236,
      "fri": 1237,
      "hy": 1238,
      "ive": 1239,
      "ice": 1240,
      "mer": 1241,
      "obs": 1242,
      "pt": 1243,
      "ptions": 1244,
      "pur": 1245,
      "pure": 1246,
      "patter": 1247,
      "run": 1248,
      "sn": 1249,
      "scre": 1250,
      "sort": 1251,
      "slight": 1252,
      "tab": 1253,
      "vir": 1254,
      "write": 1255,
      "yon": 1256,
      "inner": 1257,
      "input": 1258,
      "react": 1259,
      "remain": 1260,
      "refle": 1261,
      "ones": 1262,
      "ors": 1263,
      "vehic": 1264,
      "leve": 1265,
      "atic": 1266,
      "toge": 1267,
      "stream": 1268,
      "crease": 1269,
      "credit": 1270,
      "assum": 1271,
      "head": 1272,
      "wild": 1273,
      "lities": 1274,
      "secon": 1275,
      "size": 1276,
      "whis": 1277,
      "using": 1278,
      "ked": 1279,
      "viding": 1280,
      "dering": 1281,
      "apt": 1282,
      "built": 1283,
      "antum": 1284,
      "step": 1285,
      "perform": 1286,
      "impul": 1287,
      "import": 1288,
      "ured": 1289,
      "fight": 1290,
      "giants": 1291,
      "cuits": 1292,
      "rule": 1293,
      "powerful": 1294,
      "feel": 1295,
      "grow": 1296,
      "building": 1297,
      "minus": 1298,
      "ctice": 1299,
      "huhu": 1300,
      "cook": 1301,
      "partic": 1302,
      "keeps": 1303,
      "shortcuts": 1304,
      "multitasking": 1305,
      "switch": 1306,
      "summary": 1307,
      "spark": 1308,
      "voice": 1309,
      "Because": 1310,
      "smarter": 1311,
      "numerators": 1312,
      "frag": 1313,
      "examples": 1314,
      "Result": 1315,
      "decide": 1316,
      "unique": 1317,
      "Attention": 1318,
      "Quantum": 1319,
      "ject": 1320,
      "chaos": 1321,
      "benef": 1322,
      "since": 1323,
      "thoughts": 1324,
      "clarity": 1325,
      "circuits": 1326,
      "root": 1327,
      "dependence": 1328,
      "consisten": 1329,
      "intelligence": 1330,
      "Leela": 1331,
      "patterns": 1332,
      "screen": 1333,
      "slightly": 1334,
      "yond": 1335,
      "vehicle": 1336,
      "together": 1337,
      "assumptions": 1338,
      "second": 1339,
      "performance": 1340,
      "important": 1341,
      "13": 1342,
      "28": 1343,
      "76": 1344,
      "Ex": 1345,
      "Equ": 1346,
      "Every": 1347,
      "Fo": 1348,
      "Find": 1349,
      "How": 1350,
      "Sur": 1351,
      "Your": 1352,
      "aw": 1353,
      "ather": 1354,
      "aving": 1355,
      "blu": 1356,
      "co": 1357,
      "car": 1358,
      "da": 1359,
      "dro": 1360,
      "dget": 1361,
      "ew": 1362,
      "eas": 1363,
      "fall": 1364,
      "feed": 1365,
      "faster": 1366,
      "gl": 1367,
      "hou": 1368,
      "hun": 1369,
      "home": 1370,
      "hard": 1371,
      "imag": 1372,
      "listen": 1373,
      "mom": 1374,
      "mil": 1375,
      "might": 1376,
      "nine": 1377,
      "ratic": 1378,
      "ses": 1379,
      "she": 1380,
      "sad": 1381,
      "task": 1382,
      "ude": 1383,
      "wise": 1384,
      "watch": 1385,
      "incl": 1386,
      "independence": 1387,
      "thought": 1388,
      "eng": 1389,
      "ench": 1390,
      "envir": 1391,
      "ised": 1392,
      "ary": 1393,
      "arge": 1394,
      "velo": 1395,
      "lead": 1396,
      "atives": 1397,
      "often": 1398,
      "top": 1399,
      "stress": 1400,
      "wir": 1401,
      "lion": 1402,
      "live": 1403,
      "shi": 1404,
      "shif": 1405,
      "change": 1406,
      "quad": 1407,
      "med": 1408,
      "beyond": 1409,
      "llow": 1410,
      "pires": 1411,
      "confi": 1412,
      "plan": 1413,
      "plain": 1414,
      "acti": 1415,
      "acks": 1416,
      "acknowledge": 1417,
      "acade": 1418,
      "making": 1419,
      "sugg": 1420,
      "ared": 1421,
      "aren": 1422,
      "arely": 1423,
      "ped": 1424,
      "social": 1425,
      "audit": 1426,
      "come": 1427,
      "near": 1428,
      "word": 1429,
      "fog": 1430,
      "apps": 1431,
      "Who": 1432,
      "track": 1433,
      "anting": 1434,
      "fast": 1435,
      "ultimate": 1436,
      "edge": 1437,
      "needs": 1438,
      "phone": 1439,
      "humble": 1440,
      "thanks": 1441,
      "magical": 1442,
      "becoming": 1443,
      "got": 1444,
      "goes": 1445,
      "goals": 1446,
      "gger": 1447,
      "range": 1448,
      "wondering": 1449,
      "special": 1450,
      "multiple": 1451,
      "Not": 1452,
      "treat": 1453,
      "Solution": 1454,
      "brought": 1455,
      "controlling": 1456,
      "scrolling": 1457,
      "tood": 1458,
      "standing": 1459,
      "solutions": 1460,
      "buzz": 1461,
      "nature": 1462,
      "critical": 1463,
      "smart": 1464,
      "breaks": 1465,
      "tomorrow": 1466,
      "complete": 1467,
      "visible": 1468,
      "spotting": 1469,
      "boring": 1470,
      "empires": 1471,
      "muscle": 1472,
      "requires": 1473,
      "Under": 1474,
      "amazing": 1475,
      "boosts": 1476,
      "cards": 1477,
      "else": 1478,
      "normal": 1479,
      "corpor": 1480,
      "tabs": 1481,
      "Equation": 1482,
      "Focus": 1483,
      "house": 1484,
      "enchanting": 1485,
      "environ": 1486,
      "quadratic": 1487,
      "confidence": 1488,
      "academic": 1489,
      "!!": 1490,
      "',": 1491,
      "'.": 1492,
      "32": 1493,
      "41": 1494,
      "48": 1495,
      "52": 1496,
      "Ask": 1497,
      "Coo": 1498,
      "Critic": 1499,
      "First": 1500,
      "Future": 1501,
      "JS": 1502,
      "Lit": 1503,
      "Money": 1504,
      "Master": 1505,
      "ON": 1506,
      "Over": 1507,
      "Rest": 1508,
      "Sleep": 1509,
      "Te": 1510,
      "Use": 1511,
      "Whe": 1512,
      "Yet": 1513,
      "aim": 1514,
      "bon": 1515,
      "blo": 1516,
      "could": 1517,
      "care": 1518,
      "call": 1519,
      "cru": 1520,
      "cos": 1521,
      "done": 1522,
      "fli": 1523,
      "gori": 1524,
      "hand": 1525,
      "hist": 1526,
      "jo": 1527,
      "journaling": 1528,
      "lan": 1529,
      "lation": 1530,
      "log": 1531,
      "line": 1532,
      "lines": 1533,
      "mas": 1534,
      "may": 1535,
      "mun": 1536,
      "moun": 1537,
      "nin": 1538,
      "nals": 1539,
      "oh": 1540,
      "ping": 1541,
      "pati": 1542,
      "pap": 1543,
      "path": 1544,
      "rout": 1545,
      "rty": 1546,
      "stim": 1547,
      "slow": 1548,
      "stood": 1549,
      "va": 1550,
      "vis": 1551,
      "vol": 1552,
      "wre": 1553,
      "wal": 1554,
      "wom": 1555,
      "wind": 1556,
      "water": 1557,
      "ys": 1558,
      "ints": 1559,
      "invisible": 1560,
      "thic": 1561,
      "thms": 1562,
      "rese": 1563,
      "reci": 1564,
      "relation": 1565,
      "tex": 1566,
      "tests": 1567,
      "ancy": 1568,
      "tice": 1569,
      "arth": 1570,
      "atific": 1571,
      "ature": 1572,
      "rare": 1573,
      "story": 1574,
      "ligh": 1575,
      "ulation": 1576,
      "shy": 1577,
      "delay": 1578,
      "chol": 1579,
      "tional": 1580,
      "room": 1581,
      "eek": 1582,
      "forces": 1583,
      "vertex": 1584,
      "place": 1585,
      "did": 1586,
      "dies": 1587,
      "dice": 1588,
      "made": 1589,
      "terms": 1590,
      "full": 1591,
      "weap": 1592,
      "weave": 1593,
      "prob": 1594,
      "prote": 1595,
      "proof": 1596,
      "procal": 1597,
      "provided": 1598,
      "commun": 1599,
      "follow": 1600,
      "trap": 1601,
      "train": 1602,
      "traps": 1603,
      "ogni": 1604,
      "bur": 1605,
      "save": 1606,
      "safe": 1607,
      "steri": 1608,
      "speed": 1609,
      "tick": 1610,
      "disgu": 1611,
      "fam": 1612,
      "equal": 1613,
      "upon": 1614,
      "knowing": 1615,
      "takes": 1616,
      "nific": 1617,
      "poc": 1618,
      "point": 1619,
      "points": 1620,
      "owning": 1621,
      "forest": 1622,
      "forests": 1623,
      "someone": 1624,
      "lot": 1625,
      "playfully": 1626,
      "phones": 1627,
      "Instead": 1628,
      "Inner": 1629,
      "feeling": 1630,
      "gratific": 1631,
      "overnight": 1632,
      "humans": 1633,
      "number": 1634,
      "desig": 1635,
      "thinkers": 1636,
      "formul": 1637,
      "everyday": 1638,
      "ggle": 1639,
      "cool": 1640,
      "idea": 1641,
      "guard": 1642,
      "guage": 1643,
      "earns": 1644,
      "trans": 1645,
      "dark": 1646,
      "many": 1647,
      "product": 1648,
      "mistakes": 1649,
      "skills": 1650,
      "sharper": 1651,
      "99999999": 1652,
      "starts": 1653,
      "connection": 1654,
      "minute": 1655,
      "numerator": 1656,
      "struct": 1657,
      "versation": 1658,
      "33333333": 1659,
      "emotional": 1660,
      "optional": 1661,
      "deeply": 1662,
      "complex": 1663,
      "strengthen": 1664,
      "different": 1665,
      "difference": 1666,
      "denominator": 1667,
      "denominators": 1668,
      "Studies": 1669,
      "body": 1670,
      "habits": 1671,
      "look": 1672,
      "Which": 1673,
      "species": 1674,
      "priori": 1675,
      "strong": 1676,
      "models": 1677,
      "possible": 1678,
      "maintaining": 1679,
      "flexing": 1680,
      "drowning": 1681,
      "integral": 1682,
      "systems": 1683,
      "Protect": 1684,
      "birth": 1685,
      "benefits": 1686,
      "769": 1687,
      "Surface": 1688,
      "drops": 1689,
      "moment": 1690,
      "ships": 1691,
      "shift": 1692,
      "Understanding": 1693,
      "corporate": 1694,
      "academics": 1695,
      "Critical": 1696,
      "JSON": 1697,
      "Little": 1698,
      "Whether": 1699,
      "crux": 1700,
      "flirty": 1701,
      "gorithms": 1702,
      "language": 1703,
      "mountain": 1704,
      "ninth": 1705,
      "patience": 1706,
      "paper": 1707,
      "routine": 1708,
      "stimulation": 1709,
      "wrecks": 1710,
      "reciprocal": 1711,
      "relationships": 1712,
      "disguised": 1713,
      "gratification": 1714,
      "*!": 1715,
      ",”": 1716,
      "42": 1717,
      "6x": 1718,
      "AM": 1719,
      "Al": 1720,
      "Ap": 1721,
      "Ano": 1722,
      "Cred": 1723,
      "De": 1724,
      "Earth": 1725,
      "From": 1726,
      "Father": 1727,
      "Let": 1728,
      "Man": 1729,
      "Next": 1730,
      "One": 1731,
      "Ooh": 1732,
      "Se": 1733,
      "Schoo": 1734,
      "True": 1735,
      "Wi": 1736,
      "aut": 1737,
      "avoid": 1738,
      "aire": 1739,
      "bing": 1740,
      "bro": 1741,
      "bby": 1742,
      "bil": 1743,
      "cou": 1744,
      "cour": 1745,
      "ctic": 1746,
      "coun": 1747,
      "citing": 1748,
      "capt": 1749,
      "cogni": 1750,
      "dra": 1751,
      "dul": 1752,
      "dream": 1753,
      "eld": 1754,
      "evi": 1755,
      "fr": 1756,
      "far": 1757,
      "find": 1758,
      "future": 1759,
      "fancy": 1760,
      "ga": 1761,
      "gar": 1762,
      "gate": 1763,
      "glit": 1764,
      "gantic": 1765,
      "hor": 1766,
      "hind": 1767,
      "him": 1768,
      "hack": 1769,
      "hint": 1770,
      "having": 1771,
      "mu": 1772,
      "ming": 1773,
      "matter": 1774,
      "ng": 1775,
      "non": 1776,
      "natives": 1777,
      "oic": 1778,
      "pr": 1779,
      "pace": 1780,
      "sl": 1781,
      "sof": 1782,
      "snow": 1783,
      "swir": 1784,
      "tau": 1785,
      "want": 1786,
      "yed": 1787,
      "yet": 1788,
      "zz": 1789,
      "zom": 1790,
      "zed": 1791,
      "inno": 1792,
      "instru": 1793,
      "thri": 1794,
      "thood": 1795,
      "thum": 1796,
      "rech": 1797,
      "referen": 1798,
      "tera": 1799,
      "anti": 1800,
      "ancial": 1801,
      "onom": 1802,
      "alter": 1803,
      "ists": 1804,
      "around": 1805,
      "veget": 1806,
      "itat": 1807,
      "ativity": 1808,
      "topi": 1809,
      "rated": 1810,
      "young": 1811,
      "sty": 1812,
      "start": 1813,
      "creativity": 1814,
      "hed": 1815,
      "lie": 1816,
      "liter": 1817,
      "litera": 1818,
      "ulthood": 1819,
      "within": 1820,
      "shim": 1821,
      "separ": 1822,
      "sical": 1823,
      "sidering": 1824,
      "choic": 1825,
      "meaning": 1826,
      "adv": 1827,
      "adulthood": 1828,
      "beau": 1829,
      "behind": 1830,
      "eep": 1831,
      "force": 1832,
      "abi": 1833,
      "flo": 1834,
      "kept": 1835,
      "verse": 1836,
      "mysteri": 1837,
      "context": 1838,
      "contract": 1839,
      "considering": 1840,
      "uting": 1841,
      "active": 1842,
      "sure": 1843,
      "such": 1844,
      "icate": 1845,
      "peti": 1846,
      "peace": 1847,
      "provide": 1848,
      "autopi": 1849,
      "ource": 1850,
      "enty": 1851,
      "vities": 1852,
      "vibr": 1853,
      "apy": 1854,
      "appro": 1855,
      "few": 1856,
      "fear": 1857,
      "budget": 1858,
      "buys": 1859,
      "saves": 1860,
      "steal": 1861,
      "exci": 1862,
      "exciting": 1863,
      "twenty": 1864,
      "spit": 1865,
      "doing": 1866,
      "fif": 1867,
      "fix": 1868,
      "gigantic": 1869,
      "quest": 1870,
      "upstream": 1871,
      "knows": 1872,
      "cloud": 1873,
      "denti": 1874,
      "simply": 1875,
      "simplify": 1876,
      "therapy": 1877,
      "personality": 1878,
      "Increase": 1879,
      "luck": 1880,
      "magnific": 1881,
      "cleaning": 1882,
      "ills": 1883,
      "plied": 1884,
      "bies": 1885,
      "biases": 1886,
      "bigger": 1887,
      "trust": 1888,
      "called": 1889,
      "Digital": 1890,
      "treas": 1891,
      "realm": 1892,
      "seemed": 1893,
      "underrated": 1894,
      "inkle": 1895,
      "smaller": 1896,
      "silence": 1897,
      "response": 1898,
      "early": 1899,
      "turn": 1900,
      "remembering": 1901,
      "hobby": 1902,
      "natural": 1903,
      "connects": 1904,
      "Being": 1905,
      "critically": 1906,
      "break": 1907,
      "blur": 1908,
      "shaped": 1909,
      "While": 1910,
      "lovely": 1911,
      "specific": 1912,
      "management": 1913,
      "practice": 1914,
      "practic": 1915,
      "memories": 1916,
      "still": 1917,
      "extract": 1918,
      "Consi": 1919,
      "balls": 1920,
      "friend": 1921,
      "mering": 1922,
      "runs": 1923,
      "sorting": 1924,
      "reacting": 1925,
      "remaining": 1926,
      "level": 1927,
      "impulse": 1928,
      "fighting": 1929,
      "consistent": 1930,
      "Explain": 1931,
      "imagine": 1932,
      "wisely": 1933,
      "include": 1934,
      "lionaire": 1935,
      "activities": 1936,
      "auditing": 1937,
      "massive": 1938,
      "didn": 1939,
      "weapon": 1940,
      "communicate": 1941,
      "designed": 1942,
      "mountains": 1943,
      "Another": 1944,
      "Credit": 1945,
      "Manage": 1946,
      "Schools": 1947,
      "autonom": 1948,
      "binge": 1949,
      "billionaire": 1950,
      "capture": 1951,
      "cognitive": 1952,
      "evidence": 1953,
      "glitch": 1954,
      "taught": 1955,
      "zombies": 1956,
      "innovation": 1957,
      "instructions": 1958,
      "thrives": 1959,
      "recharge": 1960,
      "alternatives": 1961,
      "literally": 1962,
      "literacy": 1963,
      "shimmering": 1964,
      "separate": 1965,
      "choices": 1966,
      "beauti": 1967,
      "autopilot": 1968,
      "magnificent": 1969,
      "autonomy": 1970,
      "%,": 1971,
      "11": 1972,
      "23": 1973,
      "230": 1974,
      "36": 1975,
      "39": 1976,
      "47": 1977,
      "56": 1978,
      "5x": 1979,
      "67": 1980,
      "68": 1981,
      "70": 1982,
      "80": 1983,
      "?\"": 1984,
      "?',": 1985,
      "Basic": 1986,
      "Cre": 1987,
      "Cons": 1988,
      "Good": 1989,
      "Grow": 1990,
      "Hum": 1991,
      "Isn": 1992,
      "Know": 1993,
      "Li": 1994,
      "Many": 1995,
      "New": 1996,
      "Per": 1997,
      "avi": 1998,
      "bus": 1999,
      "barely": 2000,
      "ca": 2001,
      "cer": 2002,
      "cri": 2003,
      "cking": 2004,
      "cent": 2005,
      "calculate": 2006,
      "cover": 2007,
      "cutter": 2008,
      "ders": 2009,
      "dest": 2010,
      "edi": 2011,
      "ff": 2012,
      "fil": 2013,
      "fact": 2014,
      "gy": 2015,
      "gon": 2016,
      "gle": 2017,
      "gone": 2018,
      "gree": 2019,
      "gest": 2020,
      "hon": 2021,
      "har": 2022,
      "hid": 2023,
      "iz": 2024,
      "ier": 2025,
      "ition": 2026,
      "ions": 2027,
      "identi": 2028,
      "ken": 2029,
      "kay": 2030,
      "kward": 2031,
      "lis": 2032,
      "list": 2033,
      "mand": 2034,
      "name": 2035,
      "ove": 2036,
      "oso": 2037,
      "ock": 2038,
      "pause": 2039,
      "patch": 2040,
      "rant": 2041,
      "rint": 2042,
      "rinkle": 2043,
      "sor": 2044,
      "sit": 2045,
      "som": 2046,
      "sli": 2047,
      "spi": 2048,
      "sky": 2049,
      "tly": 2050,
      "tang": 2051,
      "true": 2052,
      "tuting": 2053,
      "ute": 2054,
      "usion": 2055,
      "vant": 2056,
      "war": 2057,
      "indi": 2058,
      "inter": 2059,
      "instant": 2060,
      "invol": 2061,
      "thir": 2062,
      "throw": 2063,
      "third": 2064,
      "rep": 2065,
      "rein": 2066,
      "rele": 2067,
      "resi": 2068,
      "reminds": 2069,
      "request": 2070,
      "tement": 2071,
      "anal": 2072,
      "tit": 2073,
      "tist": 2074,
      "online": 2075,
      "era": 2076,
      "erves": 2077,
      "ervation": 2078,
      "eries": 2079,
      "ene": 2080,
      "enge": 2081,
      "enough": 2082,
      "algorithms": 2083,
      "argu": 2084,
      "artist": 2085,
      "estions": 2086,
      "itself": 2087,
      "left": 2088,
      "owls": 2089,
      "ram": 2090,
      "raise": 2091,
      "races": 2092,
      "stay": 2093,
      "stree": 2094,
      "stack": 2095,
      "stability": 2096,
      "cresc": 2097,
      "creases": 2098,
      "ass": 2099,
      "astic": 2100,
      "living": 2101,
      "lience": 2102,
      "lding": 2103,
      "shall": 2104,
      "dead": 2105,
      "decl": 2106,
      "develo": 2107,
      "demand": 2108,
      "set": 2109,
      "seen": 2110,
      "chall": 2111,
      "chase": 2112,
      "medi": 2113,
      "forget": 2114,
      "llo": 2115,
      "abol": 2116,
      "above": 2117,
      "flair": 2118,
      "ket": 2119,
      "getting": 2120,
      "nore": 2121,
      "nothing": 2122,
      "unks": 2123,
      "plac": 2124,
      "action": 2125,
      "accu": 2126,
      "acked": 2127,
      "sup": 2128,
      "subs": 2129,
      "weak": 2130,
      "moths": 2131,
      "prove": 2132,
      "process": 2133,
      "common": 2134,
      "combin": 2135,
      "neural": 2136,
      "vious": 2137,
      "These": 2138,
      "appe": 2139,
      "apply": 2140,
      "fects": 2141,
      "nds": 2142,
      "saving": 2143,
      "steps": 2144,
      "urally": 2145,
      "existen": 2146,
      "expres": 2147,
      "improve": 2148,
      "iloso": 2149,
      "ined": 2150,
      "ineer": 2151,
      "sprinkle": 2152,
      "dote": 2153,
      "dist": 2154,
      "fail": 2155,
      "father": 2156,
      "gies": 2157,
      "give": 2158,
      "eprint": 2159,
      "dense": 2160,
      "ames": 2161,
      "amoun": 2162,
      "rush": 2163,
      "ruins": 2164,
      "waste": 2165,
      "nigh": 2166,
      "posi": 2167,
      "popul": 2168,
      "simpl": 2169,
      "redu": 2170,
      "perspe": 2171,
      "Well": 2172,
      "philoso": 2173,
      "mindless": 2174,
      "Break": 2175,
      "ground": 2176,
      "prep": 2177,
      "previous": 2178,
      "desire": 2179,
      "wondered": 2180,
      "thank": 2181,
      "mental": 2182,
      "format": 2183,
      "goal": 2184,
      "everyone": 2185,
      "everywhere": 2186,
      "concer": 2187,
      "concave": 2188,
      "big": 2189,
      "bilities": 2190,
      "parabol": 2191,
      "passed": 2192,
      "smi": 2193,
      "istles": 2194,
      "brigh": 2195,
      "142": 2196,
      "Dividing": 2197,
      "multiply": 2198,
      "Substi": 2199,
      "lake": 2200,
      "trends": 2201,
      "missing": 2202,
      "compound": 2203,
      "surface": 2204,
      "Hehe": 2205,
      "quite": 2206,
      "check": 2207,
      "months": 2208,
      "sharp": 2209,
      "sharing": 2210,
      "Subtracting": 2211,
      "ignore": 2212,
      "naturally": 2213,
      "favorable": 2214,
      "curious": 2215,
      "wonderfully": 2216,
      "basically": 2217,
      "later": 2218,
      "mention": 2219,
      "micro": 2220,
      "cept": 2221,
      "wrong": 2222,
      "writing": 2223,
      "intentional": 2224,
      "solve": 2225,
      "example": 2226,
      "strength": 2227,
      "166": 2228,
      "fund": 2229,
      "great": 2230,
      "greater": 2231,
      "saying": 2232,
      "signature": 2233,
      "universe": 2234,
      "subtle": 2235,
      "silently": 2236,
      "habitat": 2237,
      "puzz": 2238,
      "protecting": 2239,
      "expressing": 2240,
      "statements": 2241,
      "model": 2242,
      "possibilities": 2243,
      "bining": 2244,
      "sens": 2245,
      "1000": 2246,
      "Comp": 2247,
      "Combining": 2248,
      "reflect": 2249,
      "whisk": 2250,
      "particle": 2251,
      "fragments": 2252,
      "Everyone": 2253,
      "awkward": 2254,
      "blueprint": 2255,
      "easier": 2256,
      "falling": 2257,
      "glad": 2258,
      "homework": 2259,
      "watching": 2260,
      "engineer": 2261,
      "maybe": 2262,
      "probability": 2263,
      "protects": 2264,
      "family": 2265,
      "feelings": 2266,
      "formulas": 2267,
      "birthday": 2268,
      "769230": 2269,
      "Setting": 2270,
      "With": 2271,
      "referencing": 2272,
      "vegetation": 2273,
      "style": 2274,
      "advent": 2275,
      "abilities": 2276,
      "floor": 2277,
      "mysterious": 2278,
      "vibrations": 2279,
      "excitement": 2280,
      "fifth": 2281,
      "practical": 2282,
      "Considered": 2283,
      "Basically": 2284,
      "Humans": 2285,
      "certain": 2286,
      "edible": 2287,
      "honest": 2288,
      "hidden": 2289,
      "thirty": 2290,
      "relevant": 2291,
      "resilience": 2292,
      "crescent": 2293,
      "challenge": 2294,
      "accurate": 2295,
      "substit": 2296,
      "combinations": 2297,
      "existence": 2298,
      "expression": 2299,
      "amounts": 2300,
      "parabola": 2301,
      "Substituting": 2302,
      "puzzle": 2303,
      "!\"": 2304,
      "!).": 2305,
      "125": 2306,
      "60": 2307,
      "63": 2308,
      "96": 2309,
      "9x": 2310,
      "Aw": 2311,
      "Ath": 2312,
      "Aure": 2313,
      "Avoid": 2314,
      "Bu": 2315,
      "Ben": 2316,
      "Bet": 2317,
      "Ch": 2318,
      "Cul": 2319,
      "Do": 2320,
      "Dr": 2321,
      "Fin": 2322,
      "Go": 2323,
      "Goo": 2324,
      "Gry": 2325,
      "HT": 2326,
      "Hi": 2327,
      "Its": 2328,
      "Keep": 2329,
      "Ma": 2330,
      "Mess": 2331,
      "More": 2332,
      "Na": 2333,
      "On": 2334,
      "Or": 2335,
      "Old": 2336,
      "Ph": 2337,
      "Pl": 2338,
      "Pra": 2339,
      "Pay": 2340,
      "Power": 2341,
      "Rom": 2342,
      "Rarely": 2343,
      "Seek": 2344,
      "Stick": 2345,
      "TP": 2346,
      "To": 2347,
      "Vin": 2348,
      "Wr": 2349,
      "Want": 2350,
      "Where": 2351,
      "Wild": 2352,
      "aes": 2353,
      "ast": 2354,
      "amy": 2355,
      "asts": 2356,
      "aples": 2357,
      "ahead": 2358,
      "ban": 2359,
      "bar": 2360,
      "bits": 2361,
      "bles": 2362,
      "backs": 2363,
      "backed": 2364,
      "cr": 2365,
      "cum": 2366,
      "cur": 2367,
      "cest": 2368,
      "cted": 2369,
      "case": 2370,
      "cating": 2371,
      "came": 2372,
      "ccess": 2373,
      "dden": 2374,
      "drain": 2375,
      "dama": 2376,
      "dinner": 2377,
      "egg": 2378,
      "evalu": 2379,
      "fers": 2380,
      "ges": 2381,
      "gation": 2382,
      "gain": 2383,
      "gdal": 2384,
      "ggies": 2385,
      "games": 2386,
      "hi": 2387,
      "hes": 2388,
      "hit": 2389,
      "hits": 2390,
      "hip": 2391,
      "horm": 2392,
      "ial": 2393,
      "ius": 2394,
      "ited": 2395,
      "iet": 2396,
      "ju": 2397,
      "jour": 2398,
      "jam": 2399,
      "jack": 2400,
      "jured": 2401,
      "kni": 2402,
      "knew": 2403,
      "kitch": 2404,
      "lt": 2405,
      "lin": 2406,
      "mor": 2407,
      "mit": 2408,
      "mad": 2409,
      "mood": 2410,
      "mming": 2411,
      "mmoths": 2412,
      "nt": 2413,
      "ny": 2414,
      "nad": 2415,
      "nee": 2416,
      "nut": 2417,
      "navi": 2418,
      "od": 2419,
      "ox": 2420,
      "ope": 2421,
      "oper": 2422,
      "otic": 2423,
      "oils": 2424,
      "pes": 2425,
      "pus": 2426,
      "pam": 2427,
      "pment": 2428,
      "packs": 2429,
      "paren": 2430,
      "peek": 2431,
      "rul": 2432,
      "sou": 2433,
      "sal": 2434,
      "sto": 2435,
      "sus": 2436,
      "stop": 2437,
      "schol": 2438,
      "source": 2439,
      "ton": 2440,
      "tow": 2441,
      "tch": 2442,
      "ual": 2443,
      "ues": 2444,
      "ures": 2445,
      "ups": 2446,
      "uine": 2447,
      "van": 2448,
      "wro": 2449,
      "wave": 2450,
      "wink": 2451,
      "xiet": 2452,
      "yes": 2453,
      "yze": 2454,
      "ychol": 2455,
      "’.": 2456,
      "inst": 2457,
      "insi": 2458,
      "info": 2459,
      "iness": 2460,
      "inven": 2461,
      "infinite": 2462,
      "incorporate": 2463,
      "inions": 2464,
      "thes": 2465,
      "thous": 2466,
      "thless": 2467,
      "thod": 2468,
      "rew": 2469,
      "rece": 2470,
      "rebe": 2471,
      "really": 2472,
      "repre": 2473,
      "rection": 2474,
      "repay": 2475,
      "reward": 2476,
      "rehear": 2477,
      "reject": 2478,
      "revis": 2479,
      "reshaped": 2480,
      "refund": 2481,
      "tem": 2482,
      "test": 2483,
      "anno": 2484,
      "anation": 2485,
      "ances": 2486,
      "antom": 2487,
      "ancest": 2488,
      "anxiet": 2489,
      "tially": 2490,
      "tize": 2491,
      "ont": 2492,
      "ergy": 2493,
      "ends": 2494,
      "ended": 2495,
      "enters": 2496,
      "encou": 2497,
      "energy": 2498,
      "alle": 2499,
      "alone": 2500,
      "alog": 2501,
      "almost": 2502,
      "alive": 2503,
      "isol": 2504,
      "ars": 2505,
      "arch": 2506,
      "arted": 2507,
      "arrange": 2508,
      "andma": 2509,
      "essed": 2510,
      "orical": 2511,
      "orange": 2512,
      "ordering": 2513,
      "thetic": 2514,
      "thearted": 2515,
      "vement": 2516,
      "veggies": 2517,
      "itten": 2518,
      "let": 2519,
      "lets": 2520,
      "legit": 2521,
      "letes": 2522,
      "ata": 2523,
      "rase": 2524,
      "radi": 2525,
      "rather": 2526,
      "rates": 2527,
      "rarely": 2528,
      "stu": 2529,
      "stri": 2530,
      "strange": 2531,
      "staples": 2532,
      "create": 2533,
      "asing": 2534,
      "aspe": 2535,
      "aspect": 2536,
      "rice": 2537,
      "rition": 2538,
      "rivers": 2539,
      "lius": 2540,
      "uly": 2541,
      "ulsive": 2542,
      "withdra": 2543,
      "oose": 2544,
      "oozing": 2545,
      "shes": 2546,
      "ship": 2547,
      "definite": 2548,
      "depri": 2549,
      "setting": 2550,
      "sight": 2551,
      "sibling": 2552,
      "chang": 2553,
      "chills": 2554,
      "chunks": 2555,
      "chasing": 2556,
      "queries": 2557,
      "meal": 2558,
      "method": 2559,
      "roof": 2560,
      "rogation": 2561,
      "addi": 2562,
      "addition": 2563,
      "bered": 2564,
      "begin": 2565,
      "belie": 2566,
      "beasts": 2567,
      "uses": 2568,
      "usually": 2569,
      "fort": 2570,
      "forgot": 2571,
      "lls": 2572,
      "llag": 2573,
      "ablis": 2574,
      "flash": 2575,
      "flaw": 2576,
      "genius": 2577,
      "genuine": 2578,
      "mmarize": 2579,
      "notice": 2580,
      "vert": 2581,
      "myself": 2582,
      "conversation": 2583,
      "conjured": 2584,
      "convert": 2585,
      "gradu": 2586,
      "ung": 2587,
      "units": 2588,
      "irm": 2589,
      "accept": 2590,
      "dividing": 2591,
      "diary": 2592,
      "direction": 2593,
      "dialog": 2594,
      "mares": 2595,
      "mammoths": 2596,
      "output": 2597,
      "ternal": 2598,
      "sugar": 2599,
      "success": 2600,
      "areness": 2601,
      "ween": 2602,
      "weigh": 2603,
      "moves": 2604,
      "movement": 2605,
      "proper": 2606,
      "proves": 2607,
      "proving": 2608,
      "aurant": 2609,
      "coming": 2610,
      "commen": 2611,
      "competi": 2612,
      "comfort": 2613,
      "ression": 2614,
      "rescent": 2615,
      "neur": 2616,
      "entrepre": 2617,
      "view": 2618,
      "villag": 2619,
      "cipes": 2620,
      "Three": 2621,
      "Those": 2622,
      "worship": 2623,
      "tens": 2624,
      "tentially": 2625,
      "applied": 2626,
      "trains": 2627,
      "felt": 2628,
      "fetch": 2629,
      "indly": 2630,
      "indol": 2631,
      "ogists": 2632,
      "antastic": 2633,
      "steals": 2634,
      "expect": 2635,
      "external": 2636,
      "psychol": 2637,
      "tware": 2638,
      "laugh": 2639,
      "essing": 2640,
      "vents": 2641,
      "spent": 2642,
      "space": 2643,
      "door": 2644,
      "dopam": 2645,
      "distract": 2646,
      "distur": 2647,
      "discover": 2648,
      "dishes": 2649,
      "discomfort": 2650,
      "fair": 2651,
      "fault": 2652,
      "giving": 2653,
      "giene": 2654,
      "cultur": 2655,
      "update": 2656,
      "cles": 2657,
      "clas": 2658,
      "close": 2659,
      "clock": 2660,
      "dents": 2661,
      "ampus": 2662,
      "ruthless": 2663,
      "pop": 2664,
      "pose": 2665,
      "potentially": 2666,
      "forever": 2667,
      "videos": 2668,
      "renting": 2669,
      "loves": 2670,
      "loans": 2671,
      "arding": 2672,
      "memorable": 2673,
      "phers": 2674,
      "phantom": 2675,
      "phrase": 2676,
      "establis": 2677,
      "mindset": 2678,
      "score": 2679,
      "scram": 2680,
      "grind": 2681,
      "grandma": 2682,
      "overstimulation": 2683,
      "prey": 2684,
      "prevents": 2685,
      "humility": 2686,
      "numbed": 2687,
      "ctives": 2688,
      "finally": 2689,
      "finish": 2690,
      "finances": 2691,
      "pens": 2692,
      "Marcus": 2693,
      "Social": 2694,
      "evenings": 2695,
      "sleeping": 2696,
      "useful": 2697,
      "forming": 2698,
      "clean": 2699,
      "ggers": 2700,
      "llious": 2701,
      "Sudden": 2702,
      "Summarize": 2703,
      "Starting": 2704,
      "Multitasking": 2705,
      "ify": 2706,
      "paralle": 2707,
      "ponents": 2708,
      "truly": 2709,
      "choosing": 2710,
      "valued": 2711,
      "calms": 2712,
      "spect": 2713,
      "istency": 2714,
      "asets": 2715,
      "Notifications": 2716,
      "Notice": 2717,
      "treating": 2718,
      "entists": 2719,
      "bristles": 2720,
      "misinformation": 2721,
      "mislead": 2722,
      "remembered": 2723,
      "compan": 2724,
      "compounds": 2725,
      "compulsive": 2726,
      "teens": 2727,
      "responses": 2728,
      "turally": 2729,
      "turning": 2730,
      "reading": 2731,
      "took": 2732,
      "quiet": 2733,
      "news": 2734,
      "Reality": 2735,
      "Replace": 2736,
      "Reaction": 2737,
      "Recipes": 2738,
      "chef": 2739,
      "checks": 2740,
      "chemic": 2741,
      "mones": 2742,
      "preserves": 2743,
      "sharpens": 2744,
      "humanity": 2745,
      "foodies": 2746,
      "facial": 2747,
      "holding": 2748,
      "hoarding": 2749,
      "nesses": 2750,
      "pulling": 2751,
      "stars": 2752,
      "connections": 2753,
      "nightmares": 2754,
      "?”,": 2755,
      "schools": 2756,
      "showing": 2757,
      "between": 2758,
      "workspace": 2759,
      "decision": 2760,
      "basics": 2761,
      "datasets": 2762,
      "ipts": 2763,
      "mented": 2764,
      "tricks": 2765,
      "triggers": 2766,
      "struggle": 2767,
      "respectfully": 2768,
      "emotionally": 2769,
      "productive": 2770,
      "disciplined": 2771,
      "frame": 2772,
      "options": 2773,
      "opinions": 2774,
      "written": 2775,
      "intentionally": 2776,
      "leaking": 2777,
      "leaks": 2778,
      "leaving": 2779,
      "moderation": 2780,
      "explain": 2781,
      "explanation": 2782,
      "essentials": 2783,
      "clearly": 2784,
      "strengths": 2785,
      "Resist": 2786,
      "blend": 2787,
      "blindly": 2788,
      "mastery": 2789,
      "opens": 2790,
      "vision": 2791,
      "decides": 2792,
      "signing": 2793,
      "signals": 2794,
      "subject": 2795,
      "spot": 2796,
      "takeout": 2797,
      "Study": 2798,
      "Students": 2799,
      "schoolwork": 2800,
      "Questions": 2801,
      "jection": 2802,
      "looks": 2803,
      "mates": 2804,
      "muscles": 2805,
      "puts": 2806,
      "talking": 2807,
      "talks": 2808,
      "inspi": 2809,
      "require": 2810,
      "anything": 2811,
      "chaotic": 2812,
      "manageable": 2813,
      "against": 2814,
      "Asking": 2815,
      "Uninst": 2816,
      "boost": 2817,
      "drives": 2818,
      "drift": 2819,
      "freedom": 2820,
      "portions": 2821,
      "pays": 2822,
      "recover": 2823,
      "antica": 2824,
      "confuse": 2825,
      "confused": 2826,
      "confusion": 2827,
      "weirdly": 2828,
      "memorize": 2829,
      "magically": 2830,
      "healthy": 2831,
      "affects": 2832,
      "airing": 2833,
      "crash": 2834,
      "craves": 2835,
      "cramming": 2836,
      "hermit": 2837,
      "senten": 2838,
      "limit": 2839,
      "limited": 2840,
      "debt": 2841,
      "debated": 2842,
      "debating": 2843,
      "Franklin": 2844,
      "system": 2845,
      "Conversation": 2846,
      "friends": 2847,
      "hype": 2848,
      "hygiene": 2849,
      "mercy": 2850,
      "obsessed": 2851,
      "obsessing": 2852,
      "purple": 2853,
      "purpose": 2854,
      "snoozing": 2855,
      "reflective": 2856,
      "levels": 2857,
      "wildly": 2858,
      "whispers": 2859,
      "impulses": 2860,
      "switching": 2861,
      "switches": 2862,
      "fragmented": 2863,
      "uniquely": 2864,
      "consistency": 2865,
      "screens": 2866,
      "daily": 2867,
      "feeds": 2868,
      "hunting": 2869,
      "miles": 2870,
      "shell": 2871,
      "velocity": 2872,
      "leaders": 2873,
      "planning": 2874,
      "sugges": 2875,
      "suggest": 2876,
      "buzzword": 2877,
      "housekeeping": 2878,
      "environments": 2879,
      "Cool": 2880,
      "Cooking": 2881,
      "Restaurant": 2882,
      "Tech": 2883,
      "Tell": 2884,
      "bonded": 2885,
      "blocks": 2886,
      "history": 2887,
      "historical": 2888,
      "job": 2889,
      "logical": 2890,
      "pathways": 2891,
      "slows": 2892,
      "slowly": 2893,
      "vault": 2894,
      "walking": 2895,
      "woman": 2896,
      "women": 2897,
      "window": 2898,
      "windling": 2899,
      "thick": 2900,
      "resetting": 2901,
      "lights": 2902,
      "lighthearted": 2903,
      "roommates": 2904,
      "trapped": 2905,
      "burns": 2906,
      "burnt": 2907,
      "safety": 2908,
      "pocket": 2909,
      "pocampus": 2910,
      "transfers": 2911,
      "999999999999": 2912,
      "structure": 2913,
      "strengthening": 2914,
      "priorities": 2915,
      "prioritize": 2916,
      "stronger": 2917,
      "momentum": 2918,
      "Apps": 2919,
      "Default": 2920,
      "broad": 2921,
      "course": 2922,
      "country": 2923,
      "elders": 2924,
      "front": 2925,
      "hormones": 2926,
      "matters": 2927,
      "slower": 2928,
      "software": 2929,
      "snowballs": 2930,
      "swirl": 2931,
      "thumbs": 2932,
      "antidote": 2933,
      "actively": 2934,
      "treasure": 2935,
      "friendly": 2936,
      "massively": 2937,
      "separates": 2938,
      "beautiful": 2939,
      "Creative": 2940,
      "Consistency": 2941,
      "Growth": 2942,
      "Knowing": 2943,
      "busy": 2944,
      "files": 2945,
      "greeting": 2946,
      "gestured": 2947,
      "harder": 2948,
      "izes": 2949,
      "sorts": 2950,
      "slips": 2951,
      "spikes": 2952,
      "warned": 2953,
      "interrogation": 2954,
      "throwing": 2955,
      "repairing": 2956,
      "analyze": 2957,
      "argue": 2958,
      "assist": 2959,
      "deadlines": 2960,
      "declutter": 2961,
      "development": 2962,
      "demands": 2963,
      "media": 2964,
      "weaknesses": 2965,
      "appeared": 2966,
      "rushing": 2967,
      "nighters": 2968,
      "population": 2969,
      "simplest": 2970,
      "reducing": 2971,
      "perspectives": 2972,
      "philosophers": 2973,
      "Compound": 2974,
      "awkwardness": 2975,
      "adventure": 2976,
      "certainty": 2977,
      "Awareness": 2978,
      "Athletes": 2979,
      "Aurelius": 2980,
      "Benjam": 2981,
      "Better": 2982,
      "Choose": 2983,
      "Culturally": 2984,
      "Financial": 2985,
      "Goal": 2986,
      "Google": 2987,
      "Gryce": 2988,
      "HTTP": 2989,
      "Hii": 2990,
      "Nah": 2991,
      "Older": 2992,
      "Phone": 2993,
      "Plus": 2994,
      "Practice": 2995,
      "Paying": 2996,
      "Powerful": 2997,
      "Romantica": 2998,
      "Vinci": 2999,
      "Writing": 3000,
      "aesthetic": 3001,
      "amygdal": 3002,
      "bark": 3003,
      "damage": 3004,
      "eggs": 3005,
      "evaluate": 3006,
      "hijack": 3007,
      "hippocampus": 3008,
      "hormone": 3009,
      "juggle": 3010,
      "journals": 3011,
      "knife": 3012,
      "kitchen": 3013,
      "morning": 3014,
      "needed": 3015,
      "nutrition": 3016,
      "parents": 3017,
      "soul": 3018,
      "salt": 3019,
      "stops": 3020,
      "suss": 3021,
      "scholars": 3022,
      "tonight": 3023,
      "toward": 3024,
      "wrote": 3025,
      "invention": 3026,
      "thousand": 3027,
      "receipts": 3028,
      "rebellious": 3029,
      "repayment": 3030,
      "rewards": 3031,
      "rehearsed": 3032,
      "rejecting": 3033,
      "revising": 3034,
      "annoyed": 3035,
      "ancestors": 3036,
      "anxiety": 3037,
      "encoura": 3038,
      "aspects": 3039,
      "withdrawal": 3040,
      "deprived": 3041,
      "siblings": 3042,
      "addictive": 3043,
      "believe": 3044,
      "forgotten": 3045,
      "flaws": 3046,
      "genuinely": 3047,
      "graduate": 3048,
      "dialogues": 3049,
      "successful": 3050,
      "property": 3051,
      "commend": 3052,
      "competitive": 3053,
      "entrepreneur": 3054,
      "expectations": 3055,
      "externalizes": 3056,
      "psychologists": 3057,
      "dopamine": 3058,
      "disturb": 3059,
      "cultural": 3060,
      "updates": 3061,
      "established": 3062,
      "scrambling": 3063,
      "Suddenly": 3064,
      "parallel": 3065,
      "chemicals": 3066,
      "Uninstall": 3067,
      "Defaulting": 3068,
      "Benjamin": 3069,
      "amygdala": 3070,
      "!*": 3071,
      "\".": 3072,
      ")²": 3073,
      ")³": 3074,
      "*?": 3075,
      "00": 3076,
      "04": 3077,
      "08": 3078,
      "0769230": 3079,
      "130": 3080,
      "1999999999999": 3081,
      "235": 3082,
      "268": 3083,
      "37": 3084,
      "3y": 3085,
      "327": 3086,
      "347": 3087,
      "3125": 3088,
      "4347": 3089,
      "59": 3090,
      "521": 3091,
      "66": 3092,
      "640": 3093,
      "6521": 3094,
      "79": 3095,
      "739": 3096,
      "81": 3097,
      "83": 3098,
      "88": 3099,
      "896": 3100,
      "8235": 3101,
      "866": 3102,
      "94": 3103,
      "91999999999999": 3104,
      "?'.": 3105,
      "Ah": 3106,
      "City": 3107,
      "Calcul": 3108,
      "Coun": 3109,
      "Crescent": 3110,
      "Deep": 3111,
      "Data": 3112,
      "Evalu": 3113,
      "Feed": 3114,
      "Gree": 3115,
      "Give": 3116,
      "Hill": 3117,
      "Imag": 3118,
      "Mo": 3119,
      "Mach": 3120,
      "Ne": 3121,
      "Now": 3122,
      "Net": 3123,
      "O2": 3124,
      "Okay": 3125,
      "Ple": 3126,
      "QL": 3127,
      "Si": 3128,
      "Sk": 3129,
      "Spl": 3130,
      "Sci": 3131,
      "Space": 3132,
      "SQL": 3133,
      "Upon": 3134,
      "Yes": 3135,
      "av": 3136,
      "ato": 3137,
      "aves": 3138,
      "ained": 3139,
      "ba": 3140,
      "bal": 3141,
      "bly": 3142,
      "bine": 3143,
      "base": 3144,
      "bility": 3145,
      "bird": 3146,
      "bbling": 3147,
      "bbles": 3148,
      "cat": 3149,
      "cas": 3150,
      "cate": 3151,
      "cation": 3152,
      "cap": 3153,
      "cach": 3154,
      "cose": 3155,
      "dx": 3156,
      "dan": 3157,
      "dred": 3158,
      "dang": 3159,
      "dwindling": 3160,
      "ei": 3161,
      "eth": 3162,
      "ean": 3163,
      "etra": 3164,
      "eath": 3165,
      "eigh": 3166,
      "ecos": 3167,
      "fab": 3168,
      "feet": 3169,
      "found": 3170,
      "firm": 3171,
      "fantastic": 3172,
      "gan": 3173,
      "gad": 3174,
      "gir": 3175,
      "glu": 3176,
      "gment": 3177,
      "glow": 3178,
      "gression": 3179,
      "hen": 3180,
      "hous": 3181,
      "hill": 3182,
      "hide": 3183,
      "high": 3184,
      "hills": 3185,
      "ion": 3186,
      "ili": 3187,
      "iest": 3188,
      "jar": 3189,
      "lar": 3190,
      "lind": 3191,
      "lous": 3192,
      "loud": 3193,
      "leng": 3194,
      "large": 3195,
      "mes": 3196,
      "mild": 3197,
      "nor": 3198,
      "nit": 3199,
      "ncy": 3200,
      "nthes": 3201,
      "oti": 3202,
      "overy": 3203,
      "ored": 3204,
      "okay": 3205,
      "prom": 3206,
      "past": 3207,
      "ring": 3208,
      "rust": 3209,
      "rup": 3210,
      "sat": 3211,
      "sun": 3212,
      "sent": 3213,
      "sine": 3214,
      "ssy": 3215,
      "sorrow": 3216,
      "stick": 3217,
      "ssom": 3218,
      "tun": 3219,
      "tap": 3220,
      "tless": 3221,
      "twir": 3222,
      "usi": 3223,
      "udes": 3224,
      "uck": 3225,
      "vs": 3226,
      "win": 3227,
      "wand": 3228,
      "wra": 3229,
      "whel": 3230,
      "wist": 3231,
      "wings": 3232,
      "waves": 3233,
      "xing": 3234,
      "xim": 3235,
      "yste": 3236,
      "²)²": 3237,
      "³)³": 3238,
      "inse": 3239,
      "ination": 3240,
      "inject": 3241,
      "incomplete": 3242,
      "increases": 3243,
      "inputs": 3244,
      "thusi": 3245,
      "reli": 3246,
      "remind": 3247,
      "reuse": 3248,
      "reite": 3249,
      "replace": 3250,
      "repeti": 3251,
      "replac": 3252,
      "review": 3253,
      "rephrase": 3254,
      "rejection": 3255,
      "recommend": 3256,
      "regression": 3257,
      "teri": 3258,
      "tely": 3259,
      "another": 3260,
      "till": 3261,
      "onto": 3262,
      "ouche": 3263,
      "err": 3264,
      "erous": 3265,
      "ented": 3266,
      "encing": 3267,
      "enthusi": 3268,
      "alar": 3269,
      "alig": 3270,
      "already": 3271,
      "ari": 3272,
      "arging": 3273,
      "orab": 3274,
      "thered": 3275,
      "vect": 3276,
      "vered": 3277,
      "velous": 3278,
      "owe": 3279,
      "tosy": 3280,
      "total": 3281,
      "att": 3282,
      "atmo": 3283,
      "raction": 3284,
      "stori": 3285,
      "stam": 3286,
      "stain": 3287,
      "stature": 3288,
      "strew": 3289,
      "ceive": 3290,
      "asant": 3291,
      "ased": 3292,
      "heart": 3293,
      "height": 3294,
      "hello": 3295,
      "wide": 3296,
      "ries": 3297,
      "ribbles": 3298,
      "aten": 3299,
      "ately": 3300,
      "lid": 3301,
      "lived": 3302,
      "ular": 3303,
      "ulous": 3304,
      "sho": 3305,
      "shines": 3306,
      "debu": 3307,
      "depre": 3308,
      "defin": 3309,
      "detect": 3310,
      "delive": 3311,
      "decreases": 3312,
      "delights": 3313,
      "sett": 3314,
      "segment": 3315,
      "ching": 3316,
      "chat": 3317,
      "chuck": 3318,
      "charging": 3319,
      "quanti": 3320,
      "quoti": 3321,
      "marvelous": 3322,
      "mere": 3323,
      "meet": 3324,
      "metap": 3325,
      "role": 3326,
      "royed": 3327,
      "ades": 3328,
      "adorable": 3329,
      "adapt": 3330,
      "adorab": 3331,
      "beings": 3332,
      "belong": 3333,
      "whim": 3334,
      "forts": 3335,
      "forms": 3336,
      "forcing": 3337,
      "llap": 3338,
      "absolu": 3339,
      "gently": 3340,
      "key": 3341,
      "nobody": 3342,
      "conten": 3343,
      "contem": 3344,
      "conceive": 3345,
      "unt": 3346,
      "unit": 3347,
      "unknow": 3348,
      "unlo": 3349,
      "unheal": 3350,
      "undul": 3351,
      "untang": 3352,
      "plation": 3353,
      "flowers": 3354,
      "acle": 3355,
      "acknowled": 3356,
      "divide": 3357,
      "maps": 3358,
      "terran": 3359,
      "sustain": 3360,
      "web": 3361,
      "weaving": 3362,
      "mossy": 3363,
      "soon": 3364,
      "solid": 3365,
      "comma": 3366,
      "combine": 3367,
      "rescu": 3368,
      "resource": 3369,
      "plexing": 3370,
      "vice": 3371,
      "vidu": 3372,
      "umber": 3373,
      "tend": 3374,
      "appre": 3375,
      "traction": 3376,
      "tracks": 3377,
      "feath": 3378,
      "ogical": 3379,
      "saw": 3380,
      "perplexing": 3381,
      "thinks": 3382,
      "thiness": 3383,
      "exist": 3384,
      "exponents": 3385,
      "essence": 3386,
      "Xeno": 3387,
      "romantic": 3388,
      "ometri": 3389,
      "spin": 3390,
      "sphere": 3391,
      "docum": 3392,
      "dolls": 3393,
      "disco": 3394,
      "distill": 3395,
      "faint": 3396,
      "equations": 3397,
      "fied": 3398,
      "field": 3399,
      "giant": 3400,
      "cube": 3401,
      "white": 3402,
      "cano": 3403,
      "taken": 3404,
      "timed": 3405,
      "nites": 3406,
      "nibbling": 3407,
      "simpli": 3408,
      "interaction": 3409,
      "loc": 3410,
      "pho": 3411,
      "scar": 3412,
      "scope": 3413,
      "scalar": 3414,
      "scribbles": 3415,
      "personal": 3416,
      "fici": 3417,
      "grou": 3418,
      "overwhel": 3419,
      "premon": 3420,
      "buildings": 3421,
      "humming": 3422,
      "wonders": 3423,
      "financial": 3424,
      "1280": 3425,
      "penetra": 3426,
      "magnit": 3427,
      "superposi": 3428,
      "supercharging": 3429,
      "clever": 3430,
      "going": 3431,
      "happen": 3432,
      "duality": 3433,
      "ggest": 3434,
      "plies": 3435,
      "plication": 3436,
      "concaten": 3437,
      "guess": 3438,
      "parts": 3439,
      "parame": 3440,
      "whole": 3441,
      "skip": 3442,
      "Adjust": 3443,
      "Addition": 3444,
      "cylind": 3445,
      "tiniest": 3446,
      "choose": 3447,
      "interesting": 3448,
      "values": 3449,
      "brief": 3450,
      "calm": 3451,
      "148": 3452,
      "multiplied": 3453,
      "produce": 3454,
      "trees": 3455,
      "seems": 3456,
      "underground": 3457,
      "passages": 3458,
      "243": 3459,
      "brings": 3460,
      "misuse": 3461,
      "tesy": 3462,
      "compute": 3463,
      "Adding": 3464,
      "ounded": 3465,
      "silencing": 3466,
      "adding": 3467,
      "**!": 3468,
      "**,": 3469,
      "Hello": 3470,
      "efforts": 3471,
      "effici": 3472,
      "standard": 3473,
      "brilliance": 3474,
      "Reaf": 3475,
      "ditching": 3476,
      "sym": 3477,
      "decades": 3478,
      "faces": 3479,
      "ignites": 3480,
      "connect": 3481,
      "derivatives": 3482,
      "brilliantly": 3483,
      "Simply": 3484,
      "landing": 3485,
      "landed": 3486,
      "showed": 3487,
      "doesn": 3488,
      "ipping": 3489,
      "latency": 3490,
      "trick": 3491,
      "trigon": 3492,
      "versus": 3493,
      "297": 3494,
      "2941": 3495,
      "wrung": 3496,
      "explor": 3497,
      "explore": 3498,
      "explained": 3499,
      "distraction": 3500,
      "physical": 3501,
      "163": 3502,
      "function": 3503,
      "funds": 3504,
      "funny": 3505,
      "grew": 3506,
      "grey": 3507,
      "layman": 3508,
      "masters": 3509,
      "opened": 3510,
      "accent": 3511,
      "subtly": 3512,
      "subterran": 3513,
      "spoken": 3514,
      "Simplifying": 3515,
      "1764": 3516,
      "born": 3517,
      "emer": 3518,
      "embark": 3519,
      "kindly": 3520,
      "looking": 3521,
      "puff": 3522,
      "tells": 3523,
      "telling": 3524,
      "angles": 3525,
      "secrets": 3526,
      "4xy": 3527,
      "beneath": 3528,
      "drive": 3529,
      "driving": 3530,
      "single": 3531,
      "recall": 3532,
      "recovery": 3533,
      "clarify": 3534,
      "memorizing": 3535,
      "touches": 3536,
      "after": 3537,
      "affirm": 3538,
      "sensi": 3539,
      "teaches": 3540,
      "limits": 3541,
      "integration": 3542,
      "understandable": 3543,
      "birds": 3544,
      "observation": 3545,
      "purring": 3546,
      "remains": 3547,
      "streams": 3548,
      "growth": 3549,
      "particles": 3550,
      "particular": 3551,
      "benefit": 3552,
      "136": 3553,
      "athering": 3554,
      "blushes": 3555,
      "code": 3556,
      "collap": 3557,
      "cars": 3558,
      "carry": 3559,
      "dgeting": 3560,
      "hundred": 3561,
      "imagination": 3562,
      "milk": 3563,
      "million": 3564,
      "includes": 3565,
      "changed": 3566,
      "treats": 3567,
      "buzzes": 3568,
      "smartphone": 3569,
      "environment": 3570,
      "environmental": 3571,
      "bonding": 3572,
      "blossom": 3573,
      "carefully": 3574,
      "cosine": 3575,
      "joke": 3576,
      "logging": 3577,
      "vast": 3578,
      "vista": 3579,
      "research": 3580,
      "probabilities": 3581,
      "safely": 3582,
      "famili": 3583,
      "formula": 3584,
      "transforms": 3585,
      "structured": 3586,
      "3333333333333333": 3587,
      "complexity": 3588,
      "birthdate": 3589,
      "7693": 3590,
      "Algorithms": 3591,
      "Apply": 3592,
      "Decrease": 3593,
      "couple": 3594,
      "courtesy": 3595,
      "dull": 3596,
      "dreams": 3597,
      "dreaming": 3598,
      "frown": 3599,
      "farm": 3600,
      "gathered": 3601,
      "much": 3602,
      "music": 3603,
      "prise": 3604,
      "proud": 3605,
      "slumber": 3606,
      "soft": 3607,
      "swirly": 3608,
      "thumb": 3609,
      "approach": 3610,
      "approxim": 3611,
      "budgeting": 3612,
      "treasures": 3613,
      "blurry": 3614,
      "glitchy": 3615,
      "separately": 3616,
      "beautifully": 3617,
      "706": 3618,
      "Like": 3619,
      "Life": 3620,
      "Peru": 3621,
      "Perhaps": 3622,
      "causes": 3623,
      "destroyed": 3624,
      "identity": 3625,
      "identify": 3626,
      "patches": 3627,
      "tangled": 3628,
      "individu": 3629,
      "involved": 3630,
      "reinforce": 3631,
      "reinforcing": 3632,
      "street": 3633,
      "streets": 3634,
      "forgetful": 3635,
      "places": 3636,
      "supplies": 3637,
      "processing": 3638,
      "distant": 3639,
      "distance": 3640,
      "failure": 3641,
      "positive": 3642,
      "concern": 3643,
      "concerned": 3644,
      "smile": 3645,
      "smiled": 3646,
      "brighter": 3647,
      "brighten": 3648,
      "sharpest": 3649,
      "sensory": 3650,
      "sensors": 3651,
      "7692307693": 3652,
      "substitution": 3653,
      "substitute": 3654,
      "Budgeting": 3655,
      "Makes": 3656,
      "Only": 3657,
      "banks": 3658,
      "crouche": 3659,
      "gaining": 3660,
      "nada": 3661,
      "navigate": 3662,
      "operate": 3663,
      "rules": 3664,
      "inside": 3665,
      "isolate": 3666,
      "radiance": 3667,
      "study": 3668,
      "strike": 3669,
      "changes": 3670,
      "villages": 3671,
      "indolent": 3672,
      "spaced": 3673,
      "doorway": 3674,
      "classical": 3675,
      "companion": 3676,
      "inspired": 3677,
      "requirements": 3678,
      "sentence": 3679,
      "suggests": 3680,
      "windows": 3681,
      "encouraging": 3682,
      "049": 3683,
      "07692307692307693": 3684,
      "1304347": 3685,
      "26880": 3686,
      "32768": 3687,
      "59049": 3688,
      "6521739": 3689,
      "82352941": 3690,
      "9199999999999999": 3691,
      "Calculating": 3692,
      "Count": 3693,
      "Evaluating": 3694,
      "Feeding": 3695,
      "Imagine": 3696,
      "Most": 3697,
      "Machine": 3698,
      "Neural": 3699,
      "Networks": 3700,
      "Six": 3701,
      "Skipping": 3702,
      "Split": 3703,
      "Scientists": 3704,
      "atoms": 3705,
      "capabilities": 3706,
      "caching": 3707,
      "dancing": 3708,
      "dangerous": 3709,
      "eighteen": 3710,
      "ecosyste": 3711,
      "fabulous": 3712,
      "gadgets": 3713,
      "girl": 3714,
      "glucose": 3715,
      "hension": 3716,
      "houses": 3717,
      "jargon": 3718,
      "length": 3719,
      "nthesis": 3720,
      "prompt": 3721,
      "rupted": 3722,
      "wrap": 3723,
      "wistful": 3724,
      "reminding": 3725,
      "reiterate": 3726,
      "repetition": 3727,
      "replacing": 3728,
      "recommendation": 3729,
      "terized": 3730,
      "vector": 3731,
      "tosynthesis": 3732,
      "atmosphere": 3733,
      "strewn": 3734,
      "deprecating": 3735,
      "definition": 3736,
      "delivered": 3737,
      "settle": 3738,
      "quotient": 3739,
      "metaphor": 3740,
      "adorably": 3741,
      "belongs": 3742,
      "absolutely": 3743,
      "contemplation": 3744,
      "unknown": 3745,
      "unlocking": 3746,
      "unhealthiness": 3747,
      "untangle": 3748,
      "acknowledging": 3749,
      "rescued": 3750,
      "apprehension": 3751,
      "feathers": 3752,
      "ometric": 3753,
      "discovered": 3754,
      "simplified": 3755,
      "premonition": 3756,
      "penetrated": 3757,
      "magnitude": 3758,
      "superposition": 3759,
      "parameterized": 3760,
      "cylinders": 3761,
      "trigonometric": 3762,
      "subterranean": 3763,
      "1764706": 3764,
      "affirmation": 3765,
      "familiar": 3766,
      "approximately": 3767,
      "crouched": 3768,
      "130434783": 3769,
      "6521739130434783": 3770,
      "823529411764706": 3771,
      "ecosystems": 3772
    },
    "merges": [
      [
        "i",
        "n"
      ],
      [
        "t",
        "h"
      ],
      [
        "r",
        "e"
      ],
      [
        "t",
        "e"
      ],
      [
        "a",
        "n"
      ],
      [
        "t",
        "i"
      ],
      [
        "o",
        "n"
      ],
      [
        "o",
        "u"
      ],
      [
        "e",
        "r"
      ],
      [
        "e",
        "n"
      ],
      [
        "in",
        "g"
      ],
      [
        "a",
        "l"
      ],
      [
        "i",
        "s"
      ],
      [
        "a",
        "r"
      ],
      [
        "an",
        "d"
      ],
      [
        "e",
        "s"
      ],
      [
        "o",
        "r"
      ],
      [
        "th",
        "e"
      ],
      [
        "v",
        "e"
      ],
      [
        "i",
        "t"
      ],
      [
        "l",
        "e"
      ],
      [
        "a",
        "ti"
      ],
      [
        "o",
        "f"
      ],
      [
        "o",
        "w"
      ],
      [
        "t",
        "o"
      ],
      [
        "a",
        "t"
      ],
      [
        "r",
        "a"
      ],
      [
        "y",
        "ou"
      ],
      [
        "s",
        "t"
      ],
      [
        "c",
        "re"
      ],
      [
        "c",
        "e"
      ],
      [
        "a",
        "s"
      ],
      [
        "h",
        "e"
      ],
      [
        "w",
        "i"
      ],
      [
        "ati",
        "ve"
      ],
      [
        "o",
        "m"
      ],
      [
        "r",
        "i"
      ],
      [
        "x",
        "t"
      ],
      [
        "a",
        "te"
      ],
      [
        "l",
        "i"
      ],
      [
        "u",
        "l"
      ],
      [
        "l",
        "d"
      ],
      [
        "te",
        "xt"
      ],
      [
        "wi",
        "th"
      ],
      [
        "cre",
        "ative"
      ],
      [
        "o",
        "o"
      ],
      [
        "s",
        "h"
      ],
      [
        "d",
        "e"
      ],
      [
        "l",
        "y"
      ],
      [
        "s",
        "e"
      ],
      [
        "s",
        "i"
      ],
      [
        "c",
        "h"
      ],
      [
        "ti",
        "on"
      ],
      [
        "q",
        "u"
      ],
      [
        "m",
        "ar"
      ],
      [
        "m",
        "e"
      ],
      [
        "r",
        "o"
      ],
      [
        "t",
        "s"
      ],
      [
        "a",
        "d"
      ],
      [
        "b",
        "e"
      ],
      [
        "e",
        "e"
      ],
      [
        "w",
        "h"
      ],
      [
        "u",
        "s"
      ],
      [
        "ou",
        "ld"
      ],
      [
        "oo",
        "d"
      ],
      [
        "a",
        "y"
      ],
      [
        "f",
        "or"
      ],
      [
        "you",
        "r"
      ],
      [
        "l",
        "l"
      ],
      [
        "p",
        "i"
      ],
      [
        "a",
        "b"
      ],
      [
        "g",
        "h"
      ],
      [
        "f",
        "l"
      ],
      [
        "g",
        "en"
      ],
      [
        "k",
        "e"
      ],
      [
        "g",
        "e"
      ],
      [
        "m",
        "mar"
      ],
      [
        "n",
        "o"
      ],
      [
        "v",
        "er"
      ],
      [
        "sh",
        "ould"
      ],
      [
        "e",
        "ce"
      ],
      [
        "ati",
        "on"
      ],
      [
        "m",
        "y"
      ],
      [
        "g",
        "ood"
      ],
      [
        "on",
        "e"
      ],
      [
        "c",
        "on"
      ],
      [
        "ri",
        "te"
      ],
      [
        "gen",
        "er"
      ],
      [
        "g",
        "ra"
      ],
      [
        "u",
        "n"
      ],
      [
        "u",
        "t"
      ],
      [
        "p",
        "l"
      ],
      [
        "T",
        "he"
      ],
      [
        "pi",
        "ece"
      ],
      [
        "fl",
        "ow"
      ],
      [
        "i",
        "r"
      ],
      [
        "a",
        "c"
      ],
      [
        "W",
        "rite"
      ],
      [
        "gener",
        "ate"
      ],
      [
        "gra",
        "mmar"
      ],
      [
        "d",
        "i"
      ],
      [
        "m",
        "a"
      ],
      [
        "ou",
        "t"
      ],
      [
        "te",
        "r"
      ],
      [
        "er",
        "s"
      ],
      [
        "s",
        "u"
      ],
      [
        "f",
        "ul"
      ],
      [
        "a",
        "re"
      ],
      [
        "i",
        "c"
      ],
      [
        "p",
        "e"
      ],
      [
        "w",
        "e"
      ],
      [
        "gh",
        "t"
      ],
      [
        "I",
        "t"
      ],
      [
        "m",
        "o"
      ],
      [
        "p",
        "ro"
      ],
      [
        "s",
        "o"
      ],
      [
        "a",
        "u"
      ],
      [
        "c",
        "om"
      ],
      [
        "re",
        "s"
      ],
      [
        "ou",
        "r"
      ],
      [
        "k",
        "ing"
      ],
      [
        "al",
        "l"
      ],
      [
        "n",
        "e"
      ],
      [
        "li",
        "ke"
      ],
      [
        "p",
        "le"
      ],
      [
        "en",
        "t"
      ],
      [
        "v",
        "i"
      ],
      [
        "c",
        "i"
      ],
      [
        "c",
        "t"
      ],
      [
        "u",
        "m"
      ],
      [
        "T",
        "h"
      ],
      [
        "w",
        "or"
      ],
      [
        "d",
        "er"
      ],
      [
        "t",
        "t"
      ],
      [
        "th",
        "at"
      ],
      [
        "te",
        "n"
      ],
      [
        "f",
        "o"
      ],
      [
        "ab",
        "out"
      ],
      [
        "k",
        "s"
      ],
      [
        "it",
        "y"
      ],
      [
        "a",
        "p"
      ],
      [
        "b",
        "y"
      ],
      [
        "W",
        "h"
      ],
      [
        "t",
        "ra"
      ],
      [
        "f",
        "e"
      ],
      [
        "in",
        "d"
      ],
      [
        "o",
        "g"
      ],
      [
        "b",
        "u"
      ],
      [
        "n",
        "ow"
      ],
      [
        "an",
        "t"
      ],
      [
        "n",
        "d"
      ],
      [
        "no",
        "t"
      ],
      [
        "s",
        "a"
      ],
      [
        "tion",
        "s"
      ],
      [
        "s",
        "te"
      ],
      [
        "u",
        "r"
      ],
      [
        "u",
        "st"
      ],
      [
        "p",
        "er"
      ],
      [
        "th",
        "in"
      ],
      [
        "re",
        "e"
      ],
      [
        "e",
        "x"
      ],
      [
        "o",
        "l"
      ],
      [
        "p",
        "s"
      ],
      [
        "t",
        "w"
      ],
      [
        "v",
        "es"
      ],
      [
        "i",
        "m"
      ],
      [
        "A",
        "I"
      ],
      [
        "l",
        "au"
      ],
      [
        "es",
        "s"
      ],
      [
        "X",
        "en"
      ],
      [
        "i",
        "l"
      ],
      [
        "al",
        "ly"
      ],
      [
        "r",
        "om"
      ],
      [
        "in",
        "e"
      ],
      [
        "he",
        "re"
      ],
      [
        "om",
        "e"
      ],
      [
        "v",
        "en"
      ],
      [
        "og",
        "lau"
      ],
      [
        "Xen",
        "oglau"
      ],
      [
        "Xenoglau",
        "x"
      ],
      [
        "s",
        "p"
      ],
      [
        "t",
        "le"
      ],
      [
        "u",
        "re"
      ],
      [
        "ti",
        "c"
      ],
      [
        "d",
        "o"
      ],
      [
        "d",
        "is"
      ],
      [
        "f",
        "a"
      ],
      [
        "th",
        "is"
      ],
      [
        "al",
        "s"
      ],
      [
        "si",
        "x"
      ],
      [
        "ee",
        "d"
      ],
      [
        "wh",
        "at"
      ],
      [
        "e",
        "qu"
      ],
      [
        "in",
        "to"
      ],
      [
        "tw",
        "o"
      ],
      [
        "f",
        "i"
      ],
      [
        "g",
        "i"
      ],
      [
        "o",
        "th"
      ],
      [
        "an",
        "s"
      ],
      [
        "l",
        "it"
      ],
      [
        "ul",
        "ti"
      ],
      [
        "qu",
        "es"
      ],
      [
        "c",
        "u"
      ],
      [
        "c",
        "ul"
      ],
      [
        "e",
        "p"
      ],
      [
        "wh",
        "i"
      ],
      [
        "ver",
        "y"
      ],
      [
        "c",
        "an"
      ],
      [
        "f",
        "rom"
      ],
      [
        "u",
        "p"
      ],
      [
        "e",
        "d"
      ],
      [
        "or",
        "i"
      ],
      [
        "ow",
        "er"
      ],
      [
        "k",
        "now"
      ],
      [
        "t",
        "a"
      ],
      [
        "ee",
        "t"
      ],
      [
        "c",
        "l"
      ],
      [
        "d",
        "en"
      ],
      [
        "w",
        "ay"
      ],
      [
        "th",
        "ing"
      ],
      [
        "al",
        "cul"
      ],
      [
        "lit",
        "tle"
      ],
      [
        "1",
        "0"
      ],
      [
        "a",
        "m"
      ],
      [
        "r",
        "u"
      ],
      [
        "w",
        "as"
      ],
      [
        "th",
        "ree"
      ],
      [
        "ti",
        "me"
      ],
      [
        "ar",
        "n"
      ],
      [
        "it",
        "s"
      ],
      [
        "2",
        "5"
      ],
      [
        "b",
        "ut"
      ],
      [
        "n",
        "i"
      ],
      [
        "p",
        "o"
      ],
      [
        "ow",
        "n"
      ],
      [
        "ra",
        "in"
      ],
      [
        "si",
        "m"
      ],
      [
        "fo",
        "re"
      ],
      [
        "alcul",
        "ate"
      ],
      [
        "re",
        "d"
      ],
      [
        "l",
        "s"
      ],
      [
        "p",
        "ers"
      ],
      [
        "ar",
        "t"
      ],
      [
        "vi",
        "de"
      ],
      [
        "2",
        "0"
      ],
      [
        "b",
        "rain"
      ],
      [
        "j",
        "ust"
      ],
      [
        "p",
        "ower"
      ],
      [
        "s",
        "ome"
      ],
      [
        "in",
        "te"
      ],
      [
        "al",
        "so"
      ],
      [
        "is",
        "h"
      ],
      [
        "ation",
        "s"
      ],
      [
        "wor",
        "ld"
      ],
      [
        "C",
        "alculate"
      ],
      [
        "n",
        "eed"
      ],
      [
        "re",
        "n"
      ],
      [
        "pl",
        "ay"
      ],
      [
        "2",
        "1"
      ],
      [
        "A",
        "nd"
      ],
      [
        "b",
        "le"
      ],
      [
        "l",
        "o"
      ],
      [
        "is",
        "e"
      ],
      [
        "ar",
        "d"
      ],
      [
        "play",
        "ful"
      ],
      [
        "W",
        "e"
      ],
      [
        "i",
        "ld"
      ],
      [
        "o",
        "ple"
      ],
      [
        "th",
        "er"
      ],
      [
        "at",
        "or"
      ],
      [
        "me",
        "m"
      ],
      [
        "S",
        "t"
      ],
      [
        "ou",
        "s"
      ],
      [
        "or",
        "t"
      ],
      [
        "B",
        "ut"
      ],
      [
        "b",
        "er"
      ],
      [
        "d",
        "ay"
      ],
      [
        "k",
        "y"
      ],
      [
        "p",
        "h"
      ],
      [
        "p",
        "ly"
      ],
      [
        "is",
        "n"
      ],
      [
        "es",
        "t"
      ],
      [
        "he",
        "l"
      ],
      [
        "ge",
        "t"
      ],
      [
        "Th",
        "at"
      ],
      [
        "ten",
        "tion"
      ],
      [
        "ste",
        "ad"
      ],
      [
        "c",
        "us"
      ],
      [
        "h",
        "ad"
      ],
      [
        "l",
        "f"
      ],
      [
        "m",
        "s"
      ],
      [
        "m",
        "ind"
      ],
      [
        "s",
        "c"
      ],
      [
        "pers",
        "on"
      ],
      [
        "B",
        "re"
      ],
      [
        "I",
        "n"
      ],
      [
        "K",
        "u"
      ],
      [
        "M",
        "ish"
      ],
      [
        "P",
        "un"
      ],
      [
        "a",
        "ve"
      ],
      [
        "f",
        "ee"
      ],
      [
        "f",
        "ic"
      ],
      [
        "g",
        "r"
      ],
      [
        "i",
        "d"
      ],
      [
        "l",
        "ing"
      ],
      [
        "se",
        "lf"
      ],
      [
        "us",
        "er"
      ],
      [
        "Ku",
        "mar"
      ],
      [
        "Mish",
        "ra"
      ],
      [
        "Pun",
        "eet"
      ],
      [
        "a",
        "ch"
      ],
      [
        "o",
        "ver"
      ],
      [
        "p",
        "re"
      ],
      [
        "en",
        "ts"
      ],
      [
        "le",
        "d"
      ],
      [
        "le",
        "ep"
      ],
      [
        "ac",
        "t"
      ],
      [
        "bu",
        "ild"
      ],
      [
        "equ",
        "als"
      ],
      [
        "9",
        "9"
      ],
      [
        "g",
        "it"
      ],
      [
        "h",
        "um"
      ],
      [
        "v",
        "ing"
      ],
      [
        "v",
        "al"
      ],
      [
        "qu",
        "ir"
      ],
      [
        "thin",
        "king"
      ],
      [
        "quir",
        "ky"
      ],
      [
        "m",
        "in"
      ],
      [
        "n",
        "um"
      ],
      [
        "ow",
        "l"
      ],
      [
        "c",
        "ti"
      ],
      [
        "d",
        "es"
      ],
      [
        "w",
        "on"
      ],
      [
        "z",
        "e"
      ],
      [
        "in",
        "stead"
      ],
      [
        "the",
        "m"
      ],
      [
        "pl",
        "us"
      ],
      [
        "Bre",
        "tt"
      ],
      [
        "f",
        "in"
      ],
      [
        "f",
        "our"
      ],
      [
        "an",
        "ts"
      ],
      [
        "ou",
        "nd"
      ],
      [
        "one",
        "y"
      ],
      [
        "pe",
        "ople"
      ],
      [
        "mo",
        "re"
      ],
      [
        "git",
        "al"
      ],
      [
        "1",
        "2"
      ],
      [
        "h",
        "ow"
      ],
      [
        "l",
        "u"
      ],
      [
        "p",
        "en"
      ],
      [
        "s",
        "qu"
      ],
      [
        "th",
        "an"
      ],
      [
        "ma",
        "g"
      ],
      [
        "su",
        "per"
      ],
      [
        "res",
        "s"
      ],
      [
        "thin",
        "k"
      ],
      [
        "whi",
        "ch"
      ],
      [
        "sim",
        "ple"
      ],
      [
        "20",
        "25"
      ],
      [
        "squ",
        "are"
      ],
      [
        "M",
        "ar"
      ],
      [
        "S",
        "o"
      ],
      [
        "e",
        "ven"
      ],
      [
        "h",
        "u"
      ],
      [
        "m",
        "ent"
      ],
      [
        "s",
        "leep"
      ],
      [
        "u",
        "se"
      ],
      [
        "th",
        "en"
      ],
      [
        "te",
        "d"
      ],
      [
        "ro",
        "ll"
      ],
      [
        "be",
        "com"
      ],
      [
        "for",
        "m"
      ],
      [
        "ir",
        "st"
      ],
      [
        "Y",
        "ou"
      ],
      [
        "c",
        "le"
      ],
      [
        "e",
        "t"
      ],
      [
        "g",
        "o"
      ],
      [
        "h",
        "ap"
      ],
      [
        "i",
        "ght"
      ],
      [
        "k",
        "es"
      ],
      [
        "o",
        "s"
      ],
      [
        "li",
        "ght"
      ],
      [
        "tt",
        "ing"
      ],
      [
        ".",
        "\""
      ],
      [
        "3",
        "3"
      ],
      [
        "d",
        "u"
      ],
      [
        "d",
        "own"
      ],
      [
        "e",
        "very"
      ],
      [
        "g",
        "g"
      ],
      [
        "i",
        "ll"
      ],
      [
        "l",
        "li"
      ],
      [
        "o",
        "se"
      ],
      [
        "ti",
        "m"
      ],
      [
        "the",
        "re"
      ],
      [
        "as",
        "king"
      ],
      [
        "wh",
        "en"
      ],
      [
        "Wh",
        "en"
      ],
      [
        "Wh",
        "at"
      ],
      [
        "person",
        "a"
      ],
      [
        "S",
        "u"
      ],
      [
        "a",
        "in"
      ],
      [
        "c",
        "oo"
      ],
      [
        "i",
        "de"
      ],
      [
        "p",
        "li"
      ],
      [
        "en",
        "ce"
      ],
      [
        "li",
        "fe"
      ],
      [
        "con",
        "c"
      ],
      [
        "di",
        "gital"
      ],
      [
        "fo",
        "cus"
      ],
      [
        "St",
        "art"
      ],
      [
        "Mar",
        "tt"
      ],
      [
        "M",
        "ulti"
      ],
      [
        "a",
        "ge"
      ],
      [
        "b",
        "i"
      ],
      [
        "g",
        "u"
      ],
      [
        "i",
        "f"
      ],
      [
        "p",
        "ar"
      ],
      [
        "r",
        "an"
      ],
      [
        "is",
        "i"
      ],
      [
        "wh",
        "o"
      ],
      [
        "ab",
        "le"
      ],
      [
        "ans",
        "w"
      ],
      [
        "ques",
        "tion"
      ],
      [
        "k",
        "ee"
      ],
      [
        "m",
        "oney"
      ],
      [
        "s",
        "k"
      ],
      [
        "re",
        "st"
      ],
      [
        "an",
        "ce"
      ],
      [
        "ac",
        "k"
      ],
      [
        "oth",
        "ers"
      ],
      [
        "c",
        "k"
      ],
      [
        "e",
        "arn"
      ],
      [
        "f",
        "irst"
      ],
      [
        "p",
        "as"
      ],
      [
        "s",
        "m"
      ],
      [
        "w",
        "here"
      ],
      [
        "ou",
        "gh"
      ],
      [
        "is",
        "t"
      ],
      [
        "wi",
        "ll"
      ],
      [
        "The",
        "re"
      ],
      [
        "fi",
        "ve"
      ],
      [
        "won",
        "der"
      ],
      [
        "A",
        "d"
      ],
      [
        "c",
        "y"
      ],
      [
        "e",
        "mo"
      ],
      [
        "h",
        "ave"
      ],
      [
        "p",
        "on"
      ],
      [
        "t",
        "r"
      ],
      [
        "t",
        "y"
      ],
      [
        "t",
        "in"
      ],
      [
        "w",
        "ants"
      ],
      [
        "on",
        "g"
      ],
      [
        "le",
        "arn"
      ],
      [
        "st",
        "s"
      ],
      [
        "as",
        "ter"
      ],
      [
        "sh",
        "ort"
      ],
      [
        "ch",
        "oo"
      ],
      [
        "tra",
        "ct"
      ],
      [
        "gi",
        "ves"
      ],
      [
        "inte",
        "rest"
      ],
      [
        "fee",
        "ls"
      ],
      [
        "val",
        "u"
      ],
      [
        ".",
        "."
      ],
      [
        "b",
        "it"
      ],
      [
        "b",
        "ri"
      ],
      [
        "c",
        "al"
      ],
      [
        "d",
        "ar"
      ],
      [
        "g",
        "ative"
      ],
      [
        "z",
        "ing"
      ],
      [
        "the",
        "y"
      ],
      [
        "ne",
        "gative"
      ],
      [
        "ques",
        "tions"
      ],
      [
        "vide",
        "d"
      ],
      [
        "hel",
        "p"
      ],
      [
        "square",
        "d"
      ],
      [
        "Multi",
        "ply"
      ],
      [
        "1",
        "4"
      ],
      [
        "s",
        "pe"
      ],
      [
        "ma",
        "in"
      ],
      [
        "au",
        "se"
      ],
      [
        "sa",
        "id"
      ],
      [
        "super",
        "power"
      ],
      [
        "D",
        "i"
      ],
      [
        "c",
        "tion"
      ],
      [
        "m",
        "an"
      ],
      [
        "m",
        "ulti"
      ],
      [
        "s",
        "w"
      ],
      [
        "th",
        "ose"
      ],
      [
        "ti",
        "es"
      ],
      [
        "on",
        "s"
      ],
      [
        "is",
        "ten"
      ],
      [
        "as",
        "e"
      ],
      [
        "as",
        "k"
      ],
      [
        "be",
        "d"
      ],
      [
        "mo",
        "st"
      ],
      [
        "pro",
        "du"
      ],
      [
        "ci",
        "al"
      ],
      [
        "know",
        "led"
      ],
      [
        "tim",
        "es"
      ],
      [
        "Su",
        "b"
      ],
      [
        "N",
        "o"
      ],
      [
        "b",
        "oth"
      ],
      [
        "d",
        "s"
      ],
      [
        "h",
        "our"
      ],
      [
        "l",
        "a"
      ],
      [
        "n",
        "al"
      ],
      [
        "t",
        "re"
      ],
      [
        "re",
        "al"
      ],
      [
        "en",
        "ti"
      ],
      [
        "or",
        "y"
      ],
      [
        "ri",
        "tic"
      ],
      [
        "se",
        "e"
      ],
      [
        "un",
        "der"
      ],
      [
        "Th",
        "is"
      ],
      [
        "ta",
        "in"
      ],
      [
        "way",
        "s"
      ],
      [
        "pas",
        "sa"
      ],
      [
        "tin",
        "y"
      ],
      [
        "hour",
        "s"
      ],
      [
        "2",
        "4"
      ],
      [
        "L",
        "earn"
      ],
      [
        "S",
        "ol"
      ],
      [
        "b",
        "r"
      ],
      [
        "f",
        "y"
      ],
      [
        "g",
        "in"
      ],
      [
        "m",
        "is"
      ],
      [
        "z",
        "er"
      ],
      [
        "in",
        "k"
      ],
      [
        "re",
        "mem"
      ],
      [
        "te",
        "s"
      ],
      [
        "at",
        "tention"
      ],
      [
        "ate",
        "d"
      ],
      [
        "con",
        "t"
      ],
      [
        "ma",
        "kes"
      ],
      [
        "su",
        "mmar"
      ],
      [
        "pe",
        "ct"
      ],
      [
        "com",
        "p"
      ],
      [
        "whi",
        "le"
      ],
      [
        "den",
        "ce"
      ],
      [
        "sc",
        "roll"
      ],
      [
        "sm",
        "all"
      ],
      [
        "Ad",
        "d"
      ],
      [
        "knowled",
        "ge"
      ],
      [
        "a",
        "ce"
      ],
      [
        "c",
        "tions"
      ],
      [
        "c",
        "ause"
      ],
      [
        "n",
        "er"
      ],
      [
        "r",
        "ow"
      ],
      [
        "in",
        "t"
      ],
      [
        "te",
        "en"
      ],
      [
        "te",
        "ct"
      ],
      [
        "ou",
        "n"
      ],
      [
        "the",
        "ir"
      ],
      [
        "at",
        "ing"
      ],
      [
        "cre",
        "ation"
      ],
      [
        "si",
        "l"
      ],
      [
        "si",
        "des"
      ],
      [
        "ad",
        "d"
      ],
      [
        "be",
        "fore"
      ],
      [
        "su",
        "r"
      ],
      [
        "ic",
        "al"
      ],
      [
        "pro",
        "ble"
      ],
      [
        "res",
        "pon"
      ],
      [
        "fe",
        "ren"
      ],
      [
        "sp",
        "ar"
      ],
      [
        "conc",
        "ise"
      ],
      [
        "kee",
        "p"
      ],
      [
        "sk",
        "ill"
      ],
      [
        "passa",
        "ge"
      ],
      [
        "*",
        "*"
      ],
      [
        "F",
        "ran"
      ],
      [
        "H",
        "e"
      ],
      [
        "O",
        "u"
      ],
      [
        "a",
        "g"
      ],
      [
        "c",
        "ts"
      ],
      [
        "c",
        "ity"
      ],
      [
        "d",
        "on"
      ],
      [
        "e",
        "f"
      ],
      [
        "e",
        "ar"
      ],
      [
        "e",
        "ight"
      ],
      [
        "f",
        "le"
      ],
      [
        "l",
        "es"
      ],
      [
        "o",
        "re"
      ],
      [
        "t",
        "ur"
      ],
      [
        "v",
        "o"
      ],
      [
        "v",
        "ity"
      ],
      [
        "re",
        "ad"
      ],
      [
        "ing",
        "s"
      ],
      [
        "to",
        "o"
      ],
      [
        "st",
        "and"
      ],
      [
        "as",
        "ic"
      ],
      [
        "ri",
        "ght"
      ],
      [
        "qu",
        "i"
      ],
      [
        "di",
        "vided"
      ],
      [
        "we",
        "re"
      ],
      [
        "so",
        "lu"
      ],
      [
        "ne",
        "w"
      ],
      [
        "Th",
        "en"
      ],
      [
        "bu",
        "z"
      ],
      [
        "thing",
        "s"
      ],
      [
        "ide",
        "as"
      ],
      [
        "bri",
        "lli"
      ],
      [
        "dar",
        "ling"
      ],
      [
        "zer",
        "o"
      ],
      [
        "Ou",
        "u"
      ],
      [
        "3",
        "0"
      ],
      [
        "R",
        "e"
      ],
      [
        "c",
        "he"
      ],
      [
        "c",
        "ks"
      ],
      [
        "d",
        "it"
      ],
      [
        "m",
        "on"
      ],
      [
        "p",
        "res"
      ],
      [
        "s",
        "y"
      ],
      [
        "ti",
        "ve"
      ],
      [
        "ti",
        "fic"
      ],
      [
        "sh",
        "ar"
      ],
      [
        "de",
        "c"
      ],
      [
        "ut",
        "ter"
      ],
      [
        "di",
        "tion"
      ],
      [
        "il",
        "ity"
      ],
      [
        "fa",
        "ce"
      ],
      [
        "ori",
        "gin"
      ],
      [
        "99",
        "99"
      ],
      [
        "hum",
        "an"
      ],
      [
        "pli",
        "fy"
      ],
      [
        "Sub",
        "tract"
      ],
      [
        "remem",
        "ber"
      ],
      [
        "tific",
        "ations"
      ],
      [
        "1",
        "8"
      ],
      [
        "H",
        "u"
      ],
      [
        "b",
        "s"
      ],
      [
        "c",
        "es"
      ],
      [
        "f",
        "ood"
      ],
      [
        "f",
        "ac"
      ],
      [
        "h",
        "o"
      ],
      [
        "i",
        "g"
      ],
      [
        "i",
        "v"
      ],
      [
        "i",
        "me"
      ],
      [
        "i",
        "ze"
      ],
      [
        "n",
        "ing"
      ],
      [
        "n",
        "at"
      ],
      [
        "n",
        "ess"
      ],
      [
        "p",
        "ul"
      ],
      [
        "st",
        "ar"
      ],
      [
        "si",
        "on"
      ],
      [
        "con",
        "ne"
      ],
      [
        "The",
        "y"
      ],
      [
        "ir",
        "d"
      ],
      [
        "ma",
        "ke"
      ],
      [
        "ter",
        "m"
      ],
      [
        "our",
        "nal"
      ],
      [
        "wor",
        "k"
      ],
      [
        "der",
        "iv"
      ],
      [
        "ni",
        "ght"
      ],
      [
        "help",
        "ful"
      ],
      [
        "brilli",
        "ant"
      ],
      [
        "Hu",
        "hu"
      ],
      [
        "ournal",
        "ing"
      ],
      [
        "4",
        "0"
      ],
      [
        "?",
        "”"
      ],
      [
        "B",
        "e"
      ],
      [
        "D",
        "ece"
      ],
      [
        "S",
        "im"
      ],
      [
        "T",
        "ime"
      ],
      [
        "c",
        "ritic"
      ],
      [
        "l",
        "and"
      ],
      [
        "m",
        "ber"
      ],
      [
        "p",
        "y"
      ],
      [
        "s",
        "mar"
      ],
      [
        "s",
        "choo"
      ],
      [
        "w",
        "ould"
      ],
      [
        "ou",
        "ght"
      ],
      [
        "es",
        "e"
      ],
      [
        "of",
        "f"
      ],
      [
        "st",
        "ant"
      ],
      [
        "ul",
        "t"
      ],
      [
        "sh",
        "ow"
      ],
      [
        "de",
        "d"
      ],
      [
        "se",
        "ven"
      ],
      [
        "si",
        "c"
      ],
      [
        "be",
        "t"
      ],
      [
        "ci",
        "pl"
      ],
      [
        "wor",
        "ks"
      ],
      [
        "do",
        "es"
      ],
      [
        "fa",
        "v"
      ],
      [
        "cu",
        "ri"
      ],
      [
        "21",
        "st"
      ],
      [
        "hel",
        "ps"
      ],
      [
        "min",
        "u"
      ],
      [
        "num",
        "er"
      ],
      [
        "four",
        "th"
      ],
      [
        "becom",
        "es"
      ],
      [
        "coo",
        "king"
      ],
      [
        "answ",
        "ers"
      ],
      [
        "wonder",
        "ful"
      ],
      [
        "valu",
        "e"
      ],
      [
        "dec",
        "isi"
      ],
      [
        "Dece",
        "mber"
      ],
      [
        ",",
        "\""
      ],
      [
        "a",
        "pe"
      ],
      [
        "b",
        "re"
      ],
      [
        "b",
        "asic"
      ],
      [
        "d",
        "at"
      ],
      [
        "d",
        "om"
      ],
      [
        "e",
        "xt"
      ],
      [
        "g",
        "ress"
      ],
      [
        "i",
        "p"
      ],
      [
        "l",
        "ow"
      ],
      [
        "l",
        "ate"
      ],
      [
        "m",
        "en"
      ],
      [
        "m",
        "ic"
      ],
      [
        "t",
        "ri"
      ],
      [
        "t",
        "one"
      ],
      [
        "u",
        "ally"
      ],
      [
        "ou",
        "u"
      ],
      [
        "st",
        "ru"
      ],
      [
        "ce",
        "p"
      ],
      [
        "as",
        "h"
      ],
      [
        "wh",
        "y"
      ],
      [
        "no",
        "tifications"
      ],
      [
        "ver",
        "s"
      ],
      [
        "su",
        "m"
      ],
      [
        "we",
        "ll"
      ],
      [
        "pro",
        "gress"
      ],
      [
        "res",
        "pect"
      ],
      [
        "dis",
        "cipl"
      ],
      [
        "equ",
        "ation"
      ],
      [
        "ator",
        "s"
      ],
      [
        "mind",
        "s"
      ],
      [
        "ound",
        "s"
      ],
      [
        "hap",
        "py"
      ],
      [
        "33",
        "33"
      ],
      [
        "There",
        "fore"
      ],
      [
        "emo",
        "tion"
      ],
      [
        "produ",
        "cti"
      ],
      [
        "Learn",
        "ing"
      ],
      [
        "deriv",
        "ative"
      ],
      [
        "discipl",
        "ine"
      ],
      [
        "2",
        "9"
      ],
      [
        "I",
        "f"
      ],
      [
        "J",
        "ust"
      ],
      [
        "a",
        "k"
      ],
      [
        "c",
        "ing"
      ],
      [
        "e",
        "ver"
      ],
      [
        "f",
        "ra"
      ],
      [
        "h",
        "as"
      ],
      [
        "i",
        "te"
      ],
      [
        "l",
        "ong"
      ],
      [
        "m",
        "ents"
      ],
      [
        "o",
        "p"
      ],
      [
        "w",
        "r"
      ],
      [
        "in",
        "tention"
      ],
      [
        "re",
        "am"
      ],
      [
        "te",
        "ch"
      ],
      [
        "or",
        "m"
      ],
      [
        "le",
        "a"
      ],
      [
        "to",
        "m"
      ],
      [
        "to",
        "ol"
      ],
      [
        "at",
        "ter"
      ],
      [
        "st",
        "ren"
      ],
      [
        "cre",
        "ator"
      ],
      [
        "de",
        "ep"
      ],
      [
        "se",
        "d"
      ],
      [
        "be",
        "en"
      ],
      [
        "be",
        "ing"
      ],
      [
        "ma",
        "th"
      ],
      [
        "mo",
        "der"
      ],
      [
        "so",
        "l"
      ],
      [
        "com",
        "ple"
      ],
      [
        "ne",
        "d"
      ],
      [
        "ex",
        "pl"
      ],
      [
        "ex",
        "am"
      ],
      [
        "ess",
        "enti"
      ],
      [
        "il",
        "s"
      ],
      [
        "dis",
        "tra"
      ],
      [
        "six",
        "teen"
      ],
      [
        "some",
        "times"
      ],
      [
        "ph",
        "y"
      ],
      [
        "cle",
        "ar"
      ],
      [
        "hap",
        "s"
      ],
      [
        "answ",
        "er"
      ],
      [
        "Sol",
        "ve"
      ],
      [
        "sur",
        "vi"
      ],
      [
        "stren",
        "g"
      ],
      [
        "1",
        "5"
      ],
      [
        "1",
        "6"
      ],
      [
        "2",
        "7"
      ],
      [
        "5",
        "0"
      ],
      [
        "O",
        "ur"
      ],
      [
        "R",
        "es"
      ],
      [
        "a",
        "th"
      ],
      [
        "b",
        "l"
      ],
      [
        "b",
        "ack"
      ],
      [
        "c",
        "ol"
      ],
      [
        "d",
        "ate"
      ],
      [
        "f",
        "un"
      ],
      [
        "f",
        "feren"
      ],
      [
        "g",
        "re"
      ],
      [
        "l",
        "ay"
      ],
      [
        "l",
        "ess"
      ],
      [
        "m",
        "aster"
      ],
      [
        "n",
        "s"
      ],
      [
        "o",
        "pen"
      ],
      [
        "r",
        "ough"
      ],
      [
        "s",
        "ay"
      ],
      [
        "v",
        "isi"
      ],
      [
        "—",
        "\""
      ],
      [
        "re",
        "ach"
      ],
      [
        "al",
        "ways"
      ],
      [
        "it",
        "ing"
      ],
      [
        "cre",
        "ated"
      ],
      [
        "as",
        "ks"
      ],
      [
        "he",
        "al"
      ],
      [
        "om",
        "in"
      ],
      [
        "with",
        "out"
      ],
      [
        "sh",
        "ape"
      ],
      [
        "de",
        "ci"
      ],
      [
        "de",
        "light"
      ],
      [
        "si",
        "g"
      ],
      [
        "ro",
        "l"
      ],
      [
        "ab",
        "ility"
      ],
      [
        "no",
        "ise"
      ],
      [
        "un",
        "i"
      ],
      [
        "ac",
        "c"
      ],
      [
        "di",
        "fferen"
      ],
      [
        "su",
        "b"
      ],
      [
        "com",
        "es"
      ],
      [
        "ci",
        "ous"
      ],
      [
        "tra",
        "dition"
      ],
      [
        "sa",
        "me"
      ],
      [
        "ex",
        "p"
      ],
      [
        "im",
        "al"
      ],
      [
        "sp",
        "o"
      ],
      [
        "cu",
        "bed"
      ],
      [
        "ta",
        "ke"
      ],
      [
        "den",
        "omin"
      ],
      [
        "brain",
        "s"
      ],
      [
        "some",
        "thing"
      ],
      [
        "St",
        "u"
      ],
      [
        "pre",
        "cious"
      ],
      [
        "build",
        "s"
      ],
      [
        "min",
        "imal"
      ],
      [
        "num",
        "b"
      ],
      [
        "roll",
        "ing"
      ],
      [
        "..",
        "."
      ],
      [
        "Di",
        "vide"
      ],
      [
        "sw",
        "eet"
      ],
      [
        "cont",
        "rol"
      ],
      [
        "summar",
        "ize"
      ],
      [
        "sil",
        "ent"
      ],
      [
        "Sim",
        "plify"
      ],
      [
        "schoo",
        "l"
      ],
      [
        "decisi",
        "ons"
      ],
      [
        "1",
        "7"
      ],
      [
        "6",
        "4"
      ],
      [
        "A",
        "t"
      ],
      [
        "O",
        "h"
      ],
      [
        "Q",
        "u"
      ],
      [
        "a",
        "way"
      ],
      [
        "b",
        "o"
      ],
      [
        "b",
        "or"
      ],
      [
        "d",
        "y"
      ],
      [
        "e",
        "m"
      ],
      [
        "e",
        "ach"
      ],
      [
        "h",
        "al"
      ],
      [
        "h",
        "is"
      ],
      [
        "h",
        "ab"
      ],
      [
        "j",
        "e"
      ],
      [
        "k",
        "ind"
      ],
      [
        "l",
        "oo"
      ],
      [
        "m",
        "ate"
      ],
      [
        "m",
        "us"
      ],
      [
        "o",
        "ld"
      ],
      [
        "p",
        "u"
      ],
      [
        "p",
        "ut"
      ],
      [
        "p",
        "art"
      ],
      [
        "s",
        "ci"
      ],
      [
        "s",
        "ounds"
      ],
      [
        "t",
        "ing"
      ],
      [
        "t",
        "al"
      ],
      [
        "t",
        "asking"
      ],
      [
        "—",
        "—\""
      ],
      [
        "in",
        "s"
      ],
      [
        "th",
        "s"
      ],
      [
        "th",
        "ese"
      ],
      [
        "re",
        "qui"
      ],
      [
        "te",
        "ll"
      ],
      [
        "an",
        "g"
      ],
      [
        "an",
        "y"
      ],
      [
        "an",
        "ing"
      ],
      [
        "en",
        "d"
      ],
      [
        "al",
        "ity"
      ],
      [
        "it",
        "ch"
      ],
      [
        "at",
        "ch"
      ],
      [
        "de",
        "ar"
      ],
      [
        "se",
        "cre"
      ],
      [
        "ch",
        "a"
      ],
      [
        "me",
        "ans"
      ],
      [
        "your",
        "self"
      ],
      [
        "con",
        "stant"
      ],
      [
        "ut",
        "ure"
      ],
      [
        "pl",
        "es"
      ],
      [
        "out",
        "comes"
      ],
      [
        "pro",
        "tect"
      ],
      [
        "Th",
        "ink"
      ],
      [
        "Wh",
        "i"
      ],
      [
        "ur",
        "al"
      ],
      [
        "per",
        "haps"
      ],
      [
        "cu",
        "ts"
      ],
      [
        "ori",
        "te"
      ],
      [
        "lo",
        "ve"
      ],
      [
        "act",
        "ually"
      ],
      [
        "fin",
        "ite"
      ],
      [
        "os",
        "ity"
      ],
      [
        "learn",
        "ing"
      ],
      [
        "spe",
        "ci"
      ],
      [
        "man",
        "age"
      ],
      [
        "ag",
        "ain"
      ],
      [
        "buz",
        "zing"
      ],
      [
        "fac",
        "ts"
      ],
      [
        "bet",
        "ter"
      ],
      [
        "fav",
        "orite"
      ],
      [
        "curi",
        "osity"
      ],
      [
        "dat",
        "a"
      ],
      [
        "producti",
        "vity"
      ],
      [
        "distra",
        "ctions"
      ],
      [
        "exp",
        "ress"
      ],
      [
        "hal",
        "f"
      ],
      [
        ")",
        ","
      ],
      [
        "4",
        "x"
      ],
      [
        "A",
        "s"
      ],
      [
        "D",
        "on"
      ],
      [
        "J",
        "ournaling"
      ],
      [
        "U",
        "n"
      ],
      [
        "a",
        "me"
      ],
      [
        "a",
        "ma"
      ],
      [
        "b",
        "en"
      ],
      [
        "b",
        "oo"
      ],
      [
        "c",
        "ard"
      ],
      [
        "c",
        "ash"
      ],
      [
        "d",
        "ing"
      ],
      [
        "d",
        "ri"
      ],
      [
        "f",
        "ree"
      ],
      [
        "p",
        "or"
      ],
      [
        "p",
        "ra"
      ],
      [
        "p",
        "ri"
      ],
      [
        "p",
        "ay"
      ],
      [
        "s",
        "in"
      ],
      [
        "s",
        "ing"
      ],
      [
        "s",
        "si"
      ],
      [
        "t",
        "ou"
      ],
      [
        "v",
        "ation"
      ],
      [
        "w",
        "is"
      ],
      [
        "w",
        "ard"
      ],
      [
        "y",
        "ear"
      ],
      [
        "in",
        "es"
      ],
      [
        "in",
        "form"
      ],
      [
        "th",
        "ough"
      ],
      [
        "re",
        "c"
      ],
      [
        "te",
        "red"
      ],
      [
        "an",
        "ge"
      ],
      [
        "an",
        "tic"
      ],
      [
        "ti",
        "l"
      ],
      [
        "is",
        "m"
      ],
      [
        "le",
        "tting"
      ],
      [
        "to",
        "day"
      ],
      [
        "st",
        "r"
      ],
      [
        "st",
        "ate"
      ],
      [
        "ate",
        "r"
      ],
      [
        "de",
        "ta"
      ],
      [
        "qu",
        "e"
      ],
      [
        "con",
        "f"
      ],
      [
        "un",
        "til"
      ],
      [
        "ter",
        "s"
      ],
      [
        "ful",
        "ly"
      ],
      [
        "we",
        "ren"
      ],
      [
        "we",
        "ird"
      ],
      [
        "mo",
        "de"
      ],
      [
        "wor",
        "ds"
      ],
      [
        "Wh",
        "y"
      ],
      [
        "six",
        "th"
      ],
      [
        "cl",
        "ar"
      ],
      [
        "po",
        "ssi"
      ],
      [
        "mem",
        "ori"
      ],
      [
        "mem",
        "ory"
      ],
      [
        "cti",
        "ve"
      ],
      [
        "fin",
        "al"
      ],
      [
        "mag",
        "ic"
      ],
      [
        "becom",
        "e"
      ],
      [
        "every",
        "thing"
      ],
      [
        "question",
        "ing"
      ],
      [
        "emo",
        "tions"
      ],
      [
        "tr",
        "y"
      ],
      [
        "main",
        "tain"
      ],
      [
        "proble",
        "m"
      ],
      [
        "keep",
        "ing"
      ],
      [
        "fle",
        "x"
      ],
      [
        "vo",
        "id"
      ],
      [
        "read",
        "y"
      ],
      [
        "sic",
        "s"
      ],
      [
        "tool",
        "s"
      ],
      [
        "moder",
        "n"
      ],
      [
        "essenti",
        "al"
      ],
      [
        "phy",
        "sics"
      ],
      [
        "survi",
        "val"
      ],
      [
        "heal",
        "th"
      ],
      [
        "delight",
        "ful"
      ],
      [
        "acc",
        "ents"
      ],
      [
        "numb",
        "ers"
      ],
      [
        "tou",
        "ch"
      ],
      [
        "wis",
        "dom"
      ],
      [
        "deta",
        "ils"
      ],
      [
        ")",
        "."
      ],
      [
        "2",
        "x"
      ],
      [
        "3",
        "5"
      ],
      [
        "E",
        "ven"
      ],
      [
        "P",
        "e"
      ],
      [
        "S",
        "ome"
      ],
      [
        "a",
        "f"
      ],
      [
        "a",
        "de"
      ],
      [
        "a",
        "ir"
      ],
      [
        "b",
        "in"
      ],
      [
        "c",
        "ra"
      ],
      [
        "c",
        "ir"
      ],
      [
        "d",
        "r"
      ],
      [
        "d",
        "al"
      ],
      [
        "e",
        "l"
      ],
      [
        "g",
        "ing"
      ],
      [
        "h",
        "er"
      ],
      [
        "h",
        "ic"
      ],
      [
        "i",
        "re"
      ],
      [
        "i",
        "es"
      ],
      [
        "i",
        "ly"
      ],
      [
        "i",
        "gh"
      ],
      [
        "m",
        "ust"
      ],
      [
        "n",
        "orm"
      ],
      [
        "p",
        "ort"
      ],
      [
        "r",
        "y"
      ],
      [
        "r",
        "and"
      ],
      [
        "r",
        "oo"
      ],
      [
        "s",
        "ti"
      ],
      [
        "s",
        "en"
      ],
      [
        "t",
        "asks"
      ],
      [
        "u",
        "tion"
      ],
      [
        "w",
        "ent"
      ],
      [
        "th",
        "rough"
      ],
      [
        "re",
        "ly"
      ],
      [
        "re",
        "di"
      ],
      [
        "te",
        "ach"
      ],
      [
        "on",
        "ce"
      ],
      [
        "on",
        "ly"
      ],
      [
        "ou",
        "d"
      ],
      [
        "ing",
        "redi"
      ],
      [
        "or",
        "able"
      ],
      [
        "or",
        "row"
      ],
      [
        "ve",
        "d"
      ],
      [
        "ra",
        "te"
      ],
      [
        "as",
        "es"
      ],
      [
        "he",
        "ar"
      ],
      [
        "ri",
        "ver"
      ],
      [
        "li",
        "m"
      ],
      [
        "de",
        "b"
      ],
      [
        "de",
        "red"
      ],
      [
        "de",
        "pen"
      ],
      [
        "si",
        "ve"
      ],
      [
        "be",
        "cause"
      ],
      [
        "fl",
        "utter"
      ],
      [
        "ge",
        "ts"
      ],
      [
        "con",
        "s"
      ],
      [
        "con",
        "cep"
      ],
      [
        "gener",
        "ations"
      ],
      [
        "ut",
        "tered"
      ],
      [
        "ne",
        "xt"
      ],
      [
        "ne",
        "ver"
      ],
      [
        "il",
        "t"
      ],
      [
        "oth",
        "er"
      ],
      [
        "cl",
        "uttered"
      ],
      [
        "10",
        "0"
      ],
      [
        "ru",
        "e"
      ],
      [
        "ni",
        "e"
      ],
      [
        "inte",
        "gr"
      ],
      [
        "inte",
        "lli"
      ],
      [
        "use",
        "d"
      ],
      [
        "la",
        "st"
      ],
      [
        "under",
        "stand"
      ],
      [
        "proble",
        "ms"
      ],
      [
        "respon",
        "d"
      ],
      [
        "spar",
        "ks"
      ],
      [
        "Fran",
        "k"
      ],
      [
        "Fran",
        "nie"
      ],
      [
        "solu",
        "tion"
      ],
      [
        "pres",
        "ent"
      ],
      [
        "sy",
        "ste"
      ],
      [
        "minu",
        "tes"
      ],
      [
        "ext",
        "ra"
      ],
      [
        "sol",
        "ving"
      ],
      [
        "col",
        "or"
      ],
      [
        "minimal",
        "ism"
      ],
      [
        "sci",
        "ence"
      ],
      [
        "secre",
        "t"
      ],
      [
        "year",
        "s"
      ],
      [
        "inform",
        "ation"
      ],
      [
        "Pe",
        "ople"
      ],
      [
        "rand",
        "om"
      ],
      [
        "ingredi",
        "ents"
      ],
      [
        "concep",
        "ts"
      ],
      [
        "intelli",
        "gen"
      ],
      [
        "*",
        ","
      ],
      [
        "1",
        "9"
      ],
      [
        "3",
        "x"
      ],
      [
        "C",
        "on"
      ],
      [
        "C",
        "om"
      ],
      [
        "F",
        "or"
      ],
      [
        "L",
        "ee"
      ],
      [
        "M",
        "y"
      ],
      [
        "P",
        "ro"
      ],
      [
        "a",
        "ks"
      ],
      [
        "b",
        "ir"
      ],
      [
        "b",
        "all"
      ],
      [
        "b",
        "ling"
      ],
      [
        "c",
        "or"
      ],
      [
        "c",
        "ess"
      ],
      [
        "c",
        "ore"
      ],
      [
        "d",
        "ance"
      ],
      [
        "f",
        "t"
      ],
      [
        "f",
        "ri"
      ],
      [
        "h",
        "y"
      ],
      [
        "i",
        "ve"
      ],
      [
        "i",
        "ce"
      ],
      [
        "m",
        "er"
      ],
      [
        "o",
        "bs"
      ],
      [
        "p",
        "t"
      ],
      [
        "p",
        "tions"
      ],
      [
        "p",
        "ur"
      ],
      [
        "p",
        "ure"
      ],
      [
        "p",
        "atter"
      ],
      [
        "r",
        "un"
      ],
      [
        "s",
        "n"
      ],
      [
        "s",
        "cre"
      ],
      [
        "s",
        "ort"
      ],
      [
        "s",
        "light"
      ],
      [
        "t",
        "ab"
      ],
      [
        "v",
        "ir"
      ],
      [
        "w",
        "rite"
      ],
      [
        "y",
        "on"
      ],
      [
        "in",
        "ner"
      ],
      [
        "in",
        "put"
      ],
      [
        "re",
        "act"
      ],
      [
        "re",
        "main"
      ],
      [
        "re",
        "fle"
      ],
      [
        "on",
        "es"
      ],
      [
        "or",
        "s"
      ],
      [
        "ve",
        "hic"
      ],
      [
        "le",
        "ve"
      ],
      [
        "ati",
        "c"
      ],
      [
        "to",
        "ge"
      ],
      [
        "st",
        "ream"
      ],
      [
        "cre",
        "ase"
      ],
      [
        "cre",
        "dit"
      ],
      [
        "as",
        "sum"
      ],
      [
        "he",
        "ad"
      ],
      [
        "wi",
        "ld"
      ],
      [
        "li",
        "ties"
      ],
      [
        "se",
        "con"
      ],
      [
        "si",
        "ze"
      ],
      [
        "wh",
        "is"
      ],
      [
        "us",
        "ing"
      ],
      [
        "ke",
        "d"
      ],
      [
        "vi",
        "ding"
      ],
      [
        "der",
        "ing"
      ],
      [
        "ap",
        "t"
      ],
      [
        "bu",
        "ilt"
      ],
      [
        "ant",
        "um"
      ],
      [
        "ste",
        "p"
      ],
      [
        "per",
        "form"
      ],
      [
        "im",
        "pul"
      ],
      [
        "im",
        "port"
      ],
      [
        "ure",
        "d"
      ],
      [
        "fi",
        "ght"
      ],
      [
        "gi",
        "ants"
      ],
      [
        "cu",
        "its"
      ],
      [
        "ru",
        "le"
      ],
      [
        "power",
        "ful"
      ],
      [
        "fee",
        "l"
      ],
      [
        "gr",
        "ow"
      ],
      [
        "build",
        "ing"
      ],
      [
        "min",
        "us"
      ],
      [
        "cti",
        "ce"
      ],
      [
        "hu",
        "hu"
      ],
      [
        "coo",
        "k"
      ],
      [
        "par",
        "tic"
      ],
      [
        "kee",
        "ps"
      ],
      [
        "short",
        "cuts"
      ],
      [
        "multi",
        "tasking"
      ],
      [
        "sw",
        "itch"
      ],
      [
        "summar",
        "y"
      ],
      [
        "spar",
        "k"
      ],
      [
        "vo",
        "ice"
      ],
      [
        "Be",
        "cause"
      ],
      [
        "smar",
        "ter"
      ],
      [
        "numer",
        "ators"
      ],
      [
        "fra",
        "g"
      ],
      [
        "exam",
        "ples"
      ],
      [
        "Res",
        "ult"
      ],
      [
        "deci",
        "de"
      ],
      [
        "uni",
        "que"
      ],
      [
        "At",
        "tention"
      ],
      [
        "Qu",
        "antum"
      ],
      [
        "je",
        "ct"
      ],
      [
        "cha",
        "os"
      ],
      [
        "ben",
        "ef"
      ],
      [
        "sin",
        "ce"
      ],
      [
        "though",
        "ts"
      ],
      [
        "clar",
        "ity"
      ],
      [
        "cir",
        "cuits"
      ],
      [
        "roo",
        "t"
      ],
      [
        "depen",
        "dence"
      ],
      [
        "cons",
        "isten"
      ],
      [
        "intelligen",
        "ce"
      ],
      [
        "Lee",
        "la"
      ],
      [
        "patter",
        "ns"
      ],
      [
        "scre",
        "en"
      ],
      [
        "slight",
        "ly"
      ],
      [
        "yon",
        "d"
      ],
      [
        "vehic",
        "le"
      ],
      [
        "toge",
        "ther"
      ],
      [
        "assum",
        "ptions"
      ],
      [
        "secon",
        "d"
      ],
      [
        "perform",
        "ance"
      ],
      [
        "import",
        "ant"
      ],
      [
        "1",
        "3"
      ],
      [
        "2",
        "8"
      ],
      [
        "7",
        "6"
      ],
      [
        "E",
        "x"
      ],
      [
        "E",
        "qu"
      ],
      [
        "E",
        "very"
      ],
      [
        "F",
        "o"
      ],
      [
        "F",
        "ind"
      ],
      [
        "H",
        "ow"
      ],
      [
        "S",
        "ur"
      ],
      [
        "Y",
        "our"
      ],
      [
        "a",
        "w"
      ],
      [
        "a",
        "ther"
      ],
      [
        "a",
        "ving"
      ],
      [
        "b",
        "lu"
      ],
      [
        "c",
        "o"
      ],
      [
        "c",
        "ar"
      ],
      [
        "d",
        "a"
      ],
      [
        "d",
        "ro"
      ],
      [
        "d",
        "get"
      ],
      [
        "e",
        "w"
      ],
      [
        "e",
        "as"
      ],
      [
        "f",
        "all"
      ],
      [
        "f",
        "eed"
      ],
      [
        "f",
        "aster"
      ],
      [
        "g",
        "l"
      ],
      [
        "h",
        "ou"
      ],
      [
        "h",
        "un"
      ],
      [
        "h",
        "ome"
      ],
      [
        "h",
        "ard"
      ],
      [
        "i",
        "mag"
      ],
      [
        "l",
        "isten"
      ],
      [
        "m",
        "om"
      ],
      [
        "m",
        "il"
      ],
      [
        "m",
        "ight"
      ],
      [
        "n",
        "ine"
      ],
      [
        "r",
        "atic"
      ],
      [
        "s",
        "es"
      ],
      [
        "s",
        "he"
      ],
      [
        "s",
        "ad"
      ],
      [
        "t",
        "ask"
      ],
      [
        "u",
        "de"
      ],
      [
        "w",
        "ise"
      ],
      [
        "w",
        "atch"
      ],
      [
        "in",
        "cl"
      ],
      [
        "in",
        "dependence"
      ],
      [
        "th",
        "ought"
      ],
      [
        "en",
        "g"
      ],
      [
        "en",
        "ch"
      ],
      [
        "en",
        "vir"
      ],
      [
        "is",
        "ed"
      ],
      [
        "ar",
        "y"
      ],
      [
        "ar",
        "ge"
      ],
      [
        "ve",
        "lo"
      ],
      [
        "le",
        "ad"
      ],
      [
        "ati",
        "ves"
      ],
      [
        "of",
        "ten"
      ],
      [
        "to",
        "p"
      ],
      [
        "st",
        "ress"
      ],
      [
        "wi",
        "r"
      ],
      [
        "li",
        "on"
      ],
      [
        "li",
        "ve"
      ],
      [
        "sh",
        "i"
      ],
      [
        "sh",
        "if"
      ],
      [
        "ch",
        "ange"
      ],
      [
        "qu",
        "ad"
      ],
      [
        "me",
        "d"
      ],
      [
        "be",
        "yond"
      ],
      [
        "ll",
        "ow"
      ],
      [
        "pi",
        "res"
      ],
      [
        "con",
        "fi"
      ],
      [
        "pl",
        "an"
      ],
      [
        "pl",
        "ain"
      ],
      [
        "ac",
        "ti"
      ],
      [
        "ac",
        "ks"
      ],
      [
        "ac",
        "knowledge"
      ],
      [
        "ac",
        "ade"
      ],
      [
        "ma",
        "king"
      ],
      [
        "su",
        "gg"
      ],
      [
        "are",
        "d"
      ],
      [
        "are",
        "n"
      ],
      [
        "are",
        "ly"
      ],
      [
        "pe",
        "d"
      ],
      [
        "so",
        "cial"
      ],
      [
        "au",
        "dit"
      ],
      [
        "com",
        "e"
      ],
      [
        "ne",
        "ar"
      ],
      [
        "wor",
        "d"
      ],
      [
        "fo",
        "g"
      ],
      [
        "ap",
        "ps"
      ],
      [
        "Wh",
        "o"
      ],
      [
        "tra",
        "ck"
      ],
      [
        "ant",
        "ing"
      ],
      [
        "fa",
        "st"
      ],
      [
        "ulti",
        "mate"
      ],
      [
        "ed",
        "ge"
      ],
      [
        "need",
        "s"
      ],
      [
        "ph",
        "one"
      ],
      [
        "hum",
        "ble"
      ],
      [
        "than",
        "ks"
      ],
      [
        "mag",
        "ical"
      ],
      [
        "becom",
        "ing"
      ],
      [
        "go",
        "t"
      ],
      [
        "go",
        "es"
      ],
      [
        "go",
        "als"
      ],
      [
        "gg",
        "er"
      ],
      [
        "ran",
        "ge"
      ],
      [
        "wonder",
        "ing"
      ],
      [
        "spe",
        "cial"
      ],
      [
        "multi",
        "ple"
      ],
      [
        "No",
        "t"
      ],
      [
        "tre",
        "at"
      ],
      [
        "Sol",
        "ution"
      ],
      [
        "br",
        "ought"
      ],
      [
        "cont",
        "rolling"
      ],
      [
        "scroll",
        "ing"
      ],
      [
        "too",
        "d"
      ],
      [
        "stand",
        "ing"
      ],
      [
        "solu",
        "tions"
      ],
      [
        "buz",
        "z"
      ],
      [
        "nat",
        "ure"
      ],
      [
        "critic",
        "al"
      ],
      [
        "smar",
        "t"
      ],
      [
        "bre",
        "aks"
      ],
      [
        "tom",
        "orrow"
      ],
      [
        "comple",
        "te"
      ],
      [
        "visi",
        "ble"
      ],
      [
        "spo",
        "tting"
      ],
      [
        "bor",
        "ing"
      ],
      [
        "em",
        "pires"
      ],
      [
        "mus",
        "cle"
      ],
      [
        "requi",
        "res"
      ],
      [
        "Un",
        "der"
      ],
      [
        "ama",
        "zing"
      ],
      [
        "boo",
        "sts"
      ],
      [
        "card",
        "s"
      ],
      [
        "el",
        "se"
      ],
      [
        "norm",
        "al"
      ],
      [
        "cor",
        "por"
      ],
      [
        "tab",
        "s"
      ],
      [
        "Equ",
        "ation"
      ],
      [
        "Fo",
        "cus"
      ],
      [
        "hou",
        "se"
      ],
      [
        "ench",
        "anting"
      ],
      [
        "envir",
        "on"
      ],
      [
        "quad",
        "ratic"
      ],
      [
        "confi",
        "dence"
      ],
      [
        "acade",
        "mic"
      ],
      [
        "!",
        "!"
      ],
      [
        "'",
        ","
      ],
      [
        "'",
        "."
      ],
      [
        "3",
        "2"
      ],
      [
        "4",
        "1"
      ],
      [
        "4",
        "8"
      ],
      [
        "5",
        "2"
      ],
      [
        "A",
        "sk"
      ],
      [
        "C",
        "oo"
      ],
      [
        "C",
        "ritic"
      ],
      [
        "F",
        "irst"
      ],
      [
        "F",
        "uture"
      ],
      [
        "J",
        "S"
      ],
      [
        "L",
        "it"
      ],
      [
        "M",
        "oney"
      ],
      [
        "M",
        "aster"
      ],
      [
        "O",
        "N"
      ],
      [
        "O",
        "ver"
      ],
      [
        "R",
        "est"
      ],
      [
        "S",
        "leep"
      ],
      [
        "T",
        "e"
      ],
      [
        "U",
        "se"
      ],
      [
        "W",
        "he"
      ],
      [
        "Y",
        "et"
      ],
      [
        "a",
        "im"
      ],
      [
        "b",
        "on"
      ],
      [
        "b",
        "lo"
      ],
      [
        "c",
        "ould"
      ],
      [
        "c",
        "are"
      ],
      [
        "c",
        "all"
      ],
      [
        "c",
        "ru"
      ],
      [
        "c",
        "os"
      ],
      [
        "d",
        "one"
      ],
      [
        "f",
        "li"
      ],
      [
        "g",
        "ori"
      ],
      [
        "h",
        "and"
      ],
      [
        "h",
        "ist"
      ],
      [
        "j",
        "o"
      ],
      [
        "j",
        "ournaling"
      ],
      [
        "l",
        "an"
      ],
      [
        "l",
        "ation"
      ],
      [
        "l",
        "og"
      ],
      [
        "l",
        "ine"
      ],
      [
        "l",
        "ines"
      ],
      [
        "m",
        "as"
      ],
      [
        "m",
        "ay"
      ],
      [
        "m",
        "un"
      ],
      [
        "m",
        "oun"
      ],
      [
        "n",
        "in"
      ],
      [
        "n",
        "als"
      ],
      [
        "o",
        "h"
      ],
      [
        "p",
        "ing"
      ],
      [
        "p",
        "ati"
      ],
      [
        "p",
        "ap"
      ],
      [
        "p",
        "ath"
      ],
      [
        "r",
        "out"
      ],
      [
        "r",
        "ty"
      ],
      [
        "s",
        "tim"
      ],
      [
        "s",
        "low"
      ],
      [
        "s",
        "tood"
      ],
      [
        "v",
        "a"
      ],
      [
        "v",
        "is"
      ],
      [
        "v",
        "ol"
      ],
      [
        "w",
        "re"
      ],
      [
        "w",
        "al"
      ],
      [
        "w",
        "om"
      ],
      [
        "w",
        "ind"
      ],
      [
        "w",
        "ater"
      ],
      [
        "y",
        "s"
      ],
      [
        "in",
        "ts"
      ],
      [
        "in",
        "visible"
      ],
      [
        "th",
        "ic"
      ],
      [
        "th",
        "ms"
      ],
      [
        "re",
        "se"
      ],
      [
        "re",
        "ci"
      ],
      [
        "re",
        "lation"
      ],
      [
        "te",
        "x"
      ],
      [
        "te",
        "sts"
      ],
      [
        "an",
        "cy"
      ],
      [
        "ti",
        "ce"
      ],
      [
        "ar",
        "th"
      ],
      [
        "ati",
        "fic"
      ],
      [
        "at",
        "ure"
      ],
      [
        "ra",
        "re"
      ],
      [
        "st",
        "ory"
      ],
      [
        "li",
        "gh"
      ],
      [
        "ul",
        "ation"
      ],
      [
        "sh",
        "y"
      ],
      [
        "de",
        "lay"
      ],
      [
        "ch",
        "ol"
      ],
      [
        "tion",
        "al"
      ],
      [
        "ro",
        "om"
      ],
      [
        "ee",
        "k"
      ],
      [
        "for",
        "ces"
      ],
      [
        "ver",
        "tex"
      ],
      [
        "pl",
        "ace"
      ],
      [
        "di",
        "d"
      ],
      [
        "di",
        "es"
      ],
      [
        "di",
        "ce"
      ],
      [
        "ma",
        "de"
      ],
      [
        "ter",
        "ms"
      ],
      [
        "ful",
        "l"
      ],
      [
        "we",
        "ap"
      ],
      [
        "we",
        "ave"
      ],
      [
        "pro",
        "b"
      ],
      [
        "pro",
        "te"
      ],
      [
        "pro",
        "of"
      ],
      [
        "pro",
        "cal"
      ],
      [
        "pro",
        "vided"
      ],
      [
        "com",
        "mun"
      ],
      [
        "fo",
        "llow"
      ],
      [
        "tra",
        "p"
      ],
      [
        "tra",
        "in"
      ],
      [
        "tra",
        "ps"
      ],
      [
        "og",
        "ni"
      ],
      [
        "bu",
        "r"
      ],
      [
        "sa",
        "ve"
      ],
      [
        "sa",
        "fe"
      ],
      [
        "ste",
        "ri"
      ],
      [
        "sp",
        "eed"
      ],
      [
        "tic",
        "k"
      ],
      [
        "dis",
        "gu"
      ],
      [
        "fa",
        "m"
      ],
      [
        "equ",
        "al"
      ],
      [
        "up",
        "on"
      ],
      [
        "know",
        "ing"
      ],
      [
        "ta",
        "kes"
      ],
      [
        "ni",
        "fic"
      ],
      [
        "po",
        "c"
      ],
      [
        "po",
        "int"
      ],
      [
        "po",
        "ints"
      ],
      [
        "own",
        "ing"
      ],
      [
        "fore",
        "st"
      ],
      [
        "fore",
        "sts"
      ],
      [
        "some",
        "one"
      ],
      [
        "lo",
        "t"
      ],
      [
        "playful",
        "ly"
      ],
      [
        "ph",
        "ones"
      ],
      [
        "In",
        "stead"
      ],
      [
        "In",
        "ner"
      ],
      [
        "fee",
        "ling"
      ],
      [
        "gr",
        "atific"
      ],
      [
        "over",
        "night"
      ],
      [
        "hum",
        "ans"
      ],
      [
        "num",
        "ber"
      ],
      [
        "des",
        "ig"
      ],
      [
        "think",
        "ers"
      ],
      [
        "form",
        "ul"
      ],
      [
        "every",
        "day"
      ],
      [
        "gg",
        "le"
      ],
      [
        "coo",
        "l"
      ],
      [
        "ide",
        "a"
      ],
      [
        "gu",
        "ard"
      ],
      [
        "gu",
        "age"
      ],
      [
        "earn",
        "s"
      ],
      [
        "tr",
        "ans"
      ],
      [
        "dar",
        "k"
      ],
      [
        "man",
        "y"
      ],
      [
        "produ",
        "ct"
      ],
      [
        "mis",
        "takes"
      ],
      [
        "skill",
        "s"
      ],
      [
        "shar",
        "per"
      ],
      [
        "9999",
        "9999"
      ],
      [
        "star",
        "ts"
      ],
      [
        "conne",
        "ction"
      ],
      [
        "minu",
        "te"
      ],
      [
        "numer",
        "ator"
      ],
      [
        "stru",
        "ct"
      ],
      [
        "vers",
        "ation"
      ],
      [
        "3333",
        "3333"
      ],
      [
        "emotion",
        "al"
      ],
      [
        "op",
        "tional"
      ],
      [
        "deep",
        "ly"
      ],
      [
        "comple",
        "x"
      ],
      [
        "streng",
        "then"
      ],
      [
        "differen",
        "t"
      ],
      [
        "differen",
        "ce"
      ],
      [
        "denomin",
        "ator"
      ],
      [
        "denomin",
        "ators"
      ],
      [
        "Stu",
        "dies"
      ],
      [
        "bo",
        "dy"
      ],
      [
        "hab",
        "its"
      ],
      [
        "loo",
        "k"
      ],
      [
        "Whi",
        "ch"
      ],
      [
        "speci",
        "es"
      ],
      [
        "pri",
        "ori"
      ],
      [
        "str",
        "ong"
      ],
      [
        "mode",
        "ls"
      ],
      [
        "possi",
        "ble"
      ],
      [
        "maintain",
        "ing"
      ],
      [
        "flex",
        "ing"
      ],
      [
        "dr",
        "owning"
      ],
      [
        "integr",
        "al"
      ],
      [
        "syste",
        "ms"
      ],
      [
        "Pro",
        "tect"
      ],
      [
        "bir",
        "th"
      ],
      [
        "benef",
        "its"
      ],
      [
        "76",
        "9"
      ],
      [
        "Sur",
        "face"
      ],
      [
        "dro",
        "ps"
      ],
      [
        "mom",
        "ent"
      ],
      [
        "shi",
        "ps"
      ],
      [
        "shif",
        "t"
      ],
      [
        "Under",
        "standing"
      ],
      [
        "corpor",
        "ate"
      ],
      [
        "academic",
        "s"
      ],
      [
        "Critic",
        "al"
      ],
      [
        "JS",
        "ON"
      ],
      [
        "Lit",
        "tle"
      ],
      [
        "Whe",
        "ther"
      ],
      [
        "cru",
        "x"
      ],
      [
        "fli",
        "rty"
      ],
      [
        "gori",
        "thms"
      ],
      [
        "lan",
        "guage"
      ],
      [
        "moun",
        "tain"
      ],
      [
        "nin",
        "th"
      ],
      [
        "pati",
        "ence"
      ],
      [
        "pap",
        "er"
      ],
      [
        "rout",
        "ine"
      ],
      [
        "stim",
        "ulation"
      ],
      [
        "wre",
        "cks"
      ],
      [
        "reci",
        "procal"
      ],
      [
        "relation",
        "ships"
      ],
      [
        "disgu",
        "ised"
      ],
      [
        "gratific",
        "ation"
      ],
      [
        "*",
        "!"
      ],
      [
        ",",
        "”"
      ],
      [
        "4",
        "2"
      ],
      [
        "6",
        "x"
      ],
      [
        "A",
        "M"
      ],
      [
        "A",
        "l"
      ],
      [
        "A",
        "p"
      ],
      [
        "A",
        "no"
      ],
      [
        "C",
        "red"
      ],
      [
        "D",
        "e"
      ],
      [
        "E",
        "arth"
      ],
      [
        "F",
        "rom"
      ],
      [
        "F",
        "ather"
      ],
      [
        "L",
        "et"
      ],
      [
        "M",
        "an"
      ],
      [
        "N",
        "ext"
      ],
      [
        "O",
        "ne"
      ],
      [
        "O",
        "oh"
      ],
      [
        "S",
        "e"
      ],
      [
        "S",
        "choo"
      ],
      [
        "T",
        "rue"
      ],
      [
        "W",
        "i"
      ],
      [
        "a",
        "ut"
      ],
      [
        "a",
        "void"
      ],
      [
        "a",
        "ire"
      ],
      [
        "b",
        "ing"
      ],
      [
        "b",
        "ro"
      ],
      [
        "b",
        "by"
      ],
      [
        "b",
        "il"
      ],
      [
        "c",
        "ou"
      ],
      [
        "c",
        "our"
      ],
      [
        "c",
        "tic"
      ],
      [
        "c",
        "oun"
      ],
      [
        "c",
        "iting"
      ],
      [
        "c",
        "apt"
      ],
      [
        "c",
        "ogni"
      ],
      [
        "d",
        "ra"
      ],
      [
        "d",
        "ul"
      ],
      [
        "d",
        "ream"
      ],
      [
        "e",
        "ld"
      ],
      [
        "e",
        "vi"
      ],
      [
        "f",
        "r"
      ],
      [
        "f",
        "ar"
      ],
      [
        "f",
        "ind"
      ],
      [
        "f",
        "uture"
      ],
      [
        "f",
        "ancy"
      ],
      [
        "g",
        "a"
      ],
      [
        "g",
        "ar"
      ],
      [
        "g",
        "ate"
      ],
      [
        "g",
        "lit"
      ],
      [
        "g",
        "antic"
      ],
      [
        "h",
        "or"
      ],
      [
        "h",
        "ind"
      ],
      [
        "h",
        "im"
      ],
      [
        "h",
        "ack"
      ],
      [
        "h",
        "int"
      ],
      [
        "h",
        "aving"
      ],
      [
        "m",
        "u"
      ],
      [
        "m",
        "ing"
      ],
      [
        "m",
        "atter"
      ],
      [
        "n",
        "g"
      ],
      [
        "n",
        "on"
      ],
      [
        "n",
        "atives"
      ],
      [
        "o",
        "ic"
      ],
      [
        "p",
        "r"
      ],
      [
        "p",
        "ace"
      ],
      [
        "s",
        "l"
      ],
      [
        "s",
        "of"
      ],
      [
        "s",
        "now"
      ],
      [
        "s",
        "wir"
      ],
      [
        "t",
        "au"
      ],
      [
        "w",
        "ant"
      ],
      [
        "y",
        "ed"
      ],
      [
        "y",
        "et"
      ],
      [
        "z",
        "z"
      ],
      [
        "z",
        "om"
      ],
      [
        "z",
        "ed"
      ],
      [
        "in",
        "no"
      ],
      [
        "in",
        "stru"
      ],
      [
        "th",
        "ri"
      ],
      [
        "th",
        "ood"
      ],
      [
        "th",
        "um"
      ],
      [
        "re",
        "ch"
      ],
      [
        "re",
        "feren"
      ],
      [
        "te",
        "ra"
      ],
      [
        "an",
        "ti"
      ],
      [
        "an",
        "cial"
      ],
      [
        "on",
        "om"
      ],
      [
        "al",
        "ter"
      ],
      [
        "is",
        "ts"
      ],
      [
        "ar",
        "ound"
      ],
      [
        "ve",
        "get"
      ],
      [
        "it",
        "at"
      ],
      [
        "ati",
        "vity"
      ],
      [
        "to",
        "pi"
      ],
      [
        "ra",
        "ted"
      ],
      [
        "you",
        "ng"
      ],
      [
        "st",
        "y"
      ],
      [
        "st",
        "art"
      ],
      [
        "cre",
        "ativity"
      ],
      [
        "he",
        "d"
      ],
      [
        "li",
        "e"
      ],
      [
        "li",
        "ter"
      ],
      [
        "li",
        "tera"
      ],
      [
        "ul",
        "thood"
      ],
      [
        "with",
        "in"
      ],
      [
        "sh",
        "im"
      ],
      [
        "se",
        "par"
      ],
      [
        "si",
        "cal"
      ],
      [
        "si",
        "dering"
      ],
      [
        "ch",
        "oic"
      ],
      [
        "me",
        "aning"
      ],
      [
        "ad",
        "v"
      ],
      [
        "ad",
        "ulthood"
      ],
      [
        "be",
        "au"
      ],
      [
        "be",
        "hind"
      ],
      [
        "ee",
        "p"
      ],
      [
        "for",
        "ce"
      ],
      [
        "ab",
        "i"
      ],
      [
        "fl",
        "o"
      ],
      [
        "ke",
        "pt"
      ],
      [
        "ver",
        "se"
      ],
      [
        "my",
        "steri"
      ],
      [
        "con",
        "text"
      ],
      [
        "con",
        "tract"
      ],
      [
        "con",
        "sidering"
      ],
      [
        "ut",
        "ing"
      ],
      [
        "ac",
        "tive"
      ],
      [
        "su",
        "re"
      ],
      [
        "su",
        "ch"
      ],
      [
        "ic",
        "ate"
      ],
      [
        "pe",
        "ti"
      ],
      [
        "pe",
        "ace"
      ],
      [
        "pro",
        "vide"
      ],
      [
        "au",
        "topi"
      ],
      [
        "our",
        "ce"
      ],
      [
        "ent",
        "y"
      ],
      [
        "vi",
        "ties"
      ],
      [
        "vi",
        "br"
      ],
      [
        "ap",
        "y"
      ],
      [
        "ap",
        "pro"
      ],
      [
        "fe",
        "w"
      ],
      [
        "fe",
        "ar"
      ],
      [
        "bu",
        "dget"
      ],
      [
        "bu",
        "ys"
      ],
      [
        "sa",
        "ves"
      ],
      [
        "ste",
        "al"
      ],
      [
        "ex",
        "ci"
      ],
      [
        "ex",
        "citing"
      ],
      [
        "tw",
        "enty"
      ],
      [
        "sp",
        "it"
      ],
      [
        "do",
        "ing"
      ],
      [
        "fi",
        "f"
      ],
      [
        "fi",
        "x"
      ],
      [
        "gi",
        "gantic"
      ],
      [
        "ques",
        "t"
      ],
      [
        "up",
        "stream"
      ],
      [
        "know",
        "s"
      ],
      [
        "cl",
        "oud"
      ],
      [
        "den",
        "ti"
      ],
      [
        "sim",
        "ply"
      ],
      [
        "sim",
        "plify"
      ],
      [
        "ther",
        "apy"
      ],
      [
        "person",
        "ality"
      ],
      [
        "In",
        "crease"
      ],
      [
        "lu",
        "ck"
      ],
      [
        "mag",
        "nific"
      ],
      [
        "cle",
        "aning"
      ],
      [
        "ill",
        "s"
      ],
      [
        "pli",
        "ed"
      ],
      [
        "bi",
        "es"
      ],
      [
        "bi",
        "ases"
      ],
      [
        "bi",
        "gger"
      ],
      [
        "tr",
        "ust"
      ],
      [
        "cal",
        "led"
      ],
      [
        "Di",
        "gital"
      ],
      [
        "tre",
        "as"
      ],
      [
        "real",
        "m"
      ],
      [
        "see",
        "med"
      ],
      [
        "under",
        "rated"
      ],
      [
        "ink",
        "le"
      ],
      [
        "small",
        "er"
      ],
      [
        "sil",
        "ence"
      ],
      [
        "respon",
        "se"
      ],
      [
        "ear",
        "ly"
      ],
      [
        "tur",
        "n"
      ],
      [
        "remember",
        "ing"
      ],
      [
        "ho",
        "bby"
      ],
      [
        "nat",
        "ural"
      ],
      [
        "conne",
        "cts"
      ],
      [
        "Be",
        "ing"
      ],
      [
        "critic",
        "ally"
      ],
      [
        "bre",
        "ak"
      ],
      [
        "bl",
        "ur"
      ],
      [
        "shape",
        "d"
      ],
      [
        "Whi",
        "le"
      ],
      [
        "love",
        "ly"
      ],
      [
        "speci",
        "fic"
      ],
      [
        "manage",
        "ment"
      ],
      [
        "pra",
        "ctice"
      ],
      [
        "pra",
        "ctic"
      ],
      [
        "memori",
        "es"
      ],
      [
        "sti",
        "ll"
      ],
      [
        "extra",
        "ct"
      ],
      [
        "Con",
        "si"
      ],
      [
        "ball",
        "s"
      ],
      [
        "fri",
        "end"
      ],
      [
        "mer",
        "ing"
      ],
      [
        "run",
        "s"
      ],
      [
        "sort",
        "ing"
      ],
      [
        "react",
        "ing"
      ],
      [
        "remain",
        "ing"
      ],
      [
        "leve",
        "l"
      ],
      [
        "impul",
        "se"
      ],
      [
        "fight",
        "ing"
      ],
      [
        "consisten",
        "t"
      ],
      [
        "Ex",
        "plain"
      ],
      [
        "imag",
        "ine"
      ],
      [
        "wise",
        "ly"
      ],
      [
        "incl",
        "ude"
      ],
      [
        "lion",
        "aire"
      ],
      [
        "acti",
        "vities"
      ],
      [
        "audit",
        "ing"
      ],
      [
        "mas",
        "sive"
      ],
      [
        "did",
        "n"
      ],
      [
        "weap",
        "on"
      ],
      [
        "commun",
        "icate"
      ],
      [
        "desig",
        "ned"
      ],
      [
        "mountain",
        "s"
      ],
      [
        "Ano",
        "ther"
      ],
      [
        "Cred",
        "it"
      ],
      [
        "Man",
        "age"
      ],
      [
        "Schoo",
        "ls"
      ],
      [
        "aut",
        "onom"
      ],
      [
        "bing",
        "e"
      ],
      [
        "bil",
        "lionaire"
      ],
      [
        "capt",
        "ure"
      ],
      [
        "cogni",
        "tive"
      ],
      [
        "evi",
        "dence"
      ],
      [
        "glit",
        "ch"
      ],
      [
        "tau",
        "ght"
      ],
      [
        "zom",
        "bies"
      ],
      [
        "inno",
        "vation"
      ],
      [
        "instru",
        "ctions"
      ],
      [
        "thri",
        "ves"
      ],
      [
        "rech",
        "arge"
      ],
      [
        "alter",
        "natives"
      ],
      [
        "liter",
        "ally"
      ],
      [
        "litera",
        "cy"
      ],
      [
        "shim",
        "mering"
      ],
      [
        "separ",
        "ate"
      ],
      [
        "choic",
        "es"
      ],
      [
        "beau",
        "ti"
      ],
      [
        "autopi",
        "lot"
      ],
      [
        "magnific",
        "ent"
      ],
      [
        "autonom",
        "y"
      ],
      [
        "%",
        ","
      ],
      [
        "1",
        "1"
      ],
      [
        "2",
        "3"
      ],
      [
        "2",
        "30"
      ],
      [
        "3",
        "6"
      ],
      [
        "3",
        "9"
      ],
      [
        "4",
        "7"
      ],
      [
        "5",
        "6"
      ],
      [
        "5",
        "x"
      ],
      [
        "6",
        "7"
      ],
      [
        "6",
        "8"
      ],
      [
        "7",
        "0"
      ],
      [
        "8",
        "0"
      ],
      [
        "?",
        "\""
      ],
      [
        "?",
        "',"
      ],
      [
        "B",
        "asic"
      ],
      [
        "C",
        "re"
      ],
      [
        "C",
        "ons"
      ],
      [
        "G",
        "ood"
      ],
      [
        "G",
        "row"
      ],
      [
        "H",
        "um"
      ],
      [
        "I",
        "sn"
      ],
      [
        "K",
        "now"
      ],
      [
        "L",
        "i"
      ],
      [
        "M",
        "any"
      ],
      [
        "N",
        "ew"
      ],
      [
        "P",
        "er"
      ],
      [
        "a",
        "vi"
      ],
      [
        "b",
        "us"
      ],
      [
        "b",
        "arely"
      ],
      [
        "c",
        "a"
      ],
      [
        "c",
        "er"
      ],
      [
        "c",
        "ri"
      ],
      [
        "c",
        "king"
      ],
      [
        "c",
        "ent"
      ],
      [
        "c",
        "alculate"
      ],
      [
        "c",
        "over"
      ],
      [
        "c",
        "utter"
      ],
      [
        "d",
        "ers"
      ],
      [
        "d",
        "est"
      ],
      [
        "e",
        "di"
      ],
      [
        "f",
        "f"
      ],
      [
        "f",
        "il"
      ],
      [
        "f",
        "act"
      ],
      [
        "g",
        "y"
      ],
      [
        "g",
        "on"
      ],
      [
        "g",
        "le"
      ],
      [
        "g",
        "one"
      ],
      [
        "g",
        "ree"
      ],
      [
        "g",
        "est"
      ],
      [
        "h",
        "on"
      ],
      [
        "h",
        "ar"
      ],
      [
        "h",
        "id"
      ],
      [
        "i",
        "z"
      ],
      [
        "i",
        "er"
      ],
      [
        "i",
        "tion"
      ],
      [
        "i",
        "ons"
      ],
      [
        "i",
        "denti"
      ],
      [
        "k",
        "en"
      ],
      [
        "k",
        "ay"
      ],
      [
        "k",
        "ward"
      ],
      [
        "l",
        "is"
      ],
      [
        "l",
        "ist"
      ],
      [
        "m",
        "and"
      ],
      [
        "n",
        "ame"
      ],
      [
        "o",
        "ve"
      ],
      [
        "o",
        "so"
      ],
      [
        "o",
        "ck"
      ],
      [
        "p",
        "ause"
      ],
      [
        "p",
        "atch"
      ],
      [
        "r",
        "ant"
      ],
      [
        "r",
        "int"
      ],
      [
        "r",
        "inkle"
      ],
      [
        "s",
        "or"
      ],
      [
        "s",
        "it"
      ],
      [
        "s",
        "om"
      ],
      [
        "s",
        "li"
      ],
      [
        "s",
        "pi"
      ],
      [
        "s",
        "ky"
      ],
      [
        "t",
        "ly"
      ],
      [
        "t",
        "ang"
      ],
      [
        "t",
        "rue"
      ],
      [
        "t",
        "uting"
      ],
      [
        "u",
        "te"
      ],
      [
        "u",
        "sion"
      ],
      [
        "v",
        "ant"
      ],
      [
        "w",
        "ar"
      ],
      [
        "in",
        "di"
      ],
      [
        "in",
        "ter"
      ],
      [
        "in",
        "stant"
      ],
      [
        "in",
        "vol"
      ],
      [
        "th",
        "ir"
      ],
      [
        "th",
        "row"
      ],
      [
        "th",
        "ird"
      ],
      [
        "re",
        "p"
      ],
      [
        "re",
        "in"
      ],
      [
        "re",
        "le"
      ],
      [
        "re",
        "si"
      ],
      [
        "re",
        "minds"
      ],
      [
        "re",
        "quest"
      ],
      [
        "te",
        "ment"
      ],
      [
        "an",
        "al"
      ],
      [
        "ti",
        "t"
      ],
      [
        "ti",
        "st"
      ],
      [
        "on",
        "line"
      ],
      [
        "er",
        "a"
      ],
      [
        "er",
        "ves"
      ],
      [
        "er",
        "vation"
      ],
      [
        "er",
        "ies"
      ],
      [
        "en",
        "e"
      ],
      [
        "en",
        "ge"
      ],
      [
        "en",
        "ough"
      ],
      [
        "al",
        "gorithms"
      ],
      [
        "ar",
        "gu"
      ],
      [
        "ar",
        "tist"
      ],
      [
        "es",
        "tions"
      ],
      [
        "it",
        "self"
      ],
      [
        "le",
        "ft"
      ],
      [
        "ow",
        "ls"
      ],
      [
        "ra",
        "m"
      ],
      [
        "ra",
        "ise"
      ],
      [
        "ra",
        "ces"
      ],
      [
        "st",
        "ay"
      ],
      [
        "st",
        "ree"
      ],
      [
        "st",
        "ack"
      ],
      [
        "st",
        "ability"
      ],
      [
        "cre",
        "sc"
      ],
      [
        "cre",
        "ases"
      ],
      [
        "as",
        "s"
      ],
      [
        "as",
        "tic"
      ],
      [
        "li",
        "ving"
      ],
      [
        "li",
        "ence"
      ],
      [
        "ld",
        "ing"
      ],
      [
        "sh",
        "all"
      ],
      [
        "de",
        "ad"
      ],
      [
        "de",
        "cl"
      ],
      [
        "de",
        "velo"
      ],
      [
        "de",
        "mand"
      ],
      [
        "se",
        "t"
      ],
      [
        "se",
        "en"
      ],
      [
        "ch",
        "all"
      ],
      [
        "ch",
        "ase"
      ],
      [
        "me",
        "di"
      ],
      [
        "for",
        "get"
      ],
      [
        "ll",
        "o"
      ],
      [
        "ab",
        "ol"
      ],
      [
        "ab",
        "ove"
      ],
      [
        "fl",
        "air"
      ],
      [
        "ke",
        "t"
      ],
      [
        "ge",
        "tting"
      ],
      [
        "no",
        "re"
      ],
      [
        "no",
        "thing"
      ],
      [
        "un",
        "ks"
      ],
      [
        "pl",
        "ac"
      ],
      [
        "ac",
        "tion"
      ],
      [
        "ac",
        "cu"
      ],
      [
        "ac",
        "ked"
      ],
      [
        "su",
        "p"
      ],
      [
        "su",
        "bs"
      ],
      [
        "we",
        "ak"
      ],
      [
        "mo",
        "ths"
      ],
      [
        "pro",
        "ve"
      ],
      [
        "pro",
        "cess"
      ],
      [
        "com",
        "mon"
      ],
      [
        "com",
        "bin"
      ],
      [
        "ne",
        "ural"
      ],
      [
        "vi",
        "ous"
      ],
      [
        "Th",
        "ese"
      ],
      [
        "ap",
        "pe"
      ],
      [
        "ap",
        "ply"
      ],
      [
        "fe",
        "cts"
      ],
      [
        "nd",
        "s"
      ],
      [
        "sa",
        "ving"
      ],
      [
        "ste",
        "ps"
      ],
      [
        "ur",
        "ally"
      ],
      [
        "ex",
        "isten"
      ],
      [
        "ex",
        "pres"
      ],
      [
        "im",
        "prove"
      ],
      [
        "il",
        "oso"
      ],
      [
        "ine",
        "d"
      ],
      [
        "ine",
        "er"
      ],
      [
        "sp",
        "rinkle"
      ],
      [
        "do",
        "te"
      ],
      [
        "dis",
        "t"
      ],
      [
        "fa",
        "il"
      ],
      [
        "fa",
        "ther"
      ],
      [
        "gi",
        "es"
      ],
      [
        "gi",
        "ve"
      ],
      [
        "ep",
        "rint"
      ],
      [
        "den",
        "se"
      ],
      [
        "am",
        "es"
      ],
      [
        "am",
        "oun"
      ],
      [
        "ru",
        "sh"
      ],
      [
        "ru",
        "ins"
      ],
      [
        "was",
        "te"
      ],
      [
        "ni",
        "gh"
      ],
      [
        "po",
        "si"
      ],
      [
        "po",
        "pul"
      ],
      [
        "sim",
        "pl"
      ],
      [
        "red",
        "u"
      ],
      [
        "pers",
        "pe"
      ],
      [
        "We",
        "ll"
      ],
      [
        "ph",
        "iloso"
      ],
      [
        "mind",
        "less"
      ],
      [
        "Bre",
        "ak"
      ],
      [
        "gr",
        "ound"
      ],
      [
        "pre",
        "p"
      ],
      [
        "pre",
        "vious"
      ],
      [
        "des",
        "ire"
      ],
      [
        "won",
        "dered"
      ],
      [
        "than",
        "k"
      ],
      [
        "ment",
        "al"
      ],
      [
        "form",
        "at"
      ],
      [
        "go",
        "al"
      ],
      [
        "every",
        "one"
      ],
      [
        "every",
        "where"
      ],
      [
        "conc",
        "er"
      ],
      [
        "conc",
        "ave"
      ],
      [
        "bi",
        "g"
      ],
      [
        "bi",
        "lities"
      ],
      [
        "par",
        "abol"
      ],
      [
        "pas",
        "sed"
      ],
      [
        "sm",
        "i"
      ],
      [
        "ist",
        "les"
      ],
      [
        "bri",
        "gh"
      ],
      [
        "14",
        "2"
      ],
      [
        "Di",
        "viding"
      ],
      [
        "multi",
        "ply"
      ],
      [
        "Sub",
        "sti"
      ],
      [
        "la",
        "ke"
      ],
      [
        "tre",
        "nds"
      ],
      [
        "mis",
        "sing"
      ],
      [
        "comp",
        "ound"
      ],
      [
        "sur",
        "face"
      ],
      [
        "He",
        "he"
      ],
      [
        "qui",
        "te"
      ],
      [
        "che",
        "ck"
      ],
      [
        "mon",
        "ths"
      ],
      [
        "shar",
        "p"
      ],
      [
        "shar",
        "ing"
      ],
      [
        "Subtract",
        "ing"
      ],
      [
        "ig",
        "nore"
      ],
      [
        "nat",
        "urally"
      ],
      [
        "fav",
        "orable"
      ],
      [
        "curi",
        "ous"
      ],
      [
        "wonderful",
        "ly"
      ],
      [
        "basic",
        "ally"
      ],
      [
        "late",
        "r"
      ],
      [
        "men",
        "tion"
      ],
      [
        "mic",
        "ro"
      ],
      [
        "cep",
        "t"
      ],
      [
        "wr",
        "ong"
      ],
      [
        "wr",
        "iting"
      ],
      [
        "intention",
        "al"
      ],
      [
        "sol",
        "ve"
      ],
      [
        "exam",
        "ple"
      ],
      [
        "streng",
        "th"
      ],
      [
        "16",
        "6"
      ],
      [
        "fun",
        "d"
      ],
      [
        "gre",
        "at"
      ],
      [
        "gre",
        "ater"
      ],
      [
        "say",
        "ing"
      ],
      [
        "sig",
        "nature"
      ],
      [
        "uni",
        "verse"
      ],
      [
        "sub",
        "tle"
      ],
      [
        "silent",
        "ly"
      ],
      [
        "hab",
        "itat"
      ],
      [
        "pu",
        "zz"
      ],
      [
        "protect",
        "ing"
      ],
      [
        "express",
        "ing"
      ],
      [
        "state",
        "ments"
      ],
      [
        "mode",
        "l"
      ],
      [
        "possi",
        "bilities"
      ],
      [
        "bin",
        "ing"
      ],
      [
        "sen",
        "s"
      ],
      [
        "100",
        "0"
      ],
      [
        "Com",
        "p"
      ],
      [
        "Com",
        "bining"
      ],
      [
        "refle",
        "ct"
      ],
      [
        "whis",
        "k"
      ],
      [
        "partic",
        "le"
      ],
      [
        "frag",
        "ments"
      ],
      [
        "Every",
        "one"
      ],
      [
        "aw",
        "kward"
      ],
      [
        "blu",
        "eprint"
      ],
      [
        "eas",
        "ier"
      ],
      [
        "fall",
        "ing"
      ],
      [
        "gl",
        "ad"
      ],
      [
        "home",
        "work"
      ],
      [
        "watch",
        "ing"
      ],
      [
        "eng",
        "ineer"
      ],
      [
        "may",
        "be"
      ],
      [
        "prob",
        "ability"
      ],
      [
        "prote",
        "cts"
      ],
      [
        "fam",
        "ily"
      ],
      [
        "feeling",
        "s"
      ],
      [
        "formul",
        "as"
      ],
      [
        "birth",
        "day"
      ],
      [
        "769",
        "230"
      ],
      [
        "Se",
        "tting"
      ],
      [
        "Wi",
        "th"
      ],
      [
        "referen",
        "cing"
      ],
      [
        "veget",
        "ation"
      ],
      [
        "sty",
        "le"
      ],
      [
        "adv",
        "ent"
      ],
      [
        "abi",
        "lities"
      ],
      [
        "flo",
        "or"
      ],
      [
        "mysteri",
        "ous"
      ],
      [
        "vibr",
        "ations"
      ],
      [
        "exci",
        "tement"
      ],
      [
        "fif",
        "th"
      ],
      [
        "practic",
        "al"
      ],
      [
        "Consi",
        "dered"
      ],
      [
        "Basic",
        "ally"
      ],
      [
        "Hum",
        "ans"
      ],
      [
        "cer",
        "tain"
      ],
      [
        "edi",
        "ble"
      ],
      [
        "hon",
        "est"
      ],
      [
        "hid",
        "den"
      ],
      [
        "thir",
        "ty"
      ],
      [
        "rele",
        "vant"
      ],
      [
        "resi",
        "lience"
      ],
      [
        "cresc",
        "ent"
      ],
      [
        "chall",
        "enge"
      ],
      [
        "accu",
        "rate"
      ],
      [
        "subs",
        "tit"
      ],
      [
        "combin",
        "ations"
      ],
      [
        "existen",
        "ce"
      ],
      [
        "expres",
        "sion"
      ],
      [
        "amoun",
        "ts"
      ],
      [
        "parabol",
        "a"
      ],
      [
        "Substi",
        "tuting"
      ],
      [
        "puzz",
        "le"
      ],
      [
        "!",
        "\""
      ],
      [
        "!",
        ")."
      ],
      [
        "1",
        "25"
      ],
      [
        "6",
        "0"
      ],
      [
        "6",
        "3"
      ],
      [
        "9",
        "6"
      ],
      [
        "9",
        "x"
      ],
      [
        "A",
        "w"
      ],
      [
        "A",
        "th"
      ],
      [
        "A",
        "ure"
      ],
      [
        "A",
        "void"
      ],
      [
        "B",
        "u"
      ],
      [
        "B",
        "en"
      ],
      [
        "B",
        "et"
      ],
      [
        "C",
        "h"
      ],
      [
        "C",
        "ul"
      ],
      [
        "D",
        "o"
      ],
      [
        "D",
        "r"
      ],
      [
        "F",
        "in"
      ],
      [
        "G",
        "o"
      ],
      [
        "G",
        "oo"
      ],
      [
        "G",
        "ry"
      ],
      [
        "H",
        "T"
      ],
      [
        "H",
        "i"
      ],
      [
        "I",
        "ts"
      ],
      [
        "K",
        "eep"
      ],
      [
        "M",
        "a"
      ],
      [
        "M",
        "ess"
      ],
      [
        "M",
        "ore"
      ],
      [
        "N",
        "a"
      ],
      [
        "O",
        "n"
      ],
      [
        "O",
        "r"
      ],
      [
        "O",
        "ld"
      ],
      [
        "P",
        "h"
      ],
      [
        "P",
        "l"
      ],
      [
        "P",
        "ra"
      ],
      [
        "P",
        "ay"
      ],
      [
        "P",
        "ower"
      ],
      [
        "R",
        "om"
      ],
      [
        "R",
        "arely"
      ],
      [
        "S",
        "eek"
      ],
      [
        "S",
        "tick"
      ],
      [
        "T",
        "P"
      ],
      [
        "T",
        "o"
      ],
      [
        "V",
        "in"
      ],
      [
        "W",
        "r"
      ],
      [
        "W",
        "ant"
      ],
      [
        "W",
        "here"
      ],
      [
        "W",
        "ild"
      ],
      [
        "a",
        "es"
      ],
      [
        "a",
        "st"
      ],
      [
        "a",
        "my"
      ],
      [
        "a",
        "sts"
      ],
      [
        "a",
        "ples"
      ],
      [
        "a",
        "head"
      ],
      [
        "b",
        "an"
      ],
      [
        "b",
        "ar"
      ],
      [
        "b",
        "its"
      ],
      [
        "b",
        "les"
      ],
      [
        "b",
        "acks"
      ],
      [
        "b",
        "acked"
      ],
      [
        "c",
        "r"
      ],
      [
        "c",
        "um"
      ],
      [
        "c",
        "ur"
      ],
      [
        "c",
        "est"
      ],
      [
        "c",
        "ted"
      ],
      [
        "c",
        "ase"
      ],
      [
        "c",
        "ating"
      ],
      [
        "c",
        "ame"
      ],
      [
        "c",
        "cess"
      ],
      [
        "d",
        "den"
      ],
      [
        "d",
        "rain"
      ],
      [
        "d",
        "ama"
      ],
      [
        "d",
        "inner"
      ],
      [
        "e",
        "gg"
      ],
      [
        "e",
        "valu"
      ],
      [
        "f",
        "ers"
      ],
      [
        "g",
        "es"
      ],
      [
        "g",
        "ation"
      ],
      [
        "g",
        "ain"
      ],
      [
        "g",
        "dal"
      ],
      [
        "g",
        "gies"
      ],
      [
        "g",
        "ames"
      ],
      [
        "h",
        "i"
      ],
      [
        "h",
        "es"
      ],
      [
        "h",
        "it"
      ],
      [
        "h",
        "its"
      ],
      [
        "h",
        "ip"
      ],
      [
        "h",
        "orm"
      ],
      [
        "i",
        "al"
      ],
      [
        "i",
        "us"
      ],
      [
        "i",
        "ted"
      ],
      [
        "i",
        "et"
      ],
      [
        "j",
        "u"
      ],
      [
        "j",
        "our"
      ],
      [
        "j",
        "am"
      ],
      [
        "j",
        "ack"
      ],
      [
        "j",
        "ured"
      ],
      [
        "k",
        "ni"
      ],
      [
        "k",
        "new"
      ],
      [
        "k",
        "itch"
      ],
      [
        "l",
        "t"
      ],
      [
        "l",
        "in"
      ],
      [
        "m",
        "or"
      ],
      [
        "m",
        "it"
      ],
      [
        "m",
        "ad"
      ],
      [
        "m",
        "ood"
      ],
      [
        "m",
        "ming"
      ],
      [
        "m",
        "moths"
      ],
      [
        "n",
        "t"
      ],
      [
        "n",
        "y"
      ],
      [
        "n",
        "ad"
      ],
      [
        "n",
        "ee"
      ],
      [
        "n",
        "ut"
      ],
      [
        "n",
        "avi"
      ],
      [
        "o",
        "d"
      ],
      [
        "o",
        "x"
      ],
      [
        "o",
        "pe"
      ],
      [
        "o",
        "per"
      ],
      [
        "o",
        "tic"
      ],
      [
        "o",
        "ils"
      ],
      [
        "p",
        "es"
      ],
      [
        "p",
        "us"
      ],
      [
        "p",
        "am"
      ],
      [
        "p",
        "ment"
      ],
      [
        "p",
        "acks"
      ],
      [
        "p",
        "aren"
      ],
      [
        "p",
        "eek"
      ],
      [
        "r",
        "ul"
      ],
      [
        "s",
        "ou"
      ],
      [
        "s",
        "al"
      ],
      [
        "s",
        "to"
      ],
      [
        "s",
        "us"
      ],
      [
        "s",
        "top"
      ],
      [
        "s",
        "chol"
      ],
      [
        "s",
        "ource"
      ],
      [
        "t",
        "on"
      ],
      [
        "t",
        "ow"
      ],
      [
        "t",
        "ch"
      ],
      [
        "u",
        "al"
      ],
      [
        "u",
        "es"
      ],
      [
        "u",
        "res"
      ],
      [
        "u",
        "ps"
      ],
      [
        "u",
        "ine"
      ],
      [
        "v",
        "an"
      ],
      [
        "w",
        "ro"
      ],
      [
        "w",
        "ave"
      ],
      [
        "w",
        "ink"
      ],
      [
        "x",
        "iet"
      ],
      [
        "y",
        "es"
      ],
      [
        "y",
        "ze"
      ],
      [
        "y",
        "chol"
      ],
      [
        "’",
        "."
      ],
      [
        "in",
        "st"
      ],
      [
        "in",
        "si"
      ],
      [
        "in",
        "fo"
      ],
      [
        "in",
        "ess"
      ],
      [
        "in",
        "ven"
      ],
      [
        "in",
        "finite"
      ],
      [
        "in",
        "corporate"
      ],
      [
        "in",
        "ions"
      ],
      [
        "th",
        "es"
      ],
      [
        "th",
        "ous"
      ],
      [
        "th",
        "less"
      ],
      [
        "th",
        "od"
      ],
      [
        "re",
        "w"
      ],
      [
        "re",
        "ce"
      ],
      [
        "re",
        "be"
      ],
      [
        "re",
        "ally"
      ],
      [
        "re",
        "pre"
      ],
      [
        "re",
        "ction"
      ],
      [
        "re",
        "pay"
      ],
      [
        "re",
        "ward"
      ],
      [
        "re",
        "hear"
      ],
      [
        "re",
        "ject"
      ],
      [
        "re",
        "vis"
      ],
      [
        "re",
        "shaped"
      ],
      [
        "re",
        "fund"
      ],
      [
        "te",
        "m"
      ],
      [
        "te",
        "st"
      ],
      [
        "an",
        "no"
      ],
      [
        "an",
        "ation"
      ],
      [
        "an",
        "ces"
      ],
      [
        "an",
        "tom"
      ],
      [
        "an",
        "cest"
      ],
      [
        "an",
        "xiet"
      ],
      [
        "ti",
        "ally"
      ],
      [
        "ti",
        "ze"
      ],
      [
        "on",
        "t"
      ],
      [
        "er",
        "gy"
      ],
      [
        "en",
        "ds"
      ],
      [
        "en",
        "ded"
      ],
      [
        "en",
        "ters"
      ],
      [
        "en",
        "cou"
      ],
      [
        "en",
        "ergy"
      ],
      [
        "al",
        "le"
      ],
      [
        "al",
        "one"
      ],
      [
        "al",
        "og"
      ],
      [
        "al",
        "most"
      ],
      [
        "al",
        "ive"
      ],
      [
        "is",
        "ol"
      ],
      [
        "ar",
        "s"
      ],
      [
        "ar",
        "ch"
      ],
      [
        "ar",
        "ted"
      ],
      [
        "ar",
        "range"
      ],
      [
        "and",
        "ma"
      ],
      [
        "es",
        "sed"
      ],
      [
        "or",
        "ical"
      ],
      [
        "or",
        "ange"
      ],
      [
        "or",
        "dering"
      ],
      [
        "the",
        "tic"
      ],
      [
        "the",
        "arted"
      ],
      [
        "ve",
        "ment"
      ],
      [
        "ve",
        "ggies"
      ],
      [
        "it",
        "ten"
      ],
      [
        "le",
        "t"
      ],
      [
        "le",
        "ts"
      ],
      [
        "le",
        "git"
      ],
      [
        "le",
        "tes"
      ],
      [
        "at",
        "a"
      ],
      [
        "ra",
        "se"
      ],
      [
        "ra",
        "di"
      ],
      [
        "ra",
        "ther"
      ],
      [
        "ra",
        "tes"
      ],
      [
        "ra",
        "rely"
      ],
      [
        "st",
        "u"
      ],
      [
        "st",
        "ri"
      ],
      [
        "st",
        "range"
      ],
      [
        "st",
        "aples"
      ],
      [
        "cre",
        "ate"
      ],
      [
        "as",
        "ing"
      ],
      [
        "as",
        "pe"
      ],
      [
        "as",
        "pect"
      ],
      [
        "ri",
        "ce"
      ],
      [
        "ri",
        "tion"
      ],
      [
        "ri",
        "vers"
      ],
      [
        "li",
        "us"
      ],
      [
        "ul",
        "y"
      ],
      [
        "ul",
        "sive"
      ],
      [
        "with",
        "dra"
      ],
      [
        "oo",
        "se"
      ],
      [
        "oo",
        "zing"
      ],
      [
        "sh",
        "es"
      ],
      [
        "sh",
        "ip"
      ],
      [
        "de",
        "finite"
      ],
      [
        "de",
        "pri"
      ],
      [
        "se",
        "tting"
      ],
      [
        "si",
        "ght"
      ],
      [
        "si",
        "bling"
      ],
      [
        "ch",
        "ang"
      ],
      [
        "ch",
        "ills"
      ],
      [
        "ch",
        "unks"
      ],
      [
        "ch",
        "asing"
      ],
      [
        "qu",
        "eries"
      ],
      [
        "me",
        "al"
      ],
      [
        "me",
        "thod"
      ],
      [
        "ro",
        "of"
      ],
      [
        "ro",
        "gation"
      ],
      [
        "ad",
        "di"
      ],
      [
        "ad",
        "dition"
      ],
      [
        "be",
        "red"
      ],
      [
        "be",
        "gin"
      ],
      [
        "be",
        "lie"
      ],
      [
        "be",
        "asts"
      ],
      [
        "us",
        "es"
      ],
      [
        "us",
        "ually"
      ],
      [
        "for",
        "t"
      ],
      [
        "for",
        "got"
      ],
      [
        "ll",
        "s"
      ],
      [
        "ll",
        "ag"
      ],
      [
        "ab",
        "lis"
      ],
      [
        "fl",
        "ash"
      ],
      [
        "fl",
        "aw"
      ],
      [
        "gen",
        "ius"
      ],
      [
        "gen",
        "uine"
      ],
      [
        "mmar",
        "ize"
      ],
      [
        "no",
        "tice"
      ],
      [
        "ver",
        "t"
      ],
      [
        "my",
        "self"
      ],
      [
        "con",
        "versation"
      ],
      [
        "con",
        "jured"
      ],
      [
        "con",
        "vert"
      ],
      [
        "gra",
        "du"
      ],
      [
        "un",
        "g"
      ],
      [
        "un",
        "its"
      ],
      [
        "ir",
        "m"
      ],
      [
        "ac",
        "cept"
      ],
      [
        "di",
        "viding"
      ],
      [
        "di",
        "ary"
      ],
      [
        "di",
        "rection"
      ],
      [
        "di",
        "alog"
      ],
      [
        "ma",
        "res"
      ],
      [
        "ma",
        "mmoths"
      ],
      [
        "out",
        "put"
      ],
      [
        "ter",
        "nal"
      ],
      [
        "su",
        "gar"
      ],
      [
        "su",
        "ccess"
      ],
      [
        "are",
        "ness"
      ],
      [
        "we",
        "en"
      ],
      [
        "we",
        "igh"
      ],
      [
        "mo",
        "ves"
      ],
      [
        "mo",
        "vement"
      ],
      [
        "pro",
        "per"
      ],
      [
        "pro",
        "ves"
      ],
      [
        "pro",
        "ving"
      ],
      [
        "au",
        "rant"
      ],
      [
        "com",
        "ing"
      ],
      [
        "com",
        "men"
      ],
      [
        "com",
        "peti"
      ],
      [
        "com",
        "fort"
      ],
      [
        "res",
        "sion"
      ],
      [
        "res",
        "cent"
      ],
      [
        "ne",
        "ur"
      ],
      [
        "ent",
        "repre"
      ],
      [
        "vi",
        "ew"
      ],
      [
        "vi",
        "llag"
      ],
      [
        "ci",
        "pes"
      ],
      [
        "Th",
        "ree"
      ],
      [
        "Th",
        "ose"
      ],
      [
        "wor",
        "ship"
      ],
      [
        "ten",
        "s"
      ],
      [
        "ten",
        "tially"
      ],
      [
        "ap",
        "plied"
      ],
      [
        "tra",
        "ins"
      ],
      [
        "fe",
        "lt"
      ],
      [
        "fe",
        "tch"
      ],
      [
        "ind",
        "ly"
      ],
      [
        "ind",
        "ol"
      ],
      [
        "og",
        "ists"
      ],
      [
        "ant",
        "astic"
      ],
      [
        "ste",
        "als"
      ],
      [
        "ex",
        "pect"
      ],
      [
        "ex",
        "ternal"
      ],
      [
        "ps",
        "ychol"
      ],
      [
        "tw",
        "are"
      ],
      [
        "lau",
        "gh"
      ],
      [
        "ess",
        "ing"
      ],
      [
        "ven",
        "ts"
      ],
      [
        "sp",
        "ent"
      ],
      [
        "sp",
        "ace"
      ],
      [
        "do",
        "or"
      ],
      [
        "do",
        "pam"
      ],
      [
        "dis",
        "tract"
      ],
      [
        "dis",
        "tur"
      ],
      [
        "dis",
        "cover"
      ],
      [
        "dis",
        "hes"
      ],
      [
        "dis",
        "comfort"
      ],
      [
        "fa",
        "ir"
      ],
      [
        "fa",
        "ult"
      ],
      [
        "gi",
        "ving"
      ],
      [
        "gi",
        "ene"
      ],
      [
        "cul",
        "tur"
      ],
      [
        "up",
        "date"
      ],
      [
        "cl",
        "es"
      ],
      [
        "cl",
        "as"
      ],
      [
        "cl",
        "ose"
      ],
      [
        "cl",
        "ock"
      ],
      [
        "den",
        "ts"
      ],
      [
        "am",
        "pus"
      ],
      [
        "ru",
        "thless"
      ],
      [
        "po",
        "p"
      ],
      [
        "po",
        "se"
      ],
      [
        "po",
        "tentially"
      ],
      [
        "fore",
        "ver"
      ],
      [
        "vide",
        "os"
      ],
      [
        "ren",
        "ting"
      ],
      [
        "lo",
        "ves"
      ],
      [
        "lo",
        "ans"
      ],
      [
        "ard",
        "ing"
      ],
      [
        "mem",
        "orable"
      ],
      [
        "ph",
        "ers"
      ],
      [
        "ph",
        "antom"
      ],
      [
        "ph",
        "rase"
      ],
      [
        "est",
        "ablis"
      ],
      [
        "mind",
        "set"
      ],
      [
        "sc",
        "ore"
      ],
      [
        "sc",
        "ram"
      ],
      [
        "gr",
        "ind"
      ],
      [
        "gr",
        "andma"
      ],
      [
        "over",
        "stimulation"
      ],
      [
        "pre",
        "y"
      ],
      [
        "pre",
        "vents"
      ],
      [
        "hum",
        "ility"
      ],
      [
        "num",
        "bed"
      ],
      [
        "cti",
        "ves"
      ],
      [
        "fin",
        "ally"
      ],
      [
        "fin",
        "ish"
      ],
      [
        "fin",
        "ances"
      ],
      [
        "pen",
        "s"
      ],
      [
        "Mar",
        "cus"
      ],
      [
        "So",
        "cial"
      ],
      [
        "even",
        "ings"
      ],
      [
        "sleep",
        "ing"
      ],
      [
        "use",
        "ful"
      ],
      [
        "form",
        "ing"
      ],
      [
        "cle",
        "an"
      ],
      [
        "gg",
        "ers"
      ],
      [
        "lli",
        "ous"
      ],
      [
        "Su",
        "dden"
      ],
      [
        "Su",
        "mmarize"
      ],
      [
        "Start",
        "ing"
      ],
      [
        "Multi",
        "tasking"
      ],
      [
        "if",
        "y"
      ],
      [
        "par",
        "alle"
      ],
      [
        "pon",
        "ents"
      ],
      [
        "tr",
        "uly"
      ],
      [
        "choo",
        "sing"
      ],
      [
        "valu",
        "ed"
      ],
      [
        "cal",
        "ms"
      ],
      [
        "spe",
        "ct"
      ],
      [
        "isten",
        "cy"
      ],
      [
        "ase",
        "ts"
      ],
      [
        "No",
        "tifications"
      ],
      [
        "No",
        "tice"
      ],
      [
        "tre",
        "ating"
      ],
      [
        "enti",
        "sts"
      ],
      [
        "br",
        "istles"
      ],
      [
        "mis",
        "information"
      ],
      [
        "mis",
        "lead"
      ],
      [
        "remem",
        "bered"
      ],
      [
        "comp",
        "an"
      ],
      [
        "comp",
        "ounds"
      ],
      [
        "comp",
        "ulsive"
      ],
      [
        "teen",
        "s"
      ],
      [
        "respon",
        "ses"
      ],
      [
        "tur",
        "ally"
      ],
      [
        "tur",
        "ning"
      ],
      [
        "read",
        "ing"
      ],
      [
        "too",
        "k"
      ],
      [
        "qui",
        "et"
      ],
      [
        "new",
        "s"
      ],
      [
        "Re",
        "ality"
      ],
      [
        "Re",
        "place"
      ],
      [
        "Re",
        "action"
      ],
      [
        "Re",
        "cipes"
      ],
      [
        "che",
        "f"
      ],
      [
        "che",
        "cks"
      ],
      [
        "che",
        "mic"
      ],
      [
        "mon",
        "es"
      ],
      [
        "pres",
        "erves"
      ],
      [
        "shar",
        "pens"
      ],
      [
        "human",
        "ity"
      ],
      [
        "food",
        "ies"
      ],
      [
        "fac",
        "ial"
      ],
      [
        "ho",
        "lding"
      ],
      [
        "ho",
        "arding"
      ],
      [
        "ness",
        "es"
      ],
      [
        "pul",
        "ling"
      ],
      [
        "star",
        "s"
      ],
      [
        "conne",
        "ctions"
      ],
      [
        "night",
        "mares"
      ],
      [
        "?”",
        ","
      ],
      [
        "schoo",
        "ls"
      ],
      [
        "show",
        "ing"
      ],
      [
        "bet",
        "ween"
      ],
      [
        "works",
        "pace"
      ],
      [
        "decisi",
        "on"
      ],
      [
        "basic",
        "s"
      ],
      [
        "dat",
        "asets"
      ],
      [
        "ip",
        "ts"
      ],
      [
        "men",
        "ted"
      ],
      [
        "tri",
        "cks"
      ],
      [
        "tri",
        "ggers"
      ],
      [
        "stru",
        "ggle"
      ],
      [
        "respect",
        "fully"
      ],
      [
        "emotion",
        "ally"
      ],
      [
        "producti",
        "ve"
      ],
      [
        "discipline",
        "d"
      ],
      [
        "fra",
        "me"
      ],
      [
        "op",
        "tions"
      ],
      [
        "op",
        "inions"
      ],
      [
        "wr",
        "itten"
      ],
      [
        "intention",
        "ally"
      ],
      [
        "lea",
        "king"
      ],
      [
        "lea",
        "ks"
      ],
      [
        "lea",
        "ving"
      ],
      [
        "moder",
        "ation"
      ],
      [
        "expl",
        "ain"
      ],
      [
        "expl",
        "anation"
      ],
      [
        "essenti",
        "als"
      ],
      [
        "clear",
        "ly"
      ],
      [
        "streng",
        "ths"
      ],
      [
        "Res",
        "ist"
      ],
      [
        "bl",
        "end"
      ],
      [
        "bl",
        "indly"
      ],
      [
        "master",
        "y"
[...]
